{
  "version": "1.0",
  "truncation": null,
  "padding": null,
  "added_tokens": [
    {
      "id": 0,
      "content": "[UNK]",
      "single_word": false,
      "lstrip": false,
      "rstrip": false,
      "normalized": false,
      "special": true
    },
    {
      "id": 1,
      "content": "[PAD]",
      "single_word": false,
      "lstrip": false,
      "rstrip": false,
      "normalized": false,
      "special": true
    },
    {
      "id": 2,
      "content": "[CLS]",
      "single_word": false,
      "lstrip": false,
      "rstrip": false,
      "normalized": false,
      "special": true
    },
    {
      "id": 3,
      "content": "[SEP]",
      "single_word": false,
      "lstrip": false,
      "rstrip": false,
      "normalized": false,
      "special": true
    },
    {
      "id": 4,
      "content": "[MASK]",
      "single_word": false,
      "lstrip": false,
      "rstrip": false,
      "normalized": false,
      "special": true
    }
  ],
  "normalizer": {
    "type": "BertNormalizer",
    "clean_text": true,
    "handle_chinese_chars": true,
    "strip_accents": null,
    "lowercase": true
  },
  "pre_tokenizer": {
    "type": "BertPreTokenizer"
  },
  "post_processor": {
    "type": "TemplateProcessing",
    "single": [
      {
        "SpecialToken": {
          "id": "[CLS]",
          "type_id": 0
        }
      },
      {
        "Sequence": {
          "id": "A",
          "type_id": 0
        }
      },
      {
        "SpecialToken": {
          "id": "[SEP]",
          "type_id": 0
        }
      }
    ],
    "pair": [
      {
        "SpecialToken": {
          "id": "[CLS]",
          "type_id": 0
        }
      },
      {
        "Sequence": {
          "id": "A",
          "type_id": 0
        }
      },
      {
        "SpecialToken": {
          "id": "[SEP]",
          "type_id": 0
        }
      },
      {
        "Sequence": {
          "id": "B",
          "type_id": 1
        }
      },
      {
        "SpecialToken": {
          "id": "[SEP]",
          "type_id": 1
        }
      }
    ],
    "special_tokens": {
      "[CLS]": {
        "id": "[CLS]",
        "ids": [
          2
        ],
        "tokens": [
          "[CLS]"
        ]
      },
      "[SEP]": {
        "id": "[SEP]",
        "ids": [
          3
        ],
        "tokens": [
          "[SEP]"
        ]
      }
    }
  },
  "decoder": {
    "type": "WordPiece",
    "prefix": "##",
    "cleanup": true
  },
  "model": {
    "type": "WordPiece",
    "unk_token": "[UNK]",
    "continuing_subword_prefix": "##",
    "max_input_chars_per_word": 100,
    "vocab": {
      "[UNK]": 0,
      "[PAD]": 1,
      "[CLS]": 2,
      "[SEP]": 3,
      "[MASK]": 4,
      "!": 5,
      "#": 6,
      "$": 7,
      "%": 8,
      "&": 9,
      "'": 10,
      "(": 11,
      ")": 12,
      "*": 13,
      "+": 14,
      ",": 15,
      "-": 16,
      ".": 17,
      "/": 18,
      "0": 19,
      "1": 20,
      "2": 21,
      "3": 22,
      "4": 23,
      "5": 24,
      "6": 25,
      "7": 26,
      "8": 27,
      "9": 28,
      ":": 29,
      ";": 30,
      "<": 31,
      "=": 32,
      ">": 33,
      "?": 34,
      "@": 35,
      "[": 36,
      "\\": 37,
      "]": 38,
      "^": 39,
      "_": 40,
      "`": 41,
      "a": 42,
      "b": 43,
      "c": 44,
      "d": 45,
      "e": 46,
      "f": 47,
      "g": 48,
      "h": 49,
      "i": 50,
      "j": 51,
      "k": 52,
      "l": 53,
      "m": 54,
      "n": 55,
      "o": 56,
      "p": 57,
      "q": 58,
      "r": 59,
      "s": 60,
      "t": 61,
      "u": 62,
      "v": 63,
      "w": 64,
      "x": 65,
      "y": 66,
      "z": 67,
      "{": 68,
      "|": 69,
      "}": 70,
      "~": 71,
      "¡": 72,
      "¢": 73,
      "£": 74,
      "¥": 75,
      "§": 76,
      "¨": 77,
      "©": 78,
      "ª": 79,
      "«": 80,
      "¬": 81,
      "®": 82,
      "°": 83,
      "±": 84,
      "²": 85,
      "³": 86,
      "´": 87,
      "µ": 88,
      "·": 89,
      "¹": 90,
      "º": 91,
      "»": 92,
      "¼": 93,
      "½": 94,
      "¾": 95,
      "¿": 96,
      "×": 97,
      "ß": 98,
      "æ": 99,
      "ð": 100,
      "÷": 101,
      "ø": 102,
      "þ": 103,
      "đ": 104,
      "ħ": 105,
      "ı": 106,
      "ĳ": 107,
      "ł": 108,
      "ŋ": 109,
      "œ": 110,
      "ƶ": 111,
      "ǀ": 112,
      "ǁ": 113,
      "ǂ": 114,
      "ǃ": 115,
      "ȷ": 116,
      "ɐ": 117,
      "ɑ": 118,
      "ɒ": 119,
      "ɓ": 120,
      "ɔ": 121,
      "ɕ": 122,
      "ɖ": 123,
      "ɘ": 124,
      "ə": 125,
      "ɚ": 126,
      "ɛ": 127,
      "ɜ": 128,
      "ɝ": 129,
      "ɟ": 130,
      "ɡ": 131,
      "ɣ": 132,
      "ɤ": 133,
      "ɥ": 134,
      "ɦ": 135,
      "ɧ": 136,
      "ɨ": 137,
      "ɪ": 138,
      "ɫ": 139,
      "ɬ": 140,
      "ɭ": 141,
      "ɮ": 142,
      "ɯ": 143,
      "ɰ": 144,
      "ɲ": 145,
      "ɳ": 146,
      "ɴ": 147,
      "ɵ": 148,
      "ɸ": 149,
      "ɹ": 150,
      "ɻ": 151,
      "ɽ": 152,
      "ɾ": 153,
      "ʀ": 154,
      "ʁ": 155,
      "ʂ": 156,
      "ʃ": 157,
      "ʈ": 158,
      "ʉ": 159,
      "ʊ": 160,
      "ʋ": 161,
      "ʌ": 162,
      "ʍ": 163,
      "ʎ": 164,
      "ʏ": 165,
      "ʐ": 166,
      "ʑ": 167,
      "ʒ": 168,
      "ʔ": 169,
      "ʕ": 170,
      "ʝ": 171,
      "ʣ": 172,
      "ʤ": 173,
      "ʥ": 174,
      "ʦ": 175,
      "ʧ": 176,
      "ʨ": 177,
      "ʰ": 178,
      "ʱ": 179,
      "ʲ": 180,
      "ʷ": 181,
      "ʸ": 182,
      "ʹ": 183,
      "ʻ": 184,
      "ʼ": 185,
      "ʾ": 186,
      "ʿ": 187,
      "ˀ": 188,
      "ˇ": 189,
      "ˈ": 190,
      "ˊ": 191,
      "ˋ": 192,
      "ˌ": 193,
      "ː": 194,
      "ˑ": 195,
      "˙": 196,
      "˚": 197,
      "ˠ": 198,
      "ˢ": 199,
      "ˤ": 200,
      "˥": 201,
      "˧": 202,
      "˨": 203,
      "˩": 204,
      "ˮ": 205,
      "α": 206,
      "β": 207,
      "γ": 208,
      "δ": 209,
      "ε": 210,
      "ζ": 211,
      "η": 212,
      "θ": 213,
      "ι": 214,
      "κ": 215,
      "λ": 216,
      "μ": 217,
      "ν": 218,
      "ξ": 219,
      "ο": 220,
      "π": 221,
      "ρ": 222,
      "ς": 223,
      "σ": 224,
      "τ": 225,
      "υ": 226,
      "φ": 227,
      "χ": 228,
      "ψ": 229,
      "ω": 230,
      "ϕ": 231,
      "ϣ": 232,
      "ϯ": 233,
      "а": 234,
      "б": 235,
      "в": 236,
      "г": 237,
      "д": 238,
      "е": 239,
      "ж": 240,
      "з": 241,
      "и": 242,
      "к": 243,
      "л": 244,
      "м": 245,
      "н": 246,
      "о": 247,
      "п": 248,
      "р": 249,
      "с": 250,
      "т": 251,
      "у": 252,
      "ф": 253,
      "х": 254,
      "ц": 255,
      "ч": 256,
      "ш": 257,
      "щ": 258,
      "ъ": 259,
      "ы": 260,
      "ь": 261,
      "э": 262,
      "ю": 263,
      "я": 264,
      "ђ": 265,
      "є": 266,
      "і": 267,
      "ј": 268,
      "љ": 269,
      "њ": 270,
      "ћ": 271,
      "џ": 272,
      "ѣ": 273,
      "ѳ": 274,
      "ґ": 275,
      "ғ": 276,
      "ҕ": 277,
      "ҙ": 278,
      "қ": 279,
      "ҟ": 280,
      "ҡ": 281,
      "ң": 282,
      "ҥ": 283,
      "ҧ": 284,
      "ҭ": 285,
      "ү": 286,
      "ұ": 287,
      "ҳ": 288,
      "ҵ": 289,
      "ҷ": 290,
      "ҹ": 291,
      "һ": 292,
      "ӏ": 293,
      "ӕ": 294,
      "ә": 295,
      "ө": 296,
      "ӷ": 297,
      "ԥ": 298,
      "ա": 299,
      "բ": 300,
      "գ": 301,
      "դ": 302,
      "ե": 303,
      "զ": 304,
      "է": 305,
      "ը": 306,
      "թ": 307,
      "ժ": 308,
      "ի": 309,
      "լ": 310,
      "խ": 311,
      "ծ": 312,
      "կ": 313,
      "հ": 314,
      "ձ": 315,
      "ղ": 316,
      "ճ": 317,
      "մ": 318,
      "յ": 319,
      "ն": 320,
      "շ": 321,
      "ո": 322,
      "չ": 323,
      "պ": 324,
      "ջ": 325,
      "ռ": 326,
      "ս": 327,
      "վ": 328,
      "տ": 329,
      "ր": 330,
      "ց": 331,
      "ւ": 332,
      "փ": 333,
      "ք": 334,
      "օ": 335,
      "ֆ": 336,
      "և": 337,
      "־": 338,
      "א": 339,
      "ב": 340,
      "ג": 341,
      "ד": 342,
      "ה": 343,
      "ו": 344,
      "ז": 345,
      "ח": 346,
      "ט": 347,
      "י": 348,
      "ך": 349,
      "כ": 350,
      "ל": 351,
      "ם": 352,
      "מ": 353,
      "ן": 354,
      "נ": 355,
      "ס": 356,
      "ע": 357,
      "ף": 358,
      "פ": 359,
      "ץ": 360,
      "צ": 361,
      "ק": 362,
      "ר": 363,
      "ש": 364,
      "ת": 365,
      "װ": 366,
      "ײ": 367,
      "״": 368,
      "،": 369,
      "؛": 370,
      "؟": 371,
      "ء": 372,
      "ا": 373,
      "ب": 374,
      "ة": 375,
      "ت": 376,
      "ث": 377,
      "ج": 378,
      "ح": 379,
      "خ": 380,
      "د": 381,
      "ذ": 382,
      "ر": 383,
      "ز": 384,
      "س": 385,
      "ش": 386,
      "ص": 387,
      "ض": 388,
      "ط": 389,
      "ظ": 390,
      "ع": 391,
      "غ": 392,
      "ـ": 393,
      "ف": 394,
      "ق": 395,
      "ك": 396,
      "ل": 397,
      "م": 398,
      "ن": 399,
      "ه": 400,
      "و": 401,
      "ى": 402,
      "ي": 403,
      "٠": 404,
      "١": 405,
      "٢": 406,
      "٣": 407,
      "٤": 408,
      "٦": 409,
      "٧": 410,
      "٩": 411,
      "ٮ": 412,
      "ٱ": 413,
      "ٹ": 414,
      "ٻ": 415,
      "ټ": 416,
      "ٽ": 417,
      "پ": 418,
      "ڀ": 419,
      "ڄ": 420,
      "څ": 421,
      "چ": 422,
      "ڇ": 423,
      "ڈ": 424,
      "ډ": 425,
      "ڊ": 426,
      "ڌ": 427,
      "ڍ": 428,
      "ڏ": 429,
      "ڑ": 430,
      "ړ": 431,
      "ژ": 432,
      "ڙ": 433,
      "ښ": 434,
      "ڛ": 435,
      "ڠ": 436,
      "ڢ": 437,
      "ڤ": 438,
      "ڥ": 439,
      "ڨ": 440,
      "ک": 441,
      "ڪ": 442,
      "ګ": 443,
      "ڬ": 444,
      "ڭ": 445,
      "گ": 446,
      "ڱ": 447,
      "ڵ": 448,
      "ڶ": 449,
      "ں": 450,
      "ڻ": 451,
      "ھ": 452,
      "ہ": 453,
      "ۃ": 454,
      "ۆ": 455,
      "ۇ": 456,
      "ۈ": 457,
      "ۋ": 458,
      "ی": 459,
      "ۍ": 460,
      "ێ": 461,
      "ۏ": 462,
      "ې": 463,
      "ے": 464,
      "۔": 465,
      "ە": 466,
      "۱": 467,
      "۲": 468,
      "۳": 469,
      "۵": 470,
      "۷": 471,
      "۸": 472,
      "۽": 473,
      "ܐ": 474,
      "ܒ": 475,
      "ܓ": 476,
      "ܕ": 477,
      "ܗ": 478,
      "ܘ": 479,
      "ܙ": 480,
      "ܚ": 481,
      "ܛ": 482,
      "ܝ": 483,
      "ܟ": 484,
      "ܠ": 485,
      "ܡ": 486,
      "ܢ": 487,
      "ܣ": 488,
      "ܥ": 489,
      "ܦ": 490,
      "ܩ": 491,
      "ܪ": 492,
      "ܬ": 493,
      "ݒ": 494,
      "ݣ": 495,
      "ހ": 496,
      "ނ": 497,
      "ރ": 498,
      "ބ": 499,
      "ޅ": 500,
      "ކ": 501,
      "އ": 502,
      "ވ": 503,
      "މ": 504,
      "ފ": 505,
      "ދ": 506,
      "ތ": 507,
      "ލ": 508,
      "ގ": 509,
      "ސ": 510,
      "ޑ": 511,
      "ޒ": 512,
      "ޓ": 513,
      "ޔ": 514,
      "ޖ": 515,
      "ޙ": 516,
      "ޝ": 517,
      "ޢ": 518,
      "ޤ": 519,
      "ः": 520,
      "अ": 521,
      "आ": 522,
      "इ": 523,
      "ई": 524,
      "उ": 525,
      "ऊ": 526,
      "ऋ": 527,
      "ए": 528,
      "ऐ": 529,
      "ऑ": 530,
      "ओ": 531,
      "औ": 532,
      "क": 533,
      "ख": 534,
      "ग": 535,
      "घ": 536,
      "ङ": 537,
      "च": 538,
      "छ": 539,
      "ज": 540,
      "झ": 541,
      "ञ": 542,
      "ट": 543,
      "ठ": 544,
      "ड": 545,
      "ढ": 546,
      "ण": 547,
      "त": 548,
      "थ": 549,
      "द": 550,
      "ध": 551,
      "न": 552,
      "प": 553,
      "फ": 554,
      "ब": 555,
      "भ": 556,
      "म": 557,
      "य": 558,
      "र": 559,
      "ल": 560,
      "ळ": 561,
      "व": 562,
      "श": 563,
      "ष": 564,
      "स": 565,
      "ह": 566,
      "ा": 567,
      "ि": 568,
      "ी": 569,
      "ॉ": 570,
      "ो": 571,
      "ौ": 572,
      "०": 573,
      "२": 574,
      "३": 575,
      "॰": 576,
      "ং": 577,
      "ঃ": 578,
      "অ": 579,
      "আ": 580,
      "ই": 581,
      "ঈ": 582,
      "উ": 583,
      "ঊ": 584,
      "এ": 585,
      "ও": 586,
      "ক": 587,
      "খ": 588,
      "গ": 589,
      "ঘ": 590,
      "ঙ": 591,
      "চ": 592,
      "ছ": 593,
      "জ": 594,
      "ঝ": 595,
      "ঞ": 596,
      "ট": 597,
      "ঠ": 598,
      "ড": 599,
      "ঢ": 600,
      "ণ": 601,
      "ত": 602,
      "থ": 603,
      "দ": 604,
      "ধ": 605,
      "ন": 606,
      "প": 607,
      "ফ": 608,
      "ব": 609,
      "ভ": 610,
      "ম": 611,
      "য": 612,
      "র": 613,
      "ল": 614,
      "শ": 615,
      "ষ": 616,
      "স": 617,
      "হ": 618,
      "া": 619,
      "ি": 620,
      "ী": 621,
      "ে": 622,
      "ৈ": 623,
      "ৎ": 624,
      "ৗ": 625,
      "০": 626,
      "১": 627,
      "২": 628,
      "৩": 629,
      "৭": 630,
      "৮": 631,
      "৯": 632,
      "ৰ": 633,
      "ৱ": 634,
      "ਅ": 635,
      "ਆ": 636,
      "ਇ": 637,
      "ਈ": 638,
      "ਉ": 639,
      "ਏ": 640,
      "ਕ": 641,
      "ਖ": 642,
      "ਗ": 643,
      "ਘ": 644,
      "ਚ": 645,
      "ਛ": 646,
      "ਜ": 647,
      "ਝ": 648,
      "ਟ": 649,
      "ਠ": 650,
      "ਡ": 651,
      "ਣ": 652,
      "ਤ": 653,
      "ਥ": 654,
      "ਦ": 655,
      "ਧ": 656,
      "ਨ": 657,
      "ਪ": 658,
      "ਫ": 659,
      "ਬ": 660,
      "ਭ": 661,
      "ਮ": 662,
      "ਯ": 663,
      "ਰ": 664,
      "ਲ": 665,
      "ਵ": 666,
      "ਸ": 667,
      "ਹ": 668,
      "ਾ": 669,
      "ਿ": 670,
      "ੀ": 671,
      "ੜ": 672,
      "અ": 673,
      "ઇ": 674,
      "ઈ": 675,
      "ક": 676,
      "ખ": 677,
      "ગ": 678,
      "ચ": 679,
      "જ": 680,
      "ટ": 681,
      "ઠ": 682,
      "ડ": 683,
      "ઢ": 684,
      "ણ": 685,
      "ત": 686,
      "થ": 687,
      "દ": 688,
      "ધ": 689,
      "ન": 690,
      "પ": 691,
      "બ": 692,
      "ભ": 693,
      "મ": 694,
      "ય": 695,
      "ર": 696,
      "લ": 697,
      "ળ": 698,
      "વ": 699,
      "શ": 700,
      "ષ": 701,
      "સ": 702,
      "હ": 703,
      "ા": 704,
      "િ": 705,
      "ી": 706,
      "ો": 707,
      "ૌ": 708,
      "ଂ": 709,
      "ଅ": 710,
      "ଆ": 711,
      "ଇ": 712,
      "ଉ": 713,
      "ଏ": 714,
      "ଓ": 715,
      "କ": 716,
      "ଖ": 717,
      "ଗ": 718,
      "ଘ": 719,
      "ଙ": 720,
      "ଚ": 721,
      "ଜ": 722,
      "ଝ": 723,
      "ଞ": 724,
      "ଟ": 725,
      "ଠ": 726,
      "ଡ": 727,
      "ଢ": 728,
      "ଣ": 729,
      "ତ": 730,
      "ଥ": 731,
      "ଦ": 732,
      "ଧ": 733,
      "ନ": 734,
      "ପ": 735,
      "ଫ": 736,
      "ବ": 737,
      "ଭ": 738,
      "ମ": 739,
      "ଯ": 740,
      "ର": 741,
      "ଲ": 742,
      "ଳ": 743,
      "ଵ": 744,
      "ଶ": 745,
      "ଷ": 746,
      "ସ": 747,
      "ହ": 748,
      "ା": 749,
      "ୀ": 750,
      "େ": 751,
      "ୗ": 752,
      "ୟ": 753,
      "ୱ": 754,
      "ஃ": 755,
      "அ": 756,
      "ஆ": 757,
      "இ": 758,
      "ஈ": 759,
      "உ": 760,
      "ஊ": 761,
      "எ": 762,
      "ஏ": 763,
      "ஐ": 764,
      "ஒ": 765,
      "ஓ": 766,
      "க": 767,
      "ங": 768,
      "ச": 769,
      "ஜ": 770,
      "ஞ": 771,
      "ட": 772,
      "ண": 773,
      "த": 774,
      "ந": 775,
      "ன": 776,
      "ப": 777,
      "ம": 778,
      "ய": 779,
      "ர": 780,
      "ற": 781,
      "ல": 782,
      "ள": 783,
      "ழ": 784,
      "வ": 785,
      "ஷ": 786,
      "ஸ": 787,
      "ஹ": 788,
      "ா": 789,
      "ி": 790,
      "ு": 791,
      "ூ": 792,
      "ெ": 793,
      "ே": 794,
      "ை": 795,
      "ௗ": 796,
      "ం": 797,
      "అ": 798,
      "ఆ": 799,
      "ఇ": 800,
      "ఈ": 801,
      "ఉ": 802,
      "ఎ": 803,
      "ఏ": 804,
      "ఐ": 805,
      "ఒ": 806,
      "ఓ": 807,
      "క": 808,
      "ఖ": 809,
      "గ": 810,
      "ఘ": 811,
      "ఙ": 812,
      "చ": 813,
      "జ": 814,
      "ఞ": 815,
      "ట": 816,
      "ఠ": 817,
      "డ": 818,
      "ణ": 819,
      "త": 820,
      "థ": 821,
      "ద": 822,
      "ధ": 823,
      "న": 824,
      "ప": 825,
      "ఫ": 826,
      "బ": 827,
      "భ": 828,
      "మ": 829,
      "య": 830,
      "ర": 831,
      "ఱ": 832,
      "ల": 833,
      "ళ": 834,
      "వ": 835,
      "శ": 836,
      "ష": 837,
      "స": 838,
      "హ": 839,
      "ు": 840,
      "ూ": 841,
      "ృ": 842,
      "౦": 843,
      "ಂ": 844,
      "ಅ": 845,
      "ಆ": 846,
      "ಇ": 847,
      "ಈ": 848,
      "ಉ": 849,
      "ಎ": 850,
      "ಏ": 851,
      "ಐ": 852,
      "ಒ": 853,
      "ಓ": 854,
      "ಕ": 855,
      "ಖ": 856,
      "ಗ": 857,
      "ಘ": 858,
      "ಚ": 859,
      "ಛ": 860,
      "ಜ": 861,
      "ಞ": 862,
      "ಟ": 863,
      "ಠ": 864,
      "ಡ": 865,
      "ಣ": 866,
      "ತ": 867,
      "ಥ": 868,
      "ದ": 869,
      "ಧ": 870,
      "ನ": 871,
      "ಪ": 872,
      "ಫ": 873,
      "ಬ": 874,
      "ಭ": 875,
      "ಮ": 876,
      "ಯ": 877,
      "ರ": 878,
      "ಲ": 879,
      "ಳ": 880,
      "ವ": 881,
      "ಶ": 882,
      "ಷ": 883,
      "ಸ": 884,
      "ಹ": 885,
      "ಾ": 886,
      "ು": 887,
      "ೂ": 888,
      "ೃ": 889,
      "ೕ": 890,
      "ೖ": 891,
      "೦": 892,
      "೯": 893,
      "ം": 894,
      "അ": 895,
      "ആ": 896,
      "ഇ": 897,
      "ഈ": 898,
      "ഉ": 899,
      "ഊ": 900,
      "ഋ": 901,
      "എ": 902,
      "ഏ": 903,
      "ഐ": 904,
      "ഒ": 905,
      "ഓ": 906,
      "ക": 907,
      "ഖ": 908,
      "ഗ": 909,
      "ങ": 910,
      "ച": 911,
      "ഛ": 912,
      "ജ": 913,
      "ഞ": 914,
      "ട": 915,
      "ഠ": 916,
      "ഡ": 917,
      "ണ": 918,
      "ത": 919,
      "ഥ": 920,
      "ദ": 921,
      "ധ": 922,
      "ന": 923,
      "പ": 924,
      "ഫ": 925,
      "ബ": 926,
      "ഭ": 927,
      "മ": 928,
      "യ": 929,
      "ര": 930,
      "റ": 931,
      "ല": 932,
      "ള": 933,
      "ഴ": 934,
      "വ": 935,
      "ശ": 936,
      "ഷ": 937,
      "സ": 938,
      "ഹ": 939,
      "ാ": 940,
      "ി": 941,
      "ീ": 942,
      "െ": 943,
      "േ": 944,
      "ൈ": 945,
      "ൗ": 946,
      "൪": 947,
      "ൺ": 948,
      "ൻ": 949,
      "ർ": 950,
      "ൽ": 951,
      "ൾ": 952,
      "ං": 953,
      "අ": 954,
      "ආ": 955,
      "ඇ": 956,
      "ඉ": 957,
      "උ": 958,
      "ඌ": 959,
      "එ": 960,
      "ඒ": 961,
      "ඔ": 962,
      "ක": 963,
      "ග": 964,
      "ඝ": 965,
      "ඞ": 966,
      "ඟ": 967,
      "ච": 968,
      "ජ": 969,
      "ට": 970,
      "ඨ": 971,
      "ඩ": 972,
      "ණ": 973,
      "ත": 974,
      "ථ": 975,
      "ද": 976,
      "ධ": 977,
      "න": 978,
      "ඳ": 979,
      "ප": 980,
      "බ": 981,
      "භ": 982,
      "ම": 983,
      "ඹ": 984,
      "ය": 985,
      "ර": 986,
      "ල": 987,
      "ව": 988,
      "ශ": 989,
      "ෂ": 990,
      "ස": 991,
      "හ": 992,
      "ළ": 993,
      "ෆ": 994,
      "ා": 995,
      "ැ": 996,
      "ෑ": 997,
      "ෙ": 998,
      "ෟ": 999,
      "ก": 1000,
      "ข": 1001,
      "ค": 1002,
      "ฅ": 1003,
      "ฆ": 1004,
      "ง": 1005,
      "จ": 1006,
      "ฉ": 1007,
      "ช": 1008,
      "ซ": 1009,
      "ญ": 1010,
      "ฎ": 1011,
      "ฏ": 1012,
      "ฐ": 1013,
      "ฑ": 1014,
      "ฒ": 1015,
      "ณ": 1016,
      "ด": 1017,
      "ต": 1018,
      "ถ": 1019,
      "ท": 1020,
      "ธ": 1021,
      "น": 1022,
      "บ": 1023,
      "ป": 1024,
      "ผ": 1025,
      "ฝ": 1026,
      "พ": 1027,
      "ฟ": 1028,
      "ภ": 1029,
      "ม": 1030,
      "ย": 1031,
      "ร": 1032,
      "ฤ": 1033,
      "ล": 1034,
      "ว": 1035,
      "ศ": 1036,
      "ษ": 1037,
      "ส": 1038,
      "ห": 1039,
      "ฬ": 1040,
      "อ": 1041,
      "ฮ": 1042,
      "ฯ": 1043,
      "ะ": 1044,
      "า": 1045,
      "ำ": 1046,
      "เ": 1047,
      "แ": 1048,
      "โ": 1049,
      "ใ": 1050,
      "ไ": 1051,
      "ກ": 1052,
      "ຄ": 1053,
      "ງ": 1054,
      "ຈ": 1055,
      "ຊ": 1056,
      "ຍ": 1057,
      "ດ": 1058,
      "ຕ": 1059,
      "ທ": 1060,
      "ນ": 1061,
      "ບ": 1062,
      "ຝ": 1063,
      "ພ": 1064,
      "ມ": 1065,
      "ຢ": 1066,
      "ລ": 1067,
      "ວ": 1068,
      "ສ": 1069,
      "ຫ": 1070,
      "ອ": 1071,
      "ຮ": 1072,
      "ະ": 1073,
      "າ": 1074,
      "ຳ": 1075,
      "ຽ": 1076,
      "ເ": 1077,
      "ໂ": 1078,
      "ໃ": 1079,
      "ໄ": 1080,
      "་": 1081,
      "།": 1082,
      "ཀ": 1083,
      "ཁ": 1084,
      "ག": 1085,
      "ང": 1086,
      "ཆ": 1087,
      "ཇ": 1088,
      "ཉ": 1089,
      "ཏ": 1090,
      "ཐ": 1091,
      "ད": 1092,
      "ན": 1093,
      "པ": 1094,
      "ཕ": 1095,
      "བ": 1096,
      "མ": 1097,
      "ཙ": 1098,
      "ཚ": 1099,
      "ཛ": 1100,
      "ཟ": 1101,
      "འ": 1102,
      "ཡ": 1103,
      "ར": 1104,
      "ལ": 1105,
      "ཤ": 1106,
      "ས": 1107,
      "ཨ": 1108,
      "က": 1109,
      "ခ": 1110,
      "ဂ": 1111,
      "င": 1112,
      "စ": 1113,
      "ဆ": 1114,
      "ဇ": 1115,
      "ဈ": 1116,
      "ဉ": 1117,
      "ည": 1118,
      "ဋ": 1119,
      "ဌ": 1120,
      "ဏ": 1121,
      "တ": 1122,
      "ထ": 1123,
      "ဒ": 1124,
      "ဓ": 1125,
      "န": 1126,
      "ပ": 1127,
      "ဖ": 1128,
      "ဗ": 1129,
      "ဘ": 1130,
      "မ": 1131,
      "ယ": 1132,
      "ရ": 1133,
      "လ": 1134,
      "ဝ": 1135,
      "သ": 1136,
      "ဟ": 1137,
      "ဠ": 1138,
      "အ": 1139,
      "ဥ": 1140,
      "ဧ": 1141,
      "ါ": 1142,
      "ာ": 1143,
      "ေ": 1144,
      "း": 1145,
      "ျ": 1146,
      "ြ": 1147,
      "၁": 1148,
      "၂": 1149,
      "၃": 1150,
      "၄": 1151,
      "၅": 1152,
      "၆": 1153,
      "၉": 1154,
      "၊": 1155,
      "၏": 1156,
      "ၿ": 1157,
      "ႏ": 1158,
      "ა": 1159,
      "ბ": 1160,
      "გ": 1161,
      "დ": 1162,
      "ე": 1163,
      "ვ": 1164,
      "ზ": 1165,
      "თ": 1166,
      "ი": 1167,
      "კ": 1168,
      "ლ": 1169,
      "მ": 1170,
      "ნ": 1171,
      "ო": 1172,
      "პ": 1173,
      "ჟ": 1174,
      "რ": 1175,
      "ს": 1176,
      "ტ": 1177,
      "უ": 1178,
      "ფ": 1179,
      "ქ": 1180,
      "ღ": 1181,
      "ყ": 1182,
      "შ": 1183,
      "ჩ": 1184,
      "ც": 1185,
      "ძ": 1186,
      "წ": 1187,
      "ჭ": 1188,
      "ხ": 1189,
      "ჯ": 1190,
      "ჰ": 1191,
      "ᄀ": 1192,
      "ᄁ": 1193,
      "ᄂ": 1194,
      "ᄃ": 1195,
      "ᄄ": 1196,
      "ᄅ": 1197,
      "ᄆ": 1198,
      "ᄇ": 1199,
      "ᄈ": 1200,
      "ᄉ": 1201,
      "ᄊ": 1202,
      "ᄋ": 1203,
      "ᄌ": 1204,
      "ᄍ": 1205,
      "ᄎ": 1206,
      "ᄏ": 1207,
      "ᄐ": 1208,
      "ᄑ": 1209,
      "ᄒ": 1210,
      "ᅡ": 1211,
      "ᅢ": 1212,
      "ᅣ": 1213,
      "ᅥ": 1214,
      "ᅦ": 1215,
      "ᅧ": 1216,
      "ᅨ": 1217,
      "ᅩ": 1218,
      "ᅪ": 1219,
      "ᅫ": 1220,
      "ᅬ": 1221,
      "ᅭ": 1222,
      "ᅮ": 1223,
      "ᅯ": 1224,
      "ᅰ": 1225,
      "ᅱ": 1226,
      "ᅲ": 1227,
      "ᅳ": 1228,
      "ᅴ": 1229,
      "ᅵ": 1230,
      "ᆨ": 1231,
      "ᆫ": 1232,
      "ᆭ": 1233,
      "ᆮ": 1234,
      "ᆯ": 1235,
      "ᆰ": 1236,
      "ᆶ": 1237,
      "ᆷ": 1238,
      "ᆸ": 1239,
      "ᆹ": 1240,
      "ᆺ": 1241,
      "ᆻ": 1242,
      "ᆼ": 1243,
      "ᆽ": 1244,
      "ᆾ": 1245,
      "ᇀ": 1246,
      "ᇁ": 1247,
      "ᇂ": 1248,
      "ሀ": 1249,
      "ሁ": 1250,
      "ሃ": 1251,
      "ሄ": 1252,
      "ህ": 1253,
      "ሆ": 1254,
      "ለ": 1255,
      "ሉ": 1256,
      "ሊ": 1257,
      "ላ": 1258,
      "ል": 1259,
      "ሐ": 1260,
      "ሓ": 1261,
      "ሕ": 1262,
      "መ": 1263,
      "ሙ": 1264,
      "ሚ": 1265,
      "ማ": 1266,
      "ሜ": 1267,
      "ም": 1268,
      "ሞ": 1269,
      "ሠ": 1270,
      "ሣ": 1271,
      "ረ": 1272,
      "ሩ": 1273,
      "ሪ": 1274,
      "ራ": 1275,
      "ሬ": 1276,
      "ር": 1277,
      "ሮ": 1278,
      "ሰ": 1279,
      "ሱ": 1280,
      "ሲ": 1281,
      "ሳ": 1282,
      "ሴ": 1283,
      "ስ": 1284,
      "ሶ": 1285,
      "ሸ": 1286,
      "ሻ": 1287,
      "ሾ": 1288,
      "ቀ": 1289,
      "ቂ": 1290,
      "ቅ": 1291,
      "በ": 1292,
      "ቡ": 1293,
      "ቢ": 1294,
      "ባ": 1295,
      "ብ": 1296,
      "ቨ": 1297,
      "ተ": 1298,
      "ቱ": 1299,
      "ቲ": 1300,
      "ታ": 1301,
      "ቴ": 1302,
      "ት": 1303,
      "ቶ": 1304,
      "ቸ": 1305,
      "ች": 1306,
      "ኃ": 1307,
      "ኋ": 1308,
      "ነ": 1309,
      "ኒ": 1310,
      "ና": 1311,
      "ን": 1312,
      "ኖ": 1313,
      "ኝ": 1314,
      "አ": 1315,
      "ኢ": 1316,
      "ኣ": 1317,
      "ኤ": 1318,
      "እ": 1319,
      "ከ": 1320,
      "ኩ": 1321,
      "ኪ": 1322,
      "ካ": 1323,
      "ክ": 1324,
      "ኮ": 1325,
      "ኸ": 1326,
      "ወ": 1327,
      "ዊ": 1328,
      "ዋ": 1329,
      "ው": 1330,
      "ዎ": 1331,
      "ዓ": 1332,
      "ዕ": 1333,
      "ዜ": 1334,
      "ዝ": 1335,
      "ዢ": 1336,
      "የ": 1337,
      "ዩ": 1338,
      "ያ": 1339,
      "ይ": 1340,
      "ዮ": 1341,
      "ደ": 1342,
      "ዲ": 1343,
      "ዳ": 1344,
      "ዴ": 1345,
      "ድ": 1346,
      "ዸ": 1347,
      "ዻ": 1348,
      "ጀ": 1349,
      "ጆ": 1350,
      "ገ": 1351,
      "ጉ": 1352,
      "ጊ": 1353,
      "ጋ": 1354,
      "ጌ": 1355,
      "ግ": 1356,
      "ጣ": 1357,
      "ጤ": 1358,
      "ጥ": 1359,
      "ጨ": 1360,
      "ጵ": 1361,
      "ጻ": 1362,
      "ጽ": 1363,
      "ፅ": 1364,
      "ፈ": 1365,
      "ፍ": 1366,
      "ፕ": 1367,
      "፡": 1368,
      "፭": 1369,
      "፻": 1370,
      "ᐃ": 1371,
      "ᐅ": 1372,
      "ᐊ": 1373,
      "ᐋ": 1374,
      "ᐣ": 1375,
      "ᐦ": 1376,
      "ᐧ": 1377,
      "ᐱ": 1378,
      "ᐲ": 1379,
      "ᐳ": 1380,
      "ᐸ": 1381,
      "ᑉ": 1382,
      "ᑎ": 1383,
      "ᑐ": 1384,
      "ᑕ": 1385,
      "ᑦ": 1386,
      "ᑫ": 1387,
      "ᑭ": 1388,
      "ᑯ": 1389,
      "ᑰ": 1390,
      "ᑲ": 1391,
      "ᒃ": 1392,
      "ᒌ": 1393,
      "ᒥ": 1394,
      "ᒦ": 1395,
      "ᒪ": 1396,
      "ᓂ": 1397,
      "ᓄ": 1398,
      "ᓅ": 1399,
      "ᓇ": 1400,
      "ᓐ": 1401,
      "ᓕ": 1402,
      "ᓗ": 1403,
      "ᓛ": 1404,
      "ᓪ": 1405,
      "ᓯ": 1406,
      "ᓱ": 1407,
      "ᓲ": 1408,
      "ᓴ": 1409,
      "ᔨ": 1410,
      "ᔩ": 1411,
      "ᔪ": 1412,
      "ᔾ": 1413,
      "ᕆ": 1414,
      "ᕇ": 1415,
      "ᕈ": 1416,
      "ᕋ": 1417,
      "ᕐ": 1418,
      "ᕕ": 1419,
      "ᕗ": 1420,
      "ᕙ": 1421,
      "ᕝ": 1422,
      "ᖀ": 1423,
      "ᖁ": 1424,
      "ᖃ": 1425,
      "ᖅ": 1426,
      "ᖏ": 1427,
      "ᖓ": 1428,
      "ក": 1429,
      "ខ": 1430,
      "គ": 1431,
      "ឃ": 1432,
      "ង": 1433,
      "ច": 1434,
      "ឆ": 1435,
      "ជ": 1436,
      "ឈ": 1437,
      "ញ": 1438,
      "ដ": 1439,
      "ឋ": 1440,
      "ឌ": 1441,
      "ណ": 1442,
      "ត": 1443,
      "ថ": 1444,
      "ទ": 1445,
      "ធ": 1446,
      "ន": 1447,
      "ប": 1448,
      "ផ": 1449,
      "ព": 1450,
      "ភ": 1451,
      "ម": 1452,
      "យ": 1453,
      "រ": 1454,
      "ល": 1455,
      "វ": 1456,
      "ស": 1457,
      "ហ": 1458,
      "ឡ": 1459,
      "អ": 1460,
      "ា": 1461,
      "ើ": 1462,
      "ឿ": 1463,
      "ៀ": 1464,
      "េ": 1465,
      "ែ": 1466,
      "ៃ": 1467,
      "ោ": 1468,
      "ៅ": 1469,
      "ះ": 1470,
      "ᠠ": 1471,
      "ᠡ": 1472,
      "ᠢ": 1473,
      "ᠣ": 1474,
      "ᠤ": 1475,
      "ᠥ": 1476,
      "ᠦ": 1477,
      "ᠨ": 1478,
      "ᠩ": 1479,
      "ᠪ": 1480,
      "ᠭ": 1481,
      "ᠯ": 1482,
      "ᠰ": 1483,
      "ᠲ": 1484,
      "ᠴ": 1485,
      "ᠶ": 1486,
      "ᠷ": 1487,
      "ᠸ": 1488,
      "ᠺ": 1489,
      "ᡝ": 1490,
      "ᡞ": 1491,
      "ᡠ": 1492,
      "ᡡ": 1493,
      "ᡣ": 1494,
      "ᡤ": 1495,
      "ᡥ": 1496,
      "ᡧ": 1497,
      "ᡳ": 1498,
      "ᡴ": 1499,
      "ᡵ": 1500,
      "ᡶ": 1501,
      "ᴀ": 1502,
      "ᴇ": 1503,
      "ᴋ": 1504,
      "ᶞ": 1505,
      "‐": 1506,
      "‑": 1507,
      "‒": 1508,
      "–": 1509,
      "—": 1510,
      "―": 1511,
      "‘": 1512,
      "’": 1513,
      "‚": 1514,
      "‛": 1515,
      "“": 1516,
      "”": 1517,
      "„": 1518,
      "†": 1519,
      "•": 1520,
      "…": 1521,
      "‰": 1522,
      "′": 1523,
      "″": 1524,
      "‼": 1525,
      "‿": 1526,
      "⁄": 1527,
      "⁊": 1528,
      "ⁱ": 1529,
      "⁴": 1530,
      "⁵": 1531,
      "⁶": 1532,
      "⁽": 1533,
      "⁾": 1534,
      "ⁿ": 1535,
      "₤": 1536,
      "₧": 1537,
      "₨": 1538,
      "₩": 1539,
      "€": 1540,
      "₳": 1541,
      "₵": 1542,
      "℃": 1543,
      "№": 1544,
      "™": 1545,
      "⅓": 1546,
      "⅔": 1547,
      "⅛": 1548,
      "⅜": 1549,
      "⅝": 1550,
      "ⅱ": 1551,
      "ⅳ": 1552,
      "ⅴ": 1553,
      "←": 1554,
      "↑": 1555,
      "→": 1556,
      "↓": 1557,
      "↔": 1558,
      "∀": 1559,
      "∃": 1560,
      "∏": 1561,
      "−": 1562,
      "∙": 1563,
      "√": 1564,
      "∞": 1565,
      "∧": 1566,
      "≈": 1567,
      "≤": 1568,
      "⋅": 1569,
      "⎯": 1570,
      "①": 1571,
      "③": 1572,
      "⑧": 1573,
      "⑬": 1574,
      "─": 1575,
      "□": 1576,
      "◆": 1577,
      "○": 1578,
      "●": 1579,
      "★": 1580,
      "☆": 1581,
      "♀": 1582,
      "♂": 1583,
      "♙": 1584,
      "♠": 1585,
      "♣": 1586,
      "♥": 1587,
      "♦": 1588,
      "♪": 1589,
      "♭": 1590,
      "♯": 1591,
      "ⲁ": 1592,
      "ⲃ": 1593,
      "ⲅ": 1594,
      "ⲇ": 1595,
      "ⲉ": 1596,
      "ⲏ": 1597,
      "ⲑ": 1598,
      "ⲓ": 1599,
      "ⲕ": 1600,
      "ⲗ": 1601,
      "ⲙ": 1602,
      "ⲛ": 1603,
      "ⲝ": 1604,
      "ⲟ": 1605,
      "ⲡ": 1606,
      "ⲣ": 1607,
      "ⲥ": 1608,
      "ⲧ": 1609,
      "ⲩ": 1610,
      "ⲫ": 1611,
      "ⲭ": 1612,
      "ⲱ": 1613,
      "⳿": 1614,
      "ⴰ": 1615,
      "ⴽ": 1616,
      "ⵉ": 1617,
      "ⵏ": 1618,
      "ⵛ": 1619,
      "ⵜ": 1620,
      "ⵣ": 1621,
      "、": 1622,
      "。": 1623,
      "々": 1624,
      "〇": 1625,
      "〈": 1626,
      "〉": 1627,
      "《": 1628,
      "》": 1629,
      "「": 1630,
      "」": 1631,
      "『": 1632,
      "』": 1633,
      "【": 1634,
      "】": 1635,
      "〜": 1636,
      "ぁ": 1637,
      "あ": 1638,
      "ぃ": 1639,
      "い": 1640,
      "う": 1641,
      "ぇ": 1642,
      "え": 1643,
      "お": 1644,
      "か": 1645,
      "き": 1646,
      "く": 1647,
      "け": 1648,
      "こ": 1649,
      "さ": 1650,
      "し": 1651,
      "す": 1652,
      "せ": 1653,
      "そ": 1654,
      "た": 1655,
      "ち": 1656,
      "っ": 1657,
      "つ": 1658,
      "て": 1659,
      "と": 1660,
      "な": 1661,
      "に": 1662,
      "ぬ": 1663,
      "ね": 1664,
      "の": 1665,
      "は": 1666,
      "ひ": 1667,
      "ふ": 1668,
      "へ": 1669,
      "ほ": 1670,
      "ま": 1671,
      "み": 1672,
      "む": 1673,
      "め": 1674,
      "も": 1675,
      "ゃ": 1676,
      "や": 1677,
      "ゅ": 1678,
      "ゆ": 1679,
      "ょ": 1680,
      "よ": 1681,
      "ら": 1682,
      "り": 1683,
      "る": 1684,
      "れ": 1685,
      "ろ": 1686,
      "わ": 1687,
      "ゐ": 1688,
      "ゑ": 1689,
      "を": 1690,
      "ん": 1691,
      "ゝ": 1692,
      "ァ": 1693,
      "ア": 1694,
      "ィ": 1695,
      "イ": 1696,
      "ゥ": 1697,
      "ウ": 1698,
      "ェ": 1699,
      "エ": 1700,
      "ォ": 1701,
      "オ": 1702,
      "カ": 1703,
      "キ": 1704,
      "ク": 1705,
      "ケ": 1706,
      "コ": 1707,
      "サ": 1708,
      "シ": 1709,
      "ス": 1710,
      "セ": 1711,
      "ソ": 1712,
      "タ": 1713,
      "チ": 1714,
      "ッ": 1715,
      "ツ": 1716,
      "テ": 1717,
      "ト": 1718,
      "ナ": 1719,
      "ニ": 1720,
      "ヌ": 1721,
      "ネ": 1722,
      "ノ": 1723,
      "ハ": 1724,
      "ヒ": 1725,
      "フ": 1726,
      "ヘ": 1727,
      "ホ": 1728,
      "マ": 1729,
      "ミ": 1730,
      "ム": 1731,
      "メ": 1732,
      "モ": 1733,
      "ャ": 1734,
      "ヤ": 1735,
      "ュ": 1736,
      "ユ": 1737,
      "ョ": 1738,
      "ヨ": 1739,
      "ラ": 1740,
      "リ": 1741,
      "ル": 1742,
      "レ": 1743,
      "ロ": 1744,
      "ワ": 1745,
      "ヱ": 1746,
      "ヲ": 1747,
      "ン": 1748,
      "ヶ": 1749,
      "・": 1750,
      "ー": 1751,
      "ㄅ": 1752,
      "ㄈ": 1753,
      "ㄍ": 1754,
      "ㄎ": 1755,
      "ㄖ": 1756,
      "ㄛ": 1757,
      "ㄠ": 1758,
      "ㄨ": 1759,
      "ㄩ": 1760,
      "ㅎ": 1761,
      "ㇰ": 1762,
      "㈜": 1763,
      "㋮": 1764,
      "㎡": 1765,
      "一": 1766,
      "丁": 1767,
      "七": 1768,
      "万": 1769,
      "丈": 1770,
      "三": 1771,
      "上": 1772,
      "下": 1773,
      "不": 1774,
      "与": 1775,
      "专": 1776,
      "世": 1777,
      "丘": 1778,
      "丙": 1779,
      "业": 1780,
      "丛": 1781,
      "东": 1782,
      "丝": 1783,
      "丞": 1784,
      "両": 1785,
      "两": 1786,
      "严": 1787,
      "並": 1788,
      "个": 1789,
      "中": 1790,
      "丰": 1791,
      "串": 1792,
      "临": 1793,
      "丸": 1794,
      "丹": 1795,
      "为": 1796,
      "主": 1797,
      "丽": 1798,
      "乃": 1799,
      "久": 1800,
      "么": 1801,
      "义": 1802,
      "之": 1803,
      "乌": 1804,
      "乍": 1805,
      "乎": 1806,
      "乏": 1807,
      "乐": 1808,
      "乔": 1809,
      "乗": 1810,
      "乙": 1811,
      "九": 1812,
      "乞": 1813,
      "也": 1814,
      "乡": 1815,
      "书": 1816,
      "买": 1817,
      "乱": 1818,
      "乳": 1819,
      "乾": 1820,
      "亀": 1821,
      "了": 1822,
      "予": 1823,
      "争": 1824,
      "事": 1825,
      "二": 1826,
      "于": 1827,
      "云": 1828,
      "互": 1829,
      "五": 1830,
      "井": 1831,
      "亘": 1832,
      "亚": 1833,
      "些": 1834,
      "亜": 1835,
      "亞": 1836,
      "亡": 1837,
      "亢": 1838,
      "交": 1839,
      "亦": 1840,
      "产": 1841,
      "亨": 1842,
      "亩": 1843,
      "享": 1844,
      "京": 1845,
      "亭": 1846,
      "亮": 1847,
      "亲": 1848,
      "人": 1849,
      "什": 1850,
      "仁": 1851,
      "仄": 1852,
      "仆": 1853,
      "仇": 1854,
      "今": 1855,
      "介": 1856,
      "仏": 1857,
      "仑": 1858,
      "仓": 1859,
      "仔": 1860,
      "仕": 1861,
      "他": 1862,
      "付": 1863,
      "仙": 1864,
      "代": 1865,
      "令": 1866,
      "以": 1867,
      "仪": 1868,
      "们": 1869,
      "仮": 1870,
      "仰": 1871,
      "仲": 1872,
      "件": 1873,
      "任": 1874,
      "份": 1875,
      "仿": 1876,
      "企": 1877,
      "伊": 1878,
      "伍": 1879,
      "伏": 1880,
      "休": 1881,
      "众": 1882,
      "优": 1883,
      "伙": 1884,
      "会": 1885,
      "伝": 1886,
      "伟": 1887,
      "传": 1888,
      "伦": 1889,
      "伯": 1890,
      "估": 1891,
      "伴": 1892,
      "伶": 1893,
      "伸": 1894,
      "似": 1895,
      "伽": 1896,
      "位": 1897,
      "低": 1898,
      "住": 1899,
      "佐": 1900,
      "佑": 1901,
      "体": 1902,
      "何": 1903,
      "余": 1904,
      "佛": 1905,
      "作": 1906,
      "你": 1907,
      "佩": 1908,
      "佰": 1909,
      "佳": 1910,
      "使": 1911,
      "侃": 1912,
      "來": 1913,
      "侍": 1914,
      "侑": 1915,
      "侚": 1916,
      "供": 1917,
      "依": 1918,
      "侠": 1919,
      "価": 1920,
      "侣": 1921,
      "侨": 1922,
      "侯": 1923,
      "侵": 1924,
      "侶": 1925,
      "便": 1926,
      "係": 1927,
      "俊": 1928,
      "俎": 1929,
      "俏": 1930,
      "俗": 1931,
      "俚": 1932,
      "保": 1933,
      "俞": 1934,
      "俠": 1935,
      "信": 1936,
      "俣": 1937,
      "俩": 1938,
      "俬": 1939,
      "俭": 1940,
      "修": 1941,
      "俯": 1942,
      "俵": 1943,
      "俺": 1944,
      "倉": 1945,
      "個": 1946,
      "倍": 1947,
      "們": 1948,
      "倖": 1949,
      "候": 1950,
      "借": 1951,
      "倩": 1952,
      "倪": 1953,
      "倫": 1954,
      "倶": 1955,
      "倾": 1956,
      "假": 1957,
      "偉": 1958,
      "偕": 1959,
      "做": 1960,
      "停": 1961,
      "健": 1962,
      "側": 1963,
      "偵": 1964,
      "偷": 1965,
      "偽": 1966,
      "傅": 1967,
      "傑": 1968,
      "備": 1969,
      "傢": 1970,
      "储": 1971,
      "傳": 1972,
      "傷": 1973,
      "僊": 1974,
      "働": 1975,
      "像": 1976,
      "僑": 1977,
      "僕": 1978,
      "僚": 1979,
      "僧": 1980,
      "僮": 1981,
      "儀": 1982,
      "億": 1983,
      "儒": 1984,
      "優": 1985,
      "儲": 1986,
      "儷": 1987,
      "儿": 1988,
      "允": 1989,
      "元": 1990,
      "兄": 1991,
      "充": 1992,
      "兆": 1993,
      "先": 1994,
      "光": 1995,
      "克": 1996,
      "兎": 1997,
      "児": 1998,
      "兒": 1999,
      "兖": 2000,
      "兗": 2001,
      "党": 2002,
      "兜": 2003,
      "入": 2004,
      "內": 2005,
      "全": 2006,
      "兩": 2007,
      "八": 2008,
      "公": 2009,
      "六": 2010,
      "兰": 2011,
      "共": 2012,
      "关": 2013,
      "兴": 2014,
      "兵": 2015,
      "其": 2016,
      "具": 2017,
      "典": 2018,
      "兹": 2019,
      "养": 2020,
      "兼": 2021,
      "冀": 2022,
      "内": 2023,
      "円": 2024,
      "冈": 2025,
      "冊": 2026,
      "再": 2027,
      "冑": 2028,
      "冒": 2029,
      "写": 2030,
      "军": 2031,
      "农": 2032,
      "冠": 2033,
      "冢": 2034,
      "冥": 2035,
      "冨": 2036,
      "冬": 2037,
      "冯": 2038,
      "冰": 2039,
      "冲": 2040,
      "决": 2041,
      "冴": 2042,
      "冶": 2043,
      "冷": 2044,
      "凄": 2045,
      "准": 2046,
      "凉": 2047,
      "凌": 2048,
      "凍": 2049,
      "凛": 2050,
      "凝": 2051,
      "凡": 2052,
      "凤": 2053,
      "処": 2054,
      "凧": 2055,
      "凪": 2056,
      "凯": 2057,
      "凰": 2058,
      "凱": 2059,
      "凶": 2060,
      "凸": 2061,
      "出": 2062,
      "击": 2063,
      "函": 2064,
      "刀": 2065,
      "刁": 2066,
      "刃": 2067,
      "分": 2068,
      "切": 2069,
      "刈": 2070,
      "刊": 2071,
      "刑": 2072,
      "划": 2073,
      "列": 2074,
      "刘": 2075,
      "则": 2076,
      "刚": 2077,
      "创": 2078,
      "初": 2079,
      "判": 2080,
      "別": 2081,
      "利": 2082,
      "别": 2083,
      "刮": 2084,
      "到": 2085,
      "制": 2086,
      "刷": 2087,
      "券": 2088,
      "刹": 2089,
      "刺": 2090,
      "刻": 2091,
      "則": 2092,
      "削": 2093,
      "剋": 2094,
      "剌": 2095,
      "前": 2096,
      "剑": 2097,
      "剛": 2098,
      "剣": 2099,
      "剧": 2100,
      "剪": 2101,
      "剱": 2102,
      "創": 2103,
      "劃": 2104,
      "劇": 2105,
      "劉": 2106,
      "劍": 2107,
      "劒": 2108,
      "力": 2109,
      "办": 2110,
      "功": 2111,
      "加": 2112,
      "务": 2113,
      "劣": 2114,
      "动": 2115,
      "助": 2116,
      "努": 2117,
      "劳": 2118,
      "労": 2119,
      "効": 2120,
      "势": 2121,
      "勁": 2122,
      "勅": 2123,
      "勇": 2124,
      "勉": 2125,
      "勋": 2126,
      "勒": 2127,
      "動": 2128,
      "勘": 2129,
      "務": 2130,
      "勝": 2131,
      "勞": 2132,
      "勢": 2133,
      "勤": 2134,
      "勧": 2135,
      "勰": 2136,
      "勲": 2137,
      "勳": 2138,
      "勿": 2139,
      "匂": 2140,
      "包": 2141,
      "化": 2142,
      "北": 2143,
      "匙": 2144,
      "匠": 2145,
      "匡": 2146,
      "匣": 2147,
      "匪": 2148,
      "匯": 2149,
      "匹": 2150,
      "区": 2151,
      "医": 2152,
      "區": 2153,
      "十": 2154,
      "千": 2155,
      "升": 2156,
      "午": 2157,
      "卉": 2158,
      "半": 2159,
      "华": 2160,
      "协": 2161,
      "卑": 2162,
      "卒": 2163,
      "卓": 2164,
      "協": 2165,
      "单": 2166,
      "南": 2167,
      "単": 2168,
      "博": 2169,
      "卜": 2170,
      "占": 2171,
      "卡": 2172,
      "卢": 2173,
      "卫": 2174,
      "卯": 2175,
      "印": 2176,
      "危": 2177,
      "却": 2178,
      "卿": 2179,
      "厂": 2180,
      "历": 2181,
      "厚": 2182,
      "厝": 2183,
      "原": 2184,
      "厦": 2185,
      "厨": 2186,
      "厲": 2187,
      "厳": 2188,
      "去": 2189,
      "县": 2190,
      "参": 2191,
      "參": 2192,
      "又": 2193,
      "叉": 2194,
      "及": 2195,
      "友": 2196,
      "双": 2197,
      "反": 2198,
      "収": 2199,
      "发": 2200,
      "叔": 2201,
      "取": 2202,
      "受": 2203,
      "变": 2204,
      "叡": 2205,
      "叢": 2206,
      "口": 2207,
      "古": 2208,
      "只": 2209,
      "叫": 2210,
      "召": 2211,
      "可": 2212,
      "台": 2213,
      "史": 2214,
      "右": 2215,
      "叶": 2216,
      "号": 2217,
      "司": 2218,
      "叹": 2219,
      "吁": 2220,
      "吃": 2221,
      "各": 2222,
      "合": 2223,
      "吉": 2224,
      "吊": 2225,
      "同": 2226,
      "名": 2227,
      "后": 2228,
      "吏": 2229,
      "向": 2230,
      "吒": 2231,
      "吔": 2232,
      "吕": 2233,
      "君": 2234,
      "吞": 2235,
      "吟": 2236,
      "吧": 2237,
      "启": 2238,
      "吳": 2239,
      "吴": 2240,
      "吶": 2241,
      "吸": 2242,
      "吹": 2243,
      "吻": 2244,
      "吼": 2245,
      "吾": 2246,
      "呀": 2247,
      "呂": 2248,
      "呉": 2249,
      "告": 2250,
      "呑": 2251,
      "呖": 2252,
      "员": 2253,
      "周": 2254,
      "呪": 2255,
      "呱": 2256,
      "味": 2257,
      "呼": 2258,
      "命": 2259,
      "咀": 2260,
      "和": 2261,
      "咎": 2262,
      "咕": 2263,
      "咖": 2264,
      "咪": 2265,
      "咲": 2266,
      "咳": 2267,
      "咸": 2268,
      "哀": 2269,
      "品": 2270,
      "哈": 2271,
      "哉": 2272,
      "响": 2273,
      "員": 2274,
      "哥": 2275,
      "哨": 2276,
      "哪": 2277,
      "哭": 2278,
      "哮": 2279,
      "哲": 2280,
      "唄": 2281,
      "唇": 2282,
      "唐": 2283,
      "唔": 2284,
      "唯": 2285,
      "唱": 2286,
      "商": 2287,
      "啊": 2288,
      "問": 2289,
      "啓": 2290,
      "啟": 2291,
      "啡": 2292,
      "啤": 2293,
      "啦": 2294,
      "啮": 2295,
      "啲": 2296,
      "啸": 2297,
      "啼": 2298,
      "喀": 2299,
      "喃": 2300,
      "善": 2301,
      "喆": 2302,
      "喇": 2303,
      "喊": 2304,
      "喋": 2305,
      "喘": 2306,
      "喚": 2307,
      "喜": 2308,
      "喧": 2309,
      "喪": 2310,
      "喫": 2311,
      "喬": 2312,
      "單": 2313,
      "喰": 2314,
      "営": 2315,
      "喷": 2316,
      "喻": 2317,
      "嗎": 2318,
      "嗣": 2319,
      "嘆": 2320,
      "嘉": 2321,
      "嘎": 2322,
      "嘘": 2323,
      "嘩": 2324,
      "嘯": 2325,
      "嘴": 2326,
      "噂": 2327,
      "噛": 2328,
      "器": 2329,
      "噴": 2330,
      "嚴": 2331,
      "囁": 2332,
      "囃": 2333,
      "囍": 2334,
      "囚": 2335,
      "四": 2336,
      "回": 2337,
      "囡": 2338,
      "团": 2339,
      "団": 2340,
      "囧": 2341,
      "园": 2342,
      "囲": 2343,
      "図": 2344,
      "围": 2345,
      "国": 2346,
      "图": 2347,
      "圃": 2348,
      "圆": 2349,
      "國": 2350,
      "圍": 2351,
      "圏": 2352,
      "園": 2353,
      "圓": 2354,
      "圖": 2355,
      "團": 2356,
      "圜": 2357,
      "土": 2358,
      "圣": 2359,
      "圧": 2360,
      "在": 2361,
      "圩": 2362,
      "圭": 2363,
      "地": 2364,
      "圳": 2365,
      "场": 2366,
      "圻": 2367,
      "址": 2368,
      "坂": 2369,
      "均": 2370,
      "坊": 2371,
      "坑": 2372,
      "块": 2373,
      "坚": 2374,
      "坝": 2375,
      "坡": 2376,
      "坤": 2377,
      "坪": 2378,
      "型": 2379,
      "垠": 2380,
      "垣": 2381,
      "埈": 2382,
      "城": 2383,
      "埔": 2384,
      "域": 2385,
      "埠": 2386,
      "埤": 2387,
      "執": 2388,
      "培": 2389,
      "基": 2390,
      "埻": 2391,
      "埼": 2392,
      "堀": 2393,
      "堂": 2394,
      "堅": 2395,
      "堆": 2396,
      "堇": 2397,
      "堕": 2398,
      "堡": 2399,
      "堤": 2400,
      "堯": 2401,
      "堰": 2402,
      "報": 2403,
      "場": 2404,
      "堺": 2405,
      "塌": 2406,
      "塑": 2407,
      "塔": 2408,
      "塘": 2409,
      "塚": 2410,
      "塩": 2411,
      "塵": 2412,
      "塾": 2413,
      "境": 2414,
      "墅": 2415,
      "墉": 2416,
      "墓": 2417,
      "増": 2418,
      "增": 2419,
      "墟": 2420,
      "墨": 2421,
      "墩": 2422,
      "墮": 2423,
      "墳": 2424,
      "墾": 2425,
      "壁": 2426,
      "壇": 2427,
      "壊": 2428,
      "壞": 2429,
      "壢": 2430,
      "壤": 2431,
      "士": 2432,
      "壬": 2433,
      "壮": 2434,
      "壯": 2435,
      "声": 2436,
      "壱": 2437,
      "売": 2438,
      "壶": 2439,
      "壹": 2440,
      "壺": 2441,
      "壽": 2442,
      "备": 2443,
      "変": 2444,
      "复": 2445,
      "夏": 2446,
      "夕": 2447,
      "外": 2448,
      "夙": 2449,
      "多": 2450,
      "夜": 2451,
      "够": 2452,
      "夢": 2453,
      "大": 2454,
      "天": 2455,
      "太": 2456,
      "夫": 2457,
      "央": 2458,
      "失": 2459,
      "头": 2460,
      "夷": 2461,
      "夺": 2462,
      "奀": 2463,
      "奇": 2464,
      "奈": 2465,
      "奉": 2466,
      "奋": 2467,
      "奎": 2468,
      "奏": 2469,
      "契": 2470,
      "奔": 2471,
      "奕": 2472,
      "奖": 2473,
      "套": 2474,
      "奥": 2475,
      "奧": 2476,
      "奨": 2477,
      "奪": 2478,
      "奮": 2479,
      "女": 2480,
      "奴": 2481,
      "奶": 2482,
      "她": 2483,
      "好": 2484,
      "如": 2485,
      "妃": 2486,
      "妄": 2487,
      "妇": 2488,
      "妈": 2489,
      "妓": 2490,
      "妖": 2491,
      "妙": 2492,
      "妞": 2493,
      "妤": 2494,
      "妮": 2495,
      "妳": 2496,
      "妹": 2497,
      "妻": 2498,
      "姆": 2499,
      "姉": 2500,
      "姊": 2501,
      "始": 2502,
      "姐": 2503,
      "姑": 2504,
      "姓": 2505,
      "委": 2506,
      "姚": 2507,
      "姜": 2508,
      "姦": 2509,
      "姫": 2510,
      "姬": 2511,
      "姶": 2512,
      "姸": 2513,
      "姻": 2514,
      "姿": 2515,
      "威": 2516,
      "娃": 2517,
      "娄": 2518,
      "娇": 2519,
      "娘": 2520,
      "娛": 2521,
      "娜": 2522,
      "娟": 2523,
      "娥": 2524,
      "娱": 2525,
      "娴": 2526,
      "娼": 2527,
      "婆": 2528,
      "婉": 2529,
      "婕": 2530,
      "婚": 2531,
      "婦": 2532,
      "婴": 2533,
      "婷": 2534,
      "媒": 2535,
      "媚": 2536,
      "媛": 2537,
      "媽": 2538,
      "嫁": 2539,
      "嫂": 2540,
      "嫌": 2541,
      "嫻": 2542,
      "嬅": 2543,
      "嬌": 2544,
      "嬢": 2545,
      "嬰": 2546,
      "孃": 2547,
      "子": 2548,
      "孔": 2549,
      "孖": 2550,
      "字": 2551,
      "存": 2552,
      "孙": 2553,
      "孛": 2554,
      "孜": 2555,
      "孝": 2556,
      "孟": 2557,
      "季": 2558,
      "孤": 2559,
      "学": 2560,
      "孩": 2561,
      "孫": 2562,
      "學": 2563,
      "孽": 2564,
      "宁": 2565,
      "宅": 2566,
      "宇": 2567,
      "守": 2568,
      "安": 2569,
      "宋": 2570,
      "完": 2571,
      "宍": 2572,
      "宏": 2573,
      "宕": 2574,
      "宗": 2575,
      "官": 2576,
      "宙": 2577,
      "定": 2578,
      "宛": 2579,
      "宜": 2580,
      "宝": 2581,
      "实": 2582,
      "実": 2583,
      "宠": 2584,
      "审": 2585,
      "客": 2586,
      "宣": 2587,
      "室": 2588,
      "宥": 2589,
      "宪": 2590,
      "宫": 2591,
      "宮": 2592,
      "宰": 2593,
      "害": 2594,
      "宴": 2595,
      "宵": 2596,
      "家": 2597,
      "容": 2598,
      "宽": 2599,
      "宾": 2600,
      "宿": 2601,
      "寂": 2602,
      "寄": 2603,
      "寅": 2604,
      "密": 2605,
      "寇": 2606,
      "富": 2607,
      "寒": 2608,
      "寓": 2609,
      "寛": 2610,
      "寝": 2611,
      "寞": 2612,
      "察": 2613,
      "實": 2614,
      "寧": 2615,
      "寨": 2616,
      "審": 2617,
      "寫": 2618,
      "寬": 2619,
      "寮": 2620,
      "寰": 2621,
      "寳": 2622,
      "寵": 2623,
      "寶": 2624,
      "对": 2625,
      "寺": 2626,
      "导": 2627,
      "対": 2628,
      "寿": 2629,
      "封": 2630,
      "専": 2631,
      "射": 2632,
      "将": 2633,
      "將": 2634,
      "專": 2635,
      "尉": 2636,
      "尊": 2637,
      "尋": 2638,
      "對": 2639,
      "導": 2640,
      "小": 2641,
      "少": 2642,
      "尔": 2643,
      "尕": 2644,
      "尖": 2645,
      "尙": 2646,
      "尚": 2647,
      "尤": 2648,
      "尧": 2649,
      "就": 2650,
      "尹": 2651,
      "尻": 2652,
      "尼": 2653,
      "尽": 2654,
      "尾": 2655,
      "尿": 2656,
      "局": 2657,
      "层": 2658,
      "居": 2659,
      "屈": 2660,
      "届": 2661,
      "屋": 2662,
      "屍": 2663,
      "屏": 2664,
      "展": 2665,
      "属": 2666,
      "屠": 2667,
      "層": 2668,
      "履": 2669,
      "屬": 2670,
      "屯": 2671,
      "山": 2672,
      "岁": 2673,
      "岐": 2674,
      "岑": 2675,
      "岔": 2676,
      "岚": 2677,
      "岛": 2678,
      "岡": 2679,
      "岩": 2680,
      "岬": 2681,
      "岭": 2682,
      "岱": 2683,
      "岳": 2684,
      "岷": 2685,
      "岸": 2686,
      "峙": 2687,
      "峠": 2688,
      "峡": 2689,
      "峨": 2690,
      "峩": 2691,
      "峯": 2692,
      "峰": 2693,
      "島": 2694,
      "峻": 2695,
      "峽": 2696,
      "崃": 2697,
      "崇": 2698,
      "崍": 2699,
      "崎": 2700,
      "崑": 2701,
      "崔": 2702,
      "崖": 2703,
      "崗": 2704,
      "崙": 2705,
      "崛": 2706,
      "崴": 2707,
      "嵋": 2708,
      "嵌": 2709,
      "嵐": 2710,
      "嵜": 2711,
      "嵩": 2712,
      "嵯": 2713,
      "嶋": 2714,
      "嶌": 2715,
      "嶺": 2716,
      "嶽": 2717,
      "巌": 2718,
      "巍": 2719,
      "巖": 2720,
      "川": 2721,
      "州": 2722,
      "巡": 2723,
      "巢": 2724,
      "巣": 2725,
      "工": 2726,
      "左": 2727,
      "巧": 2728,
      "巨": 2729,
      "巫": 2730,
      "差": 2731,
      "己": 2732,
      "已": 2733,
      "巳": 2734,
      "巴": 2735,
      "巻": 2736,
      "巽": 2737,
      "币": 2738,
      "市": 2739,
      "布": 2740,
      "帅": 2741,
      "帆": 2742,
      "师": 2743,
      "希": 2744,
      "帖": 2745,
      "帝": 2746,
      "帥": 2747,
      "带": 2748,
      "師": 2749,
      "席": 2750,
      "帯": 2751,
      "帰": 2752,
      "帳": 2753,
      "帶": 2754,
      "常": 2755,
      "帽": 2756,
      "幅": 2757,
      "幌": 2758,
      "幕": 2759,
      "幗": 2760,
      "幡": 2761,
      "幣": 2762,
      "幫": 2763,
      "干": 2764,
      "平": 2765,
      "年": 2766,
      "幸": 2767,
      "幹": 2768,
      "幻": 2769,
      "幼": 2770,
      "幽": 2771,
      "广": 2772,
      "庁": 2773,
      "広": 2774,
      "庄": 2775,
      "庆": 2776,
      "庇": 2777,
      "床": 2778,
      "序": 2779,
      "庐": 2780,
      "库": 2781,
      "应": 2782,
      "底": 2783,
      "店": 2784,
      "庙": 2785,
      "庚": 2786,
      "府": 2787,
      "庞": 2788,
      "度": 2789,
      "座": 2790,
      "庫": 2791,
      "庭": 2792,
      "庵": 2793,
      "康": 2794,
      "庸": 2795,
      "庾": 2796,
      "廂": 2797,
      "廈": 2798,
      "廉": 2799,
      "廊": 2800,
      "廖": 2801,
      "廚": 2802,
      "廟": 2803,
      "廠": 2804,
      "廣": 2805,
      "廬": 2806,
      "廳": 2807,
      "延": 2808,
      "廷": 2809,
      "建": 2810,
      "廻": 2811,
      "开": 2812,
      "弁": 2813,
      "异": 2814,
      "弋": 2815,
      "式": 2816,
      "弐": 2817,
      "弓": 2818,
      "弔": 2819,
      "引": 2820,
      "弗": 2821,
      "弘": 2822,
      "弛": 2823,
      "弟": 2824,
      "张": 2825,
      "弥": 2826,
      "弦": 2827,
      "弯": 2828,
      "弱": 2829,
      "張": 2830,
      "強": 2831,
      "强": 2832,
      "弼": 2833,
      "弾": 2834,
      "彅": 2835,
      "彊": 2836,
      "彌": 2837,
      "彎": 2838,
      "归": 2839,
      "当": 2840,
      "录": 2841,
      "彗": 2842,
      "形": 2843,
      "彤": 2844,
      "彥": 2845,
      "彦": 2846,
      "彩": 2847,
      "彪": 2848,
      "彬": 2849,
      "彭": 2850,
      "彰": 2851,
      "影": 2852,
      "役": 2853,
      "彻": 2854,
      "彼": 2855,
      "征": 2856,
      "待": 2857,
      "很": 2858,
      "律": 2859,
      "後": 2860,
      "徐": 2861,
      "徒": 2862,
      "従": 2863,
      "得": 2864,
      "從": 2865,
      "御": 2866,
      "復": 2867,
      "循": 2868,
      "微": 2869,
      "徳": 2870,
      "徵": 2871,
      "德": 2872,
      "徹": 2873,
      "徽": 2874,
      "心": 2875,
      "必": 2876,
      "忌": 2877,
      "忍": 2878,
      "志": 2879,
      "忘": 2880,
      "応": 2881,
      "忠": 2882,
      "快": 2883,
      "忱": 2884,
      "念": 2885,
      "忻": 2886,
      "怀": 2887,
      "怒": 2888,
      "怖": 2889,
      "怜": 2890,
      "思": 2891,
      "怡": 2892,
      "急": 2893,
      "性": 2894,
      "怨": 2895,
      "怪": 2896,
      "总": 2897,
      "恆": 2898,
      "恋": 2899,
      "恐": 2900,
      "恒": 2901,
      "恥": 2902,
      "恨": 2903,
      "恩": 2904,
      "恭": 2905,
      "息": 2906,
      "恵": 2907,
      "恺": 2908,
      "恽": 2909,
      "悅": 2910,
      "悚": 2911,
      "悟": 2912,
      "悠": 2913,
      "患": 2914,
      "悦": 2915,
      "悩": 2916,
      "悪": 2917,
      "悲": 2918,
      "悶": 2919,
      "悼": 2920,
      "情": 2921,
      "惊": 2922,
      "惑": 2923,
      "惕": 2924,
      "惜": 2925,
      "惟": 2926,
      "惠": 2927,
      "惨": 2928,
      "想": 2929,
      "惹": 2930,
      "愁": 2931,
      "愈": 2932,
      "意": 2933,
      "愚": 2934,
      "愛": 2935,
      "感": 2936,
      "愷": 2937,
      "愿": 2938,
      "慄": 2939,
      "慈": 2940,
      "態": 2941,
      "慎": 2942,
      "慕": 2943,
      "慢": 2944,
      "慣": 2945,
      "慧": 2946,
      "慬": 2947,
      "慰": 2948,
      "慶": 2949,
      "慾": 2950,
      "憂": 2951,
      "憎": 2952,
      "憐": 2953,
      "憚": 2954,
      "憧": 2955,
      "憫": 2956,
      "憲": 2957,
      "憶": 2958,
      "應": 2959,
      "懷": 2960,
      "戀": 2961,
      "戈": 2962,
      "戏": 2963,
      "成": 2964,
      "我": 2965,
      "戒": 2966,
      "或": 2967,
      "战": 2968,
      "戚": 2969,
      "戟": 2970,
      "戦": 2971,
      "戯": 2972,
      "戰": 2973,
      "戲": 2974,
      "戴": 2975,
      "戸": 2976,
      "房": 2977,
      "所": 2978,
      "扁": 2979,
      "扇": 2980,
      "扉": 2981,
      "手": 2982,
      "才": 2983,
      "扎": 2984,
      "打": 2985,
      "扦": 2986,
      "扬": 2987,
      "扭": 2988,
      "扮": 2989,
      "扰": 2990,
      "扶": 2991,
      "批": 2992,
      "找": 2993,
      "承": 2994,
      "技": 2995,
      "抄": 2996,
      "把": 2997,
      "抑": 2998,
      "投": 2999,
      "抗": 3000,
      "折": 3001,
      "抚": 3002,
      "択": 3003,
      "报": 3004,
      "披": 3005,
      "抱": 3006,
      "押": 3007,
      "拉": 3008,
      "拍": 3009,
      "拐": 3010,
      "拓": 3011,
      "拔": 3012,
      "拖": 3013,
      "拙": 3014,
      "招": 3015,
      "拜": 3016,
      "拝": 3017,
      "拠": 3018,
      "拡": 3019,
      "拥": 3020,
      "拯": 3021,
      "拳": 3022,
      "拼": 3023,
      "拾": 3024,
      "拿": 3025,
      "持": 3026,
      "指": 3027,
      "挑": 3028,
      "挙": 3029,
      "挚": 3030,
      "挪": 3031,
      "振": 3032,
      "挺": 3033,
      "捉": 3034,
      "捐": 3035,
      "捕": 3036,
      "捜": 3037,
      "捧": 3038,
      "捨": 3039,
      "捷": 3040,
      "掃": 3041,
      "授": 3042,
      "掌": 3043,
      "排": 3044,
      "掛": 3045,
      "採": 3046,
      "探": 3047,
      "控": 3048,
      "推": 3049,
      "措": 3050,
      "描": 3051,
      "提": 3052,
      "插": 3053,
      "揖": 3054,
      "揚": 3055,
      "揮": 3056,
      "援": 3057,
      "揺": 3058,
      "損": 3059,
      "搜": 3060,
      "搞": 3061,
      "携": 3062,
      "摂": 3063,
      "摇": 3064,
      "摘": 3065,
      "摩": 3066,
      "摯": 3067,
      "摸": 3068,
      "摺": 3069,
      "撃": 3070,
      "撒": 3071,
      "撞": 3072,
      "撫": 3073,
      "播": 3074,
      "撮": 3075,
      "撰": 3076,
      "撲": 3077,
      "擂": 3078,
      "擊": 3079,
      "操": 3080,
      "擱": 3081,
      "支": 3082,
      "收": 3083,
      "改": 3084,
      "攻": 3085,
      "放": 3086,
      "政": 3087,
      "故": 3088,
      "敎": 3089,
      "敏": 3090,
      "救": 3091,
      "敖": 3092,
      "敗": 3093,
      "教": 3094,
      "敛": 3095,
      "敢": 3096,
      "散": 3097,
      "敦": 3098,
      "敬": 3099,
      "数": 3100,
      "整": 3101,
      "敵": 3102,
      "敷": 3103,
      "數": 3104,
      "文": 3105,
      "斉": 3106,
      "斋": 3107,
      "斌": 3108,
      "斎": 3109,
      "斐": 3110,
      "斑": 3111,
      "斗": 3112,
      "料": 3113,
      "斛": 3114,
      "斜": 3115,
      "斬": 3116,
      "断": 3117,
      "斯": 3118,
      "新": 3119,
      "斷": 3120,
      "方": 3121,
      "於": 3122,
      "施": 3123,
      "旅": 3124,
      "旋": 3125,
      "族": 3126,
      "旗": 3127,
      "旛": 3128,
      "无": 3129,
      "日": 3130,
      "旦": 3131,
      "旧": 3132,
      "早": 3133,
      "旬": 3134,
      "旭": 3135,
      "时": 3136,
      "旺": 3137,
      "旻": 3138,
      "昀": 3139,
      "昂": 3140,
      "昆": 3141,
      "昇": 3142,
      "昊": 3143,
      "昌": 3144,
      "明": 3145,
      "昏": 3146,
      "易": 3147,
      "昔": 3148,
      "昕": 3149,
      "星": 3150,
      "映": 3151,
      "春": 3152,
      "昧": 3153,
      "昭": 3154,
      "是": 3155,
      "昱": 3156,
      "昴": 3157,
      "昼": 3158,
      "時": 3159,
      "晃": 3160,
      "晉": 3161,
      "晋": 3162,
      "晏": 3163,
      "晓": 3164,
      "晔": 3165,
      "晖": 3166,
      "晚": 3167,
      "晟": 3168,
      "晨": 3169,
      "普": 3170,
      "景": 3171,
      "晴": 3172,
      "晶": 3173,
      "智": 3174,
      "暁": 3175,
      "暉": 3176,
      "暎": 3177,
      "暑": 3178,
      "暖": 3179,
      "暗": 3180,
      "暢": 3181,
      "暦": 3182,
      "暨": 3183,
      "暫": 3184,
      "暮": 3185,
      "暴": 3186,
      "曄": 3187,
      "曉": 3188,
      "曙": 3189,
      "曜": 3190,
      "曦": 3191,
      "曲": 3192,
      "曳": 3193,
      "更": 3194,
      "書": 3195,
      "曹": 3196,
      "曺": 3197,
      "曼": 3198,
      "曽": 3199,
      "曾": 3200,
      "替": 3201,
      "最": 3202,
      "會": 3203,
      "月": 3204,
      "有": 3205,
      "朋": 3206,
      "服": 3207,
      "朔": 3208,
      "朗": 3209,
      "望": 3210,
      "朝": 3211,
      "期": 3212,
      "朦": 3213,
      "木": 3214,
      "未": 3215,
      "末": 3216,
      "本": 3217,
      "札": 3218,
      "术": 3219,
      "朱": 3220,
      "朴": 3221,
      "朵": 3222,
      "机": 3223,
      "杀": 3224,
      "杂": 3225,
      "权": 3226,
      "杄": 3227,
      "杉": 3228,
      "李": 3229,
      "杏": 3230,
      "材": 3231,
      "村": 3232,
      "杜": 3233,
      "杞": 3234,
      "束": 3235,
      "条": 3236,
      "来": 3237,
      "杨": 3238,
      "杭": 3239,
      "杯": 3240,
      "杰": 3241,
      "東": 3242,
      "杵": 3243,
      "杻": 3244,
      "松": 3245,
      "板": 3246,
      "极": 3247,
      "构": 3248,
      "析": 3249,
      "枕": 3250,
      "林": 3251,
      "枚": 3252,
      "果": 3253,
      "枝": 3254,
      "枢": 3255,
      "枣": 3256,
      "枥": 3257,
      "枪": 3258,
      "枫": 3259,
      "枭": 3260,
      "枯": 3261,
      "架": 3262,
      "枸": 3263,
      "柄": 3264,
      "柊": 3265,
      "柏": 3266,
      "柑": 3267,
      "染": 3268,
      "柔": 3269,
      "柘": 3270,
      "柚": 3271,
      "柞": 3272,
      "柠": 3273,
      "查": 3274,
      "柯": 3275,
      "柱": 3276,
      "柳": 3277,
      "柴": 3278,
      "査": 3279,
      "柾": 3280,
      "柿": 3281,
      "栂": 3282,
      "栃": 3283,
      "栄": 3284,
      "标": 3285,
      "栋": 3286,
      "栎": 3287,
      "树": 3288,
      "栖": 3289,
      "栗": 3290,
      "栘": 3291,
      "栝": 3292,
      "校": 3293,
      "株": 3294,
      "核": 3295,
      "根": 3296,
      "格": 3297,
      "栾": 3298,
      "桂": 3299,
      "桃": 3300,
      "案": 3301,
      "桐": 3302,
      "桑": 3303,
      "桜": 3304,
      "桢": 3305,
      "档": 3306,
      "桥": 3307,
      "桦": 3308,
      "桧": 3309,
      "桶": 3310,
      "梁": 3311,
      "梅": 3312,
      "梓": 3313,
      "條": 3314,
      "梠": 3315,
      "梢": 3316,
      "梦": 3317,
      "梨": 3318,
      "梭": 3319,
      "梯": 3320,
      "械": 3321,
      "梶": 3322,
      "棄": 3323,
      "棉": 3324,
      "棋": 3325,
      "棍": 3326,
      "棒": 3327,
      "棕": 3328,
      "棘": 3329,
      "棟": 3330,
      "棠": 3331,
      "棣": 3332,
      "森": 3333,
      "棱": 3334,
      "棲": 3335,
      "棵": 3336,
      "棺": 3337,
      "椋": 3338,
      "植": 3339,
      "椎": 3340,
      "椒": 3341,
      "椙": 3342,
      "検": 3343,
      "椰": 3344,
      "椴": 3345,
      "椿": 3346,
      "楂": 3347,
      "楊": 3348,
      "楓": 3349,
      "楔": 3350,
      "楚": 3351,
      "楝": 3352,
      "楠": 3353,
      "楢": 3354,
      "楨": 3355,
      "業": 3356,
      "極": 3357,
      "楸": 3358,
      "楼": 3359,
      "楽": 3360,
      "榈": 3361,
      "榉": 3362,
      "榊": 3363,
      "榎": 3364,
      "榕": 3365,
      "榛": 3366,
      "榜": 3367,
      "榧": 3368,
      "榮": 3369,
      "榴": 3370,
      "槇": 3371,
      "構": 3372,
      "槍": 3373,
      "槐": 3374,
      "様": 3375,
      "槙": 3376,
      "槟": 3377,
      "槻": 3378,
      "槽": 3379,
      "樂": 3380,
      "樅": 3381,
      "樊": 3382,
      "樋": 3383,
      "樑": 3384,
      "樒": 3385,
      "樓": 3386,
      "樗": 3387,
      "標": 3388,
      "樟": 3389,
      "模": 3390,
      "樣": 3391,
      "樨": 3392,
      "権": 3393,
      "横": 3394,
      "樫": 3395,
      "樱": 3396,
      "樵": 3397,
      "樸": 3398,
      "樹": 3399,
      "樺": 3400,
      "樽": 3401,
      "橋": 3402,
      "橘": 3403,
      "橙": 3404,
      "機": 3405,
      "橫": 3406,
      "橹": 3407,
      "檀": 3408,
      "檎": 3409,
      "檔": 3410,
      "檗": 3411,
      "檜": 3412,
      "檬": 3413,
      "檳": 3414,
      "檸": 3415,
      "檻": 3416,
      "櫃": 3417,
      "櫓": 3418,
      "櫛": 3419,
      "櫟": 3420,
      "櫸": 3421,
      "櫻": 3422,
      "欅": 3423,
      "權": 3424,
      "欒": 3425,
      "次": 3426,
      "欢": 3427,
      "欣": 3428,
      "欧": 3429,
      "欲": 3430,
      "欺": 3431,
      "欽": 3432,
      "歉": 3433,
      "歌": 3434,
      "歐": 3435,
      "歡": 3436,
      "止": 3437,
      "正": 3438,
      "步": 3439,
      "武": 3440,
      "歩": 3441,
      "歯": 3442,
      "歲": 3443,
      "歳": 3444,
      "歴": 3445,
      "歷": 3446,
      "死": 3447,
      "歼": 3448,
      "殊": 3449,
      "残": 3450,
      "殖": 3451,
      "殘": 3452,
      "殤": 3453,
      "殭": 3454,
      "殯": 3455,
      "殲": 3456,
      "段": 3457,
      "殷": 3458,
      "殺": 3459,
      "殻": 3460,
      "殿": 3461,
      "毀": 3462,
      "毅": 3463,
      "母": 3464,
      "毎": 3465,
      "毒": 3466,
      "毓": 3467,
      "比": 3468,
      "毕": 3469,
      "毛": 3470,
      "毫": 3471,
      "毬": 3472,
      "氏": 3473,
      "民": 3474,
      "气": 3475,
      "気": 3476,
      "氣": 3477,
      "水": 3478,
      "氷": 3479,
      "永": 3480,
      "汀": 3481,
      "求": 3482,
      "汇": 3483,
      "汉": 3484,
      "汐": 3485,
      "汕": 3486,
      "汗": 3487,
      "汚": 3488,
      "汝": 3489,
      "江": 3490,
      "池": 3491,
      "汤": 3492,
      "汪": 3493,
      "汲": 3494,
      "汶": 3495,
      "決": 3496,
      "汽": 3497,
      "沂": 3498,
      "沃": 3499,
      "沈": 3500,
      "沉": 3501,
      "沒": 3502,
      "沓": 3503,
      "沖": 3504,
      "沙": 3505,
      "沛": 3506,
      "沟": 3507,
      "没": 3508,
      "沢": 3509,
      "河": 3510,
      "沸": 3511,
      "油": 3512,
      "治": 3513,
      "沼": 3514,
      "泉": 3515,
      "泊": 3516,
      "泌": 3517,
      "泓": 3518,
      "法": 3519,
      "泗": 3520,
      "泛": 3521,
      "泡": 3522,
      "波": 3523,
      "泣": 3524,
      "泥": 3525,
      "泪": 3526,
      "泫": 3527,
      "泰": 3528,
      "泳": 3529,
      "泸": 3530,
      "泽": 3531,
      "洁": 3532,
      "洋": 3533,
      "洗": 3534,
      "洙": 3535,
      "洛": 3536,
      "洞": 3537,
      "津": 3538,
      "洪": 3539,
      "洮": 3540,
      "洱": 3541,
      "洲": 3542,
      "洹": 3543,
      "活": 3544,
      "洽": 3545,
      "派": 3546,
      "流": 3547,
      "浄": 3548,
      "浅": 3549,
      "测": 3550,
      "济": 3551,
      "浑": 3552,
      "浒": 3553,
      "浙": 3554,
      "浜": 3555,
      "浣": 3556,
      "浦": 3557,
      "浩": 3558,
      "浪": 3559,
      "浮": 3560,
      "浴": 3561,
      "海": 3562,
      "浸": 3563,
      "涂": 3564,
      "消": 3565,
      "涉": 3566,
      "涙": 3567,
      "涛": 3568,
      "润": 3569,
      "涯": 3570,
      "液": 3571,
      "涵": 3572,
      "涼": 3573,
      "淀": 3574,
      "淄": 3575,
      "淇": 3576,
      "淑": 3577,
      "淘": 3578,
      "淚": 3579,
      "淞": 3580,
      "淡": 3581,
      "淫": 3582,
      "淮": 3583,
      "深": 3584,
      "淳": 3585,
      "淵": 3586,
      "混": 3587,
      "淸": 3588,
      "淺": 3589,
      "添": 3590,
      "清": 3591,
      "済": 3592,
      "渉": 3593,
      "渋": 3594,
      "渓": 3595,
      "渔": 3596,
      "渕": 3597,
      "渚": 3598,
      "減": 3599,
      "渝": 3600,
      "渠": 3601,
      "渡": 3602,
      "渣": 3603,
      "渤": 3604,
      "渦": 3605,
      "温": 3606,
      "測": 3607,
      "渭": 3608,
      "港": 3609,
      "游": 3610,
      "湄": 3611,
      "湖": 3612,
      "湘": 3613,
      "湛": 3614,
      "湧": 3615,
      "湯": 3616,
      "湾": 3617,
      "満": 3618,
      "溇": 3619,
      "源": 3620,
      "準": 3621,
      "溝": 3622,
      "溥": 3623,
      "溪": 3624,
      "溫": 3625,
      "溲": 3626,
      "溺": 3627,
      "滄": 3628,
      "滅": 3629,
      "滆": 3630,
      "滇": 3631,
      "滉": 3632,
      "滋": 3633,
      "滌": 3634,
      "滑": 3635,
      "滙": 3636,
      "滚": 3637,
      "滝": 3638,
      "滢": 3639,
      "滦": 3640,
      "滨": 3641,
      "滩": 3642,
      "滬": 3643,
      "滸": 3644,
      "滿": 3645,
      "漁": 3646,
      "漂": 3647,
      "漆": 3648,
      "演": 3649,
      "漠": 3650,
      "漢": 3651,
      "漣": 3652,
      "漫": 3653,
      "漱": 3654,
      "漳": 3655,
      "漸": 3656,
      "潇": 3657,
      "潍": 3658,
      "潔": 3659,
      "潘": 3660,
      "潛": 3661,
      "潜": 3662,
      "潟": 3663,
      "潢": 3664,
      "潤": 3665,
      "潭": 3666,
      "潮": 3667,
      "澀": 3668,
      "澁": 3669,
      "澄": 3670,
      "澈": 3671,
      "澍": 3672,
      "澎": 3673,
      "澗": 3674,
      "澜": 3675,
      "澤": 3676,
      "澪": 3677,
      "澱": 3678,
      "澳": 3679,
      "激": 3680,
      "濂": 3681,
      "濃": 3682,
      "濟": 3683,
      "濠": 3684,
      "濡": 3685,
      "濤": 3686,
      "濮": 3687,
      "濰": 3688,
      "濱": 3689,
      "濵": 3690,
      "瀅": 3691,
      "瀋": 3692,
      "瀑": 3693,
      "瀚": 3694,
      "瀛": 3695,
      "瀧": 3696,
      "瀬": 3697,
      "瀾": 3698,
      "灃": 3699,
      "灌": 3700,
      "灘": 3701,
      "灣": 3702,
      "火": 3703,
      "灯": 3704,
      "灰": 3705,
      "灵": 3706,
      "灸": 3707,
      "灼": 3708,
      "災": 3709,
      "灿": 3710,
      "炎": 3711,
      "炜": 3712,
      "炫": 3713,
      "炭": 3714,
      "炮": 3715,
      "炯": 3716,
      "炳": 3717,
      "炷": 3718,
      "炸": 3719,
      "点": 3720,
      "為": 3721,
      "烈": 3722,
      "烏": 3723,
      "烔": 3724,
      "烟": 3725,
      "烫": 3726,
      "热": 3727,
      "烽": 3728,
      "焉": 3729,
      "焕": 3730,
      "焜": 3731,
      "無": 3732,
      "焦": 3733,
      "焯": 3734,
      "然": 3735,
      "焼": 3736,
      "煉": 3737,
      "煊": 3738,
      "煌": 3739,
      "煒": 3740,
      "煕": 3741,
      "煙": 3742,
      "煞": 3743,
      "煤": 3744,
      "煥": 3745,
      "照": 3746,
      "煩": 3747,
      "熈": 3748,
      "熊": 3749,
      "熙": 3750,
      "熟": 3751,
      "熱": 3752,
      "燃": 3753,
      "燈": 3754,
      "燊": 3755,
      "燎": 3756,
      "燒": 3757,
      "燕": 3758,
      "營": 3759,
      "燦": 3760,
      "燧": 3761,
      "燮": 3762,
      "燿": 3763,
      "爀": 3764,
      "爆": 3765,
      "爪": 3766,
      "爬": 3767,
      "爭": 3768,
      "爱": 3769,
      "爲": 3770,
      "爵": 3771,
      "父": 3772,
      "爸": 3773,
      "爺": 3774,
      "爽": 3775,
      "爾": 3776,
      "片": 3777,
      "版": 3778,
      "牌": 3779,
      "牙": 3780,
      "牛": 3781,
      "牝": 3782,
      "牟": 3783,
      "牡": 3784,
      "牧": 3785,
      "物": 3786,
      "特": 3787,
      "犀": 3788,
      "犖": 3789,
      "犬": 3790,
      "犯": 3791,
      "状": 3792,
      "犹": 3793,
      "狀": 3794,
      "狂": 3795,
      "狄": 3796,
      "狐": 3797,
      "狗": 3798,
      "狙": 3799,
      "狛": 3800,
      "狩": 3801,
      "独": 3802,
      "狭": 3803,
      "狮": 3804,
      "狱": 3805,
      "狸": 3806,
      "狼": 3807,
      "猎": 3808,
      "猛": 3809,
      "猟": 3810,
      "猥": 3811,
      "猩": 3812,
      "猪": 3813,
      "猫": 3814,
      "献": 3815,
      "猷": 3816,
      "猿": 3817,
      "獄": 3818,
      "獅": 3819,
      "獎": 3820,
      "獏": 3821,
      "獣": 3822,
      "獨": 3823,
      "獲": 3824,
      "獵": 3825,
      "獸": 3826,
      "獻": 3827,
      "玄": 3828,
      "率": 3829,
      "玉": 3830,
      "王": 3831,
      "玎": 3832,
      "玖": 3833,
      "玛": 3834,
      "玟": 3835,
      "玥": 3836,
      "玩": 3837,
      "玫": 3838,
      "玮": 3839,
      "环": 3840,
      "现": 3841,
      "玲": 3842,
      "玹": 3843,
      "玺": 3844,
      "玻": 3845,
      "珀": 3846,
      "珂": 3847,
      "珅": 3848,
      "珈": 3849,
      "珉": 3850,
      "珊": 3851,
      "珍": 3852,
      "珠": 3853,
      "珩": 3854,
      "珪": 3855,
      "班": 3856,
      "現": 3857,
      "球": 3858,
      "琅": 3859,
      "理": 3860,
      "琇": 3861,
      "琉": 3862,
      "琊": 3863,
      "琚": 3864,
      "琛": 3865,
      "琢": 3866,
      "琦": 3867,
      "琨": 3868,
      "琪": 3869,
      "琬": 3870,
      "琰": 3871,
      "琲": 3872,
      "琳": 3873,
      "琴": 3874,
      "琵": 3875,
      "琶": 3876,
      "琼": 3877,
      "瑀": 3878,
      "瑄": 3879,
      "瑋": 3880,
      "瑚": 3881,
      "瑛": 3882,
      "瑜": 3883,
      "瑞": 3884,
      "瑟": 3885,
      "瑠": 3886,
      "瑤": 3887,
      "瑩": 3888,
      "瑪": 3889,
      "瑰": 3890,
      "瑶": 3891,
      "瑾": 3892,
      "璀": 3893,
      "璃": 3894,
      "璉": 3895,
      "璋": 3896,
      "璐": 3897,
      "璜": 3898,
      "璠": 3899,
      "璨": 3900,
      "環": 3901,
      "璽": 3902,
      "璿": 3903,
      "瓊": 3904,
      "瓜": 3905,
      "瓢": 3906,
      "瓦": 3907,
      "瓮": 3908,
      "瓲": 3909,
      "瓶": 3910,
      "瓷": 3911,
      "甄": 3912,
      "甘": 3913,
      "甚": 3914,
      "甜": 3915,
      "生": 3916,
      "產": 3917,
      "産": 3918,
      "甦": 3919,
      "用": 3920,
      "甫": 3921,
      "甯": 3922,
      "田": 3923,
      "由": 3924,
      "甲": 3925,
      "申": 3926,
      "电": 3927,
      "男": 3928,
      "甸": 3929,
      "町": 3930,
      "画": 3931,
      "畅": 3932,
      "界": 3933,
      "畏": 3934,
      "畑": 3935,
      "留": 3936,
      "畜": 3937,
      "畠": 3938,
      "畢": 3939,
      "略": 3940,
      "番": 3941,
      "畫": 3942,
      "異": 3943,
      "畳": 3944,
      "當": 3945,
      "畸": 3946,
      "畿": 3947,
      "疆": 3948,
      "疊": 3949,
      "疏": 3950,
      "疑": 3951,
      "疗": 3952,
      "疯": 3953,
      "疲": 3954,
      "疾": 3955,
      "病": 3956,
      "痕": 3957,
      "痛": 3958,
      "痧": 3959,
      "痴": 3960,
      "瘋": 3961,
      "療": 3962,
      "癲": 3963,
      "発": 3964,
      "登": 3965,
      "發": 3966,
      "白": 3967,
      "百": 3968,
      "的": 3969,
      "皇": 3970,
      "皐": 3971,
      "皓": 3972,
      "皖": 3973,
      "皮": 3974,
      "盂": 3975,
      "盆": 3976,
      "盈": 3977,
      "益": 3978,
      "监": 3979,
      "盒": 3980,
      "盖": 3981,
      "盗": 3982,
      "盘": 3983,
      "盛": 3984,
      "盜": 3985,
      "盟": 3986,
      "盡": 3987,
      "監": 3988,
      "盤": 3989,
      "盧": 3990,
      "目": 3991,
      "盲": 3992,
      "直": 3993,
      "相": 3994,
      "盾": 3995,
      "省": 3996,
      "眉": 3997,
      "看": 3998,
      "県": 3999,
      "眞": 4000,
      "真": 4001,
      "眠": 4002,
      "眸": 4003,
      "眼": 4004,
      "眾": 4005,
      "着": 4006,
      "睡": 4007,
      "督": 4008,
      "睦": 4009,
      "睫": 4010,
      "睹": 4011,
      "睿": 4012,
      "瞬": 4013,
      "瞰": 4014,
      "瞳": 4015,
      "瞻": 4016,
      "瞿": 4017,
      "矛": 4018,
      "矢": 4019,
      "矣": 4020,
      "知": 4021,
      "矧": 4022,
      "矩": 4023,
      "短": 4024,
      "石": 4025,
      "矽": 4026,
      "矿": 4027,
      "码": 4028,
      "砂": 4029,
      "砌": 4030,
      "研": 4031,
      "砥": 4032,
      "砦": 4033,
      "砲": 4034,
      "破": 4035,
      "砵": 4036,
      "砻": 4037,
      "硃": 4038,
      "硕": 4039,
      "硝": 4040,
      "硫": 4041,
      "硬": 4042,
      "碁": 4043,
      "碇": 4044,
      "碌": 4045,
      "碍": 4046,
      "碎": 4047,
      "碑": 4048,
      "碓": 4049,
      "碟": 4050,
      "碧": 4051,
      "碩": 4052,
      "碰": 4053,
      "碼": 4054,
      "磁": 4055,
      "磊": 4056,
      "磐": 4057,
      "磔": 4058,
      "磨": 4059,
      "磯": 4060,
      "礁": 4061,
      "礦": 4062,
      "礫": 4063,
      "示": 4064,
      "礼": 4065,
      "社": 4066,
      "祇": 4067,
      "祈": 4068,
      "祉": 4069,
      "祐": 4070,
      "祖": 4071,
      "祜": 4072,
      "祝": 4073,
      "神": 4074,
      "祠": 4075,
      "祥": 4076,
      "祭": 4077,
      "祯": 4078,
      "祺": 4079,
      "祿": 4080,
      "禁": 4081,
      "禄": 4082,
      "禅": 4083,
      "禎": 4084,
      "福": 4085,
      "禧": 4086,
      "禮": 4087,
      "禹": 4088,
      "禽": 4089,
      "禾": 4090,
      "禿": 4091,
      "秀": 4092,
      "私": 4093,
      "秉": 4094,
      "秋": 4095,
      "种": 4096,
      "科": 4097,
      "秒": 4098,
      "秘": 4099,
      "租": 4100,
      "秤": 4101,
      "秦": 4102,
      "秩": 4103,
      "积": 4104,
      "称": 4105,
      "移": 4106,
      "稀": 4107,
      "稅": 4108,
      "程": 4109,
      "税": 4110,
      "稔": 4111,
      "稗": 4112,
      "稚": 4113,
      "稠": 4114,
      "種": 4115,
      "稲": 4116,
      "稻": 4117,
      "稿": 4118,
      "穀": 4119,
      "穂": 4120,
      "穆": 4121,
      "積": 4122,
      "穎": 4123,
      "穗": 4124,
      "穢": 4125,
      "穣": 4126,
      "穩": 4127,
      "穴": 4128,
      "究": 4129,
      "空": 4130,
      "突": 4131,
      "窄": 4132,
      "窈": 4133,
      "窓": 4134,
      "窖": 4135,
      "窝": 4136,
      "窩": 4137,
      "竇": 4138,
      "竊": 4139,
      "立": 4140,
      "站": 4141,
      "竜": 4142,
      "竞": 4143,
      "竟": 4144,
      "章": 4145,
      "童": 4146,
      "端": 4147,
      "競": 4148,
      "竹": 4149,
      "竺": 4150,
      "笃": 4151,
      "笈": 4152,
      "笏": 4153,
      "笑": 4154,
      "笔": 4155,
      "笙": 4156,
      "笛": 4157,
      "笠": 4158,
      "符": 4159,
      "笨": 4160,
      "第": 4161,
      "笹": 4162,
      "笼": 4163,
      "筆": 4164,
      "等": 4165,
      "筋": 4166,
      "筏": 4167,
      "筑": 4168,
      "策": 4169,
      "筝": 4170,
      "筧": 4171,
      "筱": 4172,
      "筲": 4173,
      "简": 4174,
      "箏": 4175,
      "箒": 4176,
      "箕": 4177,
      "算": 4178,
      "管": 4179,
      "箭": 4180,
      "箱": 4181,
      "節": 4182,
      "篁": 4183,
      "範": 4184,
      "篇": 4185,
      "築": 4186,
      "篠": 4187,
      "篤": 4188,
      "篮": 4189,
      "簇": 4190,
      "簡": 4191,
      "簿": 4192,
      "籃": 4193,
      "籍": 4194,
      "籟": 4195,
      "籠": 4196,
      "米": 4197,
      "粉": 4198,
      "粗": 4199,
      "粟": 4200,
      "粥": 4201,
      "粧": 4202,
      "粮": 4203,
      "粵": 4204,
      "精": 4205,
      "糕": 4206,
      "糖": 4207,
      "糙": 4208,
      "糞": 4209,
      "糧": 4210,
      "糬": 4211,
      "糸": 4212,
      "系": 4213,
      "紀": 4214,
      "約": 4215,
      "紅": 4216,
      "紋": 4217,
      "納": 4218,
      "紐": 4219,
      "純": 4220,
      "紗": 4221,
      "紘": 4222,
      "紙": 4223,
      "級": 4224,
      "紛": 4225,
      "紜": 4226,
      "素": 4227,
      "索": 4228,
      "紧": 4229,
      "紫": 4230,
      "紮": 4231,
      "細": 4232,
      "紳": 4233,
      "紹": 4234,
      "紺": 4235,
      "終": 4236,
      "絃": 4237,
      "組": 4238,
      "絆": 4239,
      "経": 4240,
      "結": 4241,
      "絕": 4242,
      "絞": 4243,
      "絡": 4244,
      "絢": 4245,
      "給": 4246,
      "統": 4247,
      "絲": 4248,
      "絵": 4249,
      "絶": 4250,
      "絹": 4251,
      "綏": 4252,
      "經": 4253,
      "継": 4254,
      "続": 4255,
      "綜": 4256,
      "綠": 4257,
      "綫": 4258,
      "維": 4259,
      "綱": 4260,
      "網": 4261,
      "綸": 4262,
      "綺": 4263,
      "綽": 4264,
      "綾": 4265,
      "綿": 4266,
      "緊": 4267,
      "緋": 4268,
      "総": 4269,
      "緑": 4270,
      "緒": 4271,
      "線": 4272,
      "緣": 4273,
      "編": 4274,
      "緯": 4275,
      "練": 4276,
      "縁": 4277,
      "縄": 4278,
      "縛": 4279,
      "縣": 4280,
      "縫": 4281,
      "縱": 4282,
      "總": 4283,
      "繁": 4284,
      "繆": 4285,
      "織": 4286,
      "繕": 4287,
      "繚": 4288,
      "繡": 4289,
      "繪": 4290,
      "繰": 4291,
      "繼": 4292,
      "續": 4293,
      "纓": 4294,
      "纜": 4295,
      "红": 4296,
      "约": 4297,
      "级": 4298,
      "纪": 4299,
      "纱": 4300,
      "纲": 4301,
      "纳": 4302,
      "纵": 4303,
      "纶": 4304,
      "线": 4305,
      "织": 4306,
      "终": 4307,
      "绍": 4308,
      "经": 4309,
      "绑": 4310,
      "绒": 4311,
      "结": 4312,
      "绘": 4313,
      "给": 4314,
      "络": 4315,
      "绝": 4316,
      "统": 4317,
      "绣": 4318,
      "绥": 4319,
      "继": 4320,
      "续": 4321,
      "绮": 4322,
      "维": 4323,
      "绵": 4324,
      "综": 4325,
      "绿": 4326,
      "缅": 4327,
      "缘": 4328,
      "缝": 4329,
      "缨": 4330,
      "缪": 4331,
      "缺": 4332,
      "罐": 4333,
      "网": 4334,
      "罕": 4335,
      "罗": 4336,
      "罘": 4337,
      "罪": 4338,
      "置": 4339,
      "罰": 4340,
      "署": 4341,
      "罳": 4342,
      "羅": 4343,
      "羊": 4344,
      "羌": 4345,
      "美": 4346,
      "羚": 4347,
      "羣": 4348,
      "群": 4349,
      "義": 4350,
      "羯": 4351,
      "羲": 4352,
      "羽": 4353,
      "翁": 4354,
      "翅": 4355,
      "翊": 4356,
      "習": 4357,
      "翔": 4358,
      "翠": 4359,
      "翡": 4360,
      "翰": 4361,
      "翳": 4362,
      "翻": 4363,
      "翼": 4364,
      "耀": 4365,
      "老": 4366,
      "考": 4367,
      "者": 4368,
      "耆": 4369,
      "而": 4370,
      "耐": 4371,
      "耕": 4372,
      "耳": 4373,
      "耶": 4374,
      "聂": 4375,
      "聊": 4376,
      "职": 4377,
      "联": 4378,
      "聖": 4379,
      "聘": 4380,
      "聚": 4381,
      "聞": 4382,
      "聡": 4383,
      "聯": 4384,
      "聰": 4385,
      "聲": 4386,
      "聴": 4387,
      "聶": 4388,
      "職": 4389,
      "聽": 4390,
      "聿": 4391,
      "肃": 4392,
      "肅": 4393,
      "肇": 4394,
      "肉": 4395,
      "肋": 4396,
      "肌": 4397,
      "肖": 4398,
      "肠": 4399,
      "股": 4400,
      "肢": 4401,
      "肥": 4402,
      "育": 4403,
      "肺": 4404,
      "胆": 4405,
      "背": 4406,
      "胎": 4407,
      "胖": 4408,
      "胜": 4409,
      "胞": 4410,
      "胡": 4411,
      "胧": 4412,
      "胸": 4413,
      "能": 4414,
      "脂": 4415,
      "脇": 4416,
      "脈": 4417,
      "脉": 4418,
      "脊": 4419,
      "脑": 4420,
      "脚": 4421,
      "脫": 4422,
      "脳": 4423,
      "腕": 4424,
      "腦": 4425,
      "腩": 4426,
      "腰": 4427,
      "腳": 4428,
      "腸": 4429,
      "腹": 4430,
      "腺": 4431,
      "腾": 4432,
      "腿": 4433,
      "膀": 4434,
      "膩": 4435,
      "膳": 4436,
      "膽": 4437,
      "臂": 4438,
      "臍": 4439,
      "臓": 4440,
      "臣": 4441,
      "臧": 4442,
      "臨": 4443,
      "自": 4444,
      "臭": 4445,
      "至": 4446,
      "致": 4447,
      "臺": 4448,
      "臻": 4449,
      "臼": 4450,
      "舂": 4451,
      "與": 4452,
      "興": 4453,
      "舊": 4454,
      "舌": 4455,
      "舍": 4456,
      "舎": 4457,
      "舒": 4458,
      "舗": 4459,
      "舘": 4460,
      "舛": 4461,
      "舜": 4462,
      "舞": 4463,
      "舟": 4464,
      "舩": 4465,
      "航": 4466,
      "舫": 4467,
      "般": 4468,
      "舰": 4469,
      "船": 4470,
      "舺": 4471,
      "艇": 4472,
      "艋": 4473,
      "艦": 4474,
      "艮": 4475,
      "良": 4476,
      "色": 4477,
      "艳": 4478,
      "艷": 4479,
      "艺": 4480,
      "艾": 4481,
      "节": 4482,
      "芃": 4483,
      "芎": 4484,
      "芒": 4485,
      "芙": 4486,
      "芝": 4487,
      "芥": 4488,
      "芦": 4489,
      "芬": 4490,
      "芭": 4491,
      "花": 4492,
      "芳": 4493,
      "芷": 4494,
      "芸": 4495,
      "芹": 4496,
      "芽": 4497,
      "苋": 4498,
      "苍": 4499,
      "苏": 4500,
      "苑": 4501,
      "苓": 4502,
      "苔": 4503,
      "苕": 4504,
      "苗": 4505,
      "苞": 4506,
      "苟": 4507,
      "若": 4508,
      "苦": 4509,
      "英": 4510,
      "苹": 4511,
      "苺": 4512,
      "茂": 4513,
      "范": 4514,
      "茄": 4515,
      "茅": 4516,
      "茉": 4517,
      "茎": 4518,
      "茗": 4519,
      "茜": 4520,
      "茨": 4521,
      "茱": 4522,
      "茵": 4523,
      "茶": 4524,
      "茹": 4525,
      "荃": 4526,
      "荆": 4527,
      "草": 4528,
      "荊": 4529,
      "荒": 4530,
      "荔": 4531,
      "荘": 4532,
      "荡": 4533,
      "荣": 4534,
      "荦": 4535,
      "荫": 4536,
      "药": 4537,
      "荷": 4538,
      "荻": 4539,
      "莆": 4540,
      "莉": 4541,
      "莊": 4542,
      "莎": 4543,
      "莓": 4544,
      "莖": 4545,
      "莘": 4546,
      "莞": 4547,
      "莢": 4548,
      "莧": 4549,
      "莫": 4550,
      "莱": 4551,
      "莲": 4552,
      "莸": 4553,
      "莼": 4554,
      "莽": 4555,
      "菀": 4556,
      "菁": 4557,
      "菅": 4558,
      "菊": 4559,
      "菌": 4560,
      "菎": 4561,
      "菓": 4562,
      "菘": 4563,
      "菜": 4564,
      "菠": 4565,
      "菩": 4566,
      "菫": 4567,
      "華": 4568,
      "菰": 4569,
      "菱": 4570,
      "菲": 4571,
      "菴": 4572,
      "菸": 4573,
      "萃": 4574,
      "萄": 4575,
      "萊": 4576,
      "萌": 4577,
      "萍": 4578,
      "营": 4579,
      "萧": 4580,
      "萨": 4581,
      "萩": 4582,
      "萬": 4583,
      "萱": 4584,
      "萸": 4585,
      "萼": 4586,
      "落": 4587,
      "葆": 4588,
      "葉": 4589,
      "著": 4590,
      "葛": 4591,
      "葡": 4592,
      "董": 4593,
      "葦": 4594,
      "葫": 4595,
      "葬": 4596,
      "葯": 4597,
      "葵": 4598,
      "蒂": 4599,
      "蒋": 4600,
      "蒔": 4601,
      "蒙": 4602,
      "蒟": 4603,
      "蒲": 4604,
      "蒸": 4605,
      "蒻": 4606,
      "蒼": 4607,
      "蒿": 4608,
      "蓀": 4609,
      "蓄": 4610,
      "蓉": 4611,
      "蓝": 4612,
      "蓬": 4613,
      "蓮": 4614,
      "蓼": 4615,
      "蔗": 4616,
      "蔚": 4617,
      "蔡": 4618,
      "蔣": 4619,
      "蔥": 4620,
      "蔦": 4621,
      "蔬": 4622,
      "蔭": 4623,
      "蔴": 4624,
      "蔵": 4625,
      "蔷": 4626,
      "蕉": 4627,
      "蕗": 4628,
      "蕙": 4629,
      "蕨": 4630,
      "蕩": 4631,
      "蕭": 4632,
      "蕾": 4633,
      "薄": 4634,
      "薇": 4635,
      "薈": 4636,
      "薊": 4637,
      "薔": 4638,
      "薙": 4639,
      "薛": 4640,
      "薤": 4641,
      "薩": 4642,
      "薫": 4643,
      "薬": 4644,
      "薮": 4645,
      "薰": 4646,
      "藍": 4647,
      "藏": 4648,
      "藝": 4649,
      "藤": 4650,
      "藥": 4651,
      "藩": 4652,
      "藪": 4653,
      "藻": 4654,
      "蘆": 4655,
      "蘇": 4656,
      "蘋": 4657,
      "蘭": 4658,
      "蘿": 4659,
      "虎": 4660,
      "虐": 4661,
      "處": 4662,
      "虚": 4663,
      "虛": 4664,
      "虞": 4665,
      "號": 4666,
      "虫": 4667,
      "虹": 4668,
      "蚀": 4669,
      "蚁": 4670,
      "蚊": 4671,
      "蚌": 4672,
      "蚺": 4673,
      "蛇": 4674,
      "蛉": 4675,
      "蛋": 4676,
      "蛍": 4677,
      "蛙": 4678,
      "蛛": 4679,
      "蛟": 4680,
      "蛮": 4681,
      "蛺": 4682,
      "蛾": 4683,
      "蜀": 4684,
      "蜂": 4685,
      "蜆": 4686,
      "蜘": 4687,
      "蜜": 4688,
      "蜥": 4689,
      "蜷": 4690,
      "蜻": 4691,
      "蝉": 4692,
      "蝕": 4693,
      "蝦": 4694,
      "蝪": 4695,
      "蝴": 4696,
      "蝶": 4697,
      "螂": 4698,
      "融": 4699,
      "螢": 4700,
      "螳": 4701,
      "螺": 4702,
      "蟇": 4703,
      "蟲": 4704,
      "蟷": 4705,
      "蟹": 4706,
      "蟻": 4707,
      "蠡": 4708,
      "蠻": 4709,
      "血": 4710,
      "衆": 4711,
      "行": 4712,
      "術": 4713,
      "街": 4714,
      "衛": 4715,
      "衝": 4716,
      "衞": 4717,
      "衡": 4718,
      "衣": 4719,
      "表": 4720,
      "衰": 4721,
      "袁": 4722,
      "袋": 4723,
      "被": 4724,
      "袴": 4725,
      "裁": 4726,
      "裂": 4727,
      "装": 4728,
      "裏": 4729,
      "裔": 4730,
      "裕": 4731,
      "裘": 4732,
      "補": 4733,
      "裝": 4734,
      "裡": 4735,
      "裳": 4736,
      "裵": 4737,
      "裸": 4738,
      "製": 4739,
      "裾": 4740,
      "複": 4741,
      "褲": 4742,
      "褻": 4743,
      "襖": 4744,
      "襟": 4745,
      "襪": 4746,
      "襲": 4747,
      "西": 4748,
      "要": 4749,
      "覇": 4750,
      "見": 4751,
      "規": 4752,
      "視": 4753,
      "覚": 4754,
      "覧": 4755,
      "親": 4756,
      "覲": 4757,
      "観": 4758,
      "覺": 4759,
      "覽": 4760,
      "觀": 4761,
      "见": 4762,
      "观": 4763,
      "视": 4764,
      "览": 4765,
      "觉": 4766,
      "觐": 4767,
      "角": 4768,
      "解": 4769,
      "言": 4770,
      "訂": 4771,
      "計": 4772,
      "訊": 4773,
      "討": 4774,
      "訓": 4775,
      "訕": 4776,
      "託": 4777,
      "記": 4778,
      "訪": 4779,
      "設": 4780,
      "許": 4781,
      "訳": 4782,
      "訴": 4783,
      "訶": 4784,
      "診": 4785,
      "証": 4786,
      "詒": 4787,
      "評": 4788,
      "詞": 4789,
      "詠": 4790,
      "試": 4791,
      "詩": 4792,
      "詮": 4793,
      "話": 4794,
      "該": 4795,
      "詳": 4796,
      "詹": 4797,
      "誂": 4798,
      "誌": 4799,
      "誕": 4800,
      "誘": 4801,
      "語": 4802,
      "誠": 4803,
      "誡": 4804,
      "誤": 4805,
      "說": 4806,
      "説": 4807,
      "読": 4808,
      "誰": 4809,
      "課": 4810,
      "調": 4811,
      "談": 4812,
      "諏": 4813,
      "論": 4814,
      "諫": 4815,
      "諭": 4816,
      "諸": 4817,
      "諾": 4818,
      "謀": 4819,
      "謎": 4820,
      "謙": 4821,
      "講": 4822,
      "謝": 4823,
      "謨": 4824,
      "證": 4825,
      "譚": 4826,
      "譜": 4827,
      "警": 4828,
      "譯": 4829,
      "議": 4830,
      "譲": 4831,
      "護": 4832,
      "讃": 4833,
      "變": 4834,
      "讐": 4835,
      "讓": 4836,
      "讚": 4837,
      "计": 4838,
      "让": 4839,
      "训": 4840,
      "议": 4841,
      "讯": 4842,
      "记": 4843,
      "许": 4844,
      "论": 4845,
      "设": 4846,
      "证": 4847,
      "诃": 4848,
      "评": 4849,
      "识": 4850,
      "词": 4851,
      "诗": 4852,
      "诚": 4853,
      "话": 4854,
      "该": 4855,
      "语": 4856,
      "说": 4857,
      "诺": 4858,
      "读": 4859,
      "谊": 4860,
      "谋": 4861,
      "谢": 4862,
      "谣": 4863,
      "谦": 4864,
      "谭": 4865,
      "谱": 4866,
      "谷": 4867,
      "豆": 4868,
      "豊": 4869,
      "豐": 4870,
      "豚": 4871,
      "象": 4872,
      "豪": 4873,
      "豫": 4874,
      "豬": 4875,
      "豹": 4876,
      "貓": 4877,
      "貝": 4878,
      "貞": 4879,
      "負": 4880,
      "財": 4881,
      "貢": 4882,
      "貧": 4883,
      "貨": 4884,
      "貫": 4885,
      "責": 4886,
      "貳": 4887,
      "貴": 4888,
      "買": 4889,
      "費": 4890,
      "貼": 4891,
      "貽": 4892,
      "貿": 4893,
      "賀": 4894,
      "資": 4895,
      "賈": 4896,
      "賊": 4897,
      "賓": 4898,
      "賜": 4899,
      "賞": 4900,
      "賡": 4901,
      "賢": 4902,
      "賣": 4903,
      "質": 4904,
      "賭": 4905,
      "賴": 4906,
      "購": 4907,
      "賽": 4908,
      "贊": 4909,
      "贖": 4910,
      "贛": 4911,
      "贝": 4912,
      "贞": 4913,
      "贡": 4914,
      "财": 4915,
      "责": 4916,
      "贤": 4917,
      "货": 4918,
      "质": 4919,
      "购": 4920,
      "贯": 4921,
      "贵": 4922,
      "贷": 4923,
      "贸": 4924,
      "费": 4925,
      "贺": 4926,
      "贻": 4927,
      "贾": 4928,
      "资": 4929,
      "赌": 4930,
      "赛": 4931,
      "赞": 4932,
      "赡": 4933,
      "赣": 4934,
      "赤": 4935,
      "赫": 4936,
      "走": 4937,
      "赵": 4938,
      "起": 4939,
      "超": 4940,
      "越": 4941,
      "趙": 4942,
      "趨": 4943,
      "足": 4944,
      "跃": 4945,
      "跆": 4946,
      "跑": 4947,
      "跖": 4948,
      "距": 4949,
      "跟": 4950,
      "跡": 4951,
      "路": 4952,
      "跳": 4953,
      "践": 4954,
      "踊": 4955,
      "踏": 4956,
      "踐": 4957,
      "踪": 4958,
      "踯": 4959,
      "蹄": 4960,
      "蹈": 4961,
      "蹊": 4962,
      "蹟": 4963,
      "躁": 4964,
      "躅": 4965,
      "躍": 4966,
      "身": 4967,
      "車": 4968,
      "軌": 4969,
      "軍": 4970,
      "軒": 4971,
      "軟": 4972,
      "転": 4973,
      "軫": 4974,
      "軽": 4975,
      "軾": 4976,
      "載": 4977,
      "輌": 4978,
      "輔": 4979,
      "輕": 4980,
      "輝": 4981,
      "輩": 4982,
      "輪": 4983,
      "輯": 4984,
      "輸": 4985,
      "轉": 4986,
      "轎": 4987,
      "车": 4988,
      "轨": 4989,
      "轩": 4990,
      "转": 4991,
      "轮": 4992,
      "软": 4993,
      "轰": 4994,
      "轻": 4995,
      "载": 4996,
      "轿": 4997,
      "辅": 4998,
      "辉": 4999,
      "辑": 5000,
      "辙": 5001,
      "辛": 5002,
      "辞": 5003,
      "辣": 5004,
      "辦": 5005,
      "辭": 5006,
      "辰": 5007,
      "辱": 5008,
      "農": 5009,
      "辺": 5010,
      "辻": 5011,
      "込": 5012,
      "辽": 5013,
      "达": 5014,
      "迁": 5015,
      "迅": 5016,
      "过": 5017,
      "迎": 5018,
      "运": 5019,
      "近": 5020,
      "返": 5021,
      "还": 5022,
      "这": 5023,
      "进": 5024,
      "远": 5025,
      "连": 5026,
      "迟": 5027,
      "迦": 5028,
      "迪": 5029,
      "迫": 5030,
      "述": 5031,
      "迴": 5032,
      "迷": 5033,
      "追": 5034,
      "退": 5035,
      "送": 5036,
      "逃": 5037,
      "逆": 5038,
      "选": 5039,
      "透": 5040,
      "逐": 5041,
      "途": 5042,
      "這": 5043,
      "通": 5044,
      "逝": 5045,
      "速": 5046,
      "造": 5047,
      "逢": 5048,
      "連": 5049,
      "逮": 5050,
      "週": 5051,
      "進": 5052,
      "逵": 5053,
      "逸": 5054,
      "逼": 5055,
      "遁": 5056,
      "遂": 5057,
      "遇": 5058,
      "遊": 5059,
      "運": 5060,
      "遍": 5061,
      "過": 5062,
      "遏": 5063,
      "道": 5064,
      "達": 5065,
      "違": 5066,
      "遗": 5067,
      "遙": 5068,
      "遜": 5069,
      "遞": 5070,
      "遠": 5071,
      "遣": 5072,
      "遥": 5073,
      "遭": 5074,
      "遮": 5075,
      "遲": 5076,
      "遵": 5077,
      "選": 5078,
      "遺": 5079,
      "遼": 5080,
      "還": 5081,
      "邉": 5082,
      "邊": 5083,
      "邑": 5084,
      "邓": 5085,
      "邛": 5086,
      "邢": 5087,
      "那": 5088,
      "邦": 5089,
      "邨": 5090,
      "邪": 5091,
      "邮": 5092,
      "邯": 5093,
      "邰": 5094,
      "邱": 5095,
      "邵": 5096,
      "邹": 5097,
      "郁": 5098,
      "郎": 5099,
      "郑": 5100,
      "郝": 5101,
      "郞": 5102,
      "郡": 5103,
      "部": 5104,
      "郭": 5105,
      "郵": 5106,
      "郷": 5107,
      "郸": 5108,
      "都": 5109,
      "鄂": 5110,
      "鄉": 5111,
      "鄒": 5112,
      "鄞": 5113,
      "鄧": 5114,
      "鄭": 5115,
      "鄱": 5116,
      "鄲": 5117,
      "酉": 5118,
      "配": 5119,
      "酒": 5120,
      "酔": 5121,
      "酵": 5122,
      "酷": 5123,
      "酸": 5124,
      "醇": 5125,
      "醉": 5126,
      "醒": 5127,
      "醫": 5128,
      "醸": 5129,
      "采": 5130,
      "釈": 5131,
      "釋": 5132,
      "里": 5133,
      "重": 5134,
      "野": 5135,
      "量": 5136,
      "金": 5137,
      "釗": 5138,
      "釜": 5139,
      "針": 5140,
      "釣": 5141,
      "釧": 5142,
      "鈊": 5143,
      "鈕": 5144,
      "鈞": 5145,
      "鈴": 5146,
      "鈺": 5147,
      "鉄": 5148,
      "鉛": 5149,
      "鉤": 5150,
      "鉬": 5151,
      "鉱": 5152,
      "鉴": 5153,
      "銀": 5154,
      "銃": 5155,
      "銅": 5156,
      "銓": 5157,
      "銖": 5158,
      "銘": 5159,
      "銚": 5160,
      "銭": 5161,
      "銳": 5162,
      "銶": 5163,
      "銹": 5164,
      "鋒": 5165,
      "鋤": 5166,
      "鋸": 5167,
      "鋼": 5168,
      "錄": 5169,
      "錆": 5170,
      "錘": 5171,
      "錢": 5172,
      "錦": 5173,
      "錫": 5174,
      "錬": 5175,
      "録": 5176,
      "鍊": 5177,
      "鍋": 5178,
      "鍔": 5179,
      "鍙": 5180,
      "鍛": 5181,
      "鍵": 5182,
      "鍼": 5183,
      "鍾": 5184,
      "鎌": 5185,
      "鎔": 5186,
      "鎖": 5187,
      "鎗": 5188,
      "鎧": 5189,
      "鎬": 5190,
      "鎭": 5191,
      "鎮": 5192,
      "鏇": 5193,
      "鏗": 5194,
      "鏘": 5195,
      "鏞": 5196,
      "鏡": 5197,
      "鏵": 5198,
      "鐘": 5199,
      "鐵": 5200,
      "鐶": 5201,
      "鑄": 5202,
      "鑌": 5203,
      "鑑": 5204,
      "鑒": 5205,
      "鑓": 5206,
      "鑫": 5207,
      "针": 5208,
      "钓": 5209,
      "钝": 5210,
      "钟": 5211,
      "钢": 5212,
      "钦": 5213,
      "钧": 5214,
      "钩": 5215,
      "钱": 5216,
      "钼": 5217,
      "铁": 5218,
      "铃": 5219,
      "铜": 5220,
      "铭": 5221,
      "银": 5222,
      "铸": 5223,
      "锁": 5224,
      "锅": 5225,
      "锈": 5226,
      "锋": 5227,
      "锐": 5228,
      "错": 5229,
      "锡": 5230,
      "锤": 5231,
      "锥": 5232,
      "锦": 5233,
      "锷": 5234,
      "锺": 5235,
      "镇": 5236,
      "镜": 5237,
      "镞": 5238,
      "镰": 5239,
      "镶": 5240,
      "長": 5241,
      "长": 5242,
      "門": 5243,
      "閃": 5244,
      "閆": 5245,
      "閉": 5246,
      "開": 5247,
      "閎": 5248,
      "閑": 5249,
      "閒": 5250,
      "間": 5251,
      "閔": 5252,
      "閘": 5253,
      "関": 5254,
      "閣": 5255,
      "閥": 5256,
      "閬": 5257,
      "閻": 5258,
      "闇": 5259,
      "闊": 5260,
      "闖": 5261,
      "闘": 5262,
      "關": 5263,
      "门": 5264,
      "闫": 5265,
      "闳": 5266,
      "间": 5267,
      "闹": 5268,
      "闽": 5269,
      "阁": 5270,
      "阆": 5271,
      "阎": 5272,
      "阔": 5273,
      "阜": 5274,
      "队": 5275,
      "阡": 5276,
      "阪": 5277,
      "阮": 5278,
      "防": 5279,
      "阳": 5280,
      "阴": 5281,
      "阿": 5282,
      "陀": 5283,
      "附": 5284,
      "际": 5285,
      "陆": 5286,
      "陈": 5287,
      "陌": 5288,
      "降": 5289,
      "限": 5290,
      "陕": 5291,
      "陝": 5292,
      "陞": 5293,
      "院": 5294,
      "陣": 5295,
      "险": 5296,
      "陪": 5297,
      "陰": 5298,
      "陳": 5299,
      "陵": 5300,
      "陶": 5301,
      "陸": 5302,
      "険": 5303,
      "陽": 5304,
      "隅": 5305,
      "隆": 5306,
      "隈": 5307,
      "隊": 5308,
      "隋": 5309,
      "階": 5310,
      "随": 5311,
      "隐": 5312,
      "隔": 5313,
      "際": 5314,
      "隠": 5315,
      "隣": 5316,
      "隧": 5317,
      "險": 5318,
      "隱": 5319,
      "隶": 5320,
      "隷": 5321,
      "隸": 5322,
      "隼": 5323,
      "雀": 5324,
      "雁": 5325,
      "雄": 5326,
      "雅": 5327,
      "集": 5328,
      "雉": 5329,
      "雌": 5330,
      "雍": 5331,
      "雑": 5332,
      "雕": 5333,
      "雙": 5334,
      "雜": 5335,
      "雞": 5336,
      "離": 5337,
      "難": 5338,
      "雨": 5339,
      "雪": 5340,
      "雫": 5341,
      "雯": 5342,
      "雰": 5343,
      "雲": 5344,
      "零": 5345,
      "雷": 5346,
      "電": 5347,
      "霄": 5348,
      "霆": 5349,
      "震": 5350,
      "霊": 5351,
      "霍": 5352,
      "霏": 5353,
      "霖": 5354,
      "霜": 5355,
      "霞": 5356,
      "霧": 5357,
      "霰": 5358,
      "露": 5359,
      "霸": 5360,
      "霹": 5361,
      "靂": 5362,
      "靄": 5363,
      "靈": 5364,
      "靑": 5365,
      "青": 5366,
      "靓": 5367,
      "靖": 5368,
      "静": 5369,
      "靚": 5370,
      "靜": 5371,
      "非": 5372,
      "靡": 5373,
      "面": 5374,
      "革": 5375,
      "靳": 5376,
      "靼": 5377,
      "鞍": 5378,
      "鞜": 5379,
      "鞭": 5380,
      "韃": 5381,
      "韋": 5382,
      "韑": 5383,
      "韓": 5384,
      "韜": 5385,
      "韞": 5386,
      "韦": 5387,
      "韩": 5388,
      "韫": 5389,
      "韬": 5390,
      "音": 5391,
      "韶": 5392,
      "響": 5393,
      "頂": 5394,
      "頃": 5395,
      "項": 5396,
      "順": 5397,
      "須": 5398,
      "頌": 5399,
      "預": 5400,
      "頑": 5401,
      "頒": 5402,
      "頓": 5403,
      "領": 5404,
      "頤": 5405,
      "頭": 5406,
      "頼": 5407,
      "題": 5408,
      "額": 5409,
      "顏": 5410,
      "顔": 5411,
      "顕": 5412,
      "願": 5413,
      "類": 5414,
      "顧": 5415,
      "顯": 5416,
      "顶": 5417,
      "项": 5418,
      "顺": 5419,
      "须": 5420,
      "顾": 5421,
      "顿": 5422,
      "颂": 5423,
      "预": 5424,
      "领": 5425,
      "颐": 5426,
      "频": 5427,
      "颖": 5428,
      "颗": 5429,
      "题": 5430,
      "颜": 5431,
      "额": 5432,
      "風": 5433,
      "风": 5434,
      "飛": 5435,
      "飞": 5436,
      "食": 5437,
      "飯": 5438,
      "飴": 5439,
      "飼": 5440,
      "飽": 5441,
      "飾": 5442,
      "餅": 5443,
      "養": 5444,
      "餐": 5445,
      "餓": 5446,
      "餘": 5447,
      "館": 5448,
      "饅": 5449,
      "饒": 5450,
      "饗": 5451,
      "饭": 5452,
      "饰": 5453,
      "饶": 5454,
      "馆": 5455,
      "馒": 5456,
      "首": 5457,
      "馗": 5458,
      "香": 5459,
      "馥": 5460,
      "馨": 5461,
      "馬": 5462,
      "馮": 5463,
      "馳": 5464,
      "駁": 5465,
      "駄": 5466,
      "駅": 5467,
      "駆": 5468,
      "駐": 5469,
      "駒": 5470,
      "駕": 5471,
      "駟": 5472,
      "駿": 5473,
      "騎": 5474,
      "騏": 5475,
      "騒": 5476,
      "験": 5477,
      "騨": 5478,
      "騫": 5479,
      "騰": 5480,
      "騷": 5481,
      "驃": 5482,
      "驅": 5483,
      "驊": 5484,
      "驗": 5485,
      "驚": 5486,
      "驤": 5487,
      "驥": 5488,
      "马": 5489,
      "驰": 5490,
      "驷": 5491,
      "驹": 5492,
      "驼": 5493,
      "驿": 5494,
      "骄": 5495,
      "骆": 5496,
      "验": 5497,
      "骏": 5498,
      "骑": 5499,
      "骞": 5500,
      "骨": 5501,
      "骸": 5502,
      "體": 5503,
      "高": 5504,
      "髪": 5505,
      "鬥": 5506,
      "鬧": 5507,
      "鬪": 5508,
      "鬱": 5509,
      "鬼": 5510,
      "魁": 5511,
      "魂": 5512,
      "魅": 5513,
      "魍": 5514,
      "魎": 5515,
      "魏": 5516,
      "魔": 5517,
      "魚": 5518,
      "魯": 5519,
      "鮎": 5520,
      "鮑": 5521,
      "鮒": 5522,
      "鮨": 5523,
      "鮫": 5524,
      "鮮": 5525,
      "鯉": 5526,
      "鯤": 5527,
      "鯨": 5528,
      "鰲": 5529,
      "鱀": 5530,
      "鱷": 5531,
      "鱼": 5532,
      "鲁": 5533,
      "鲨": 5534,
      "鲲": 5535,
      "鳓": 5536,
      "鳖": 5537,
      "鳞": 5538,
      "鳥": 5539,
      "鳩": 5540,
      "鳳": 5541,
      "鳴": 5542,
      "鴉": 5543,
      "鴛": 5544,
      "鴦": 5545,
      "鴨": 5546,
      "鴻": 5547,
      "鵑": 5548,
      "鵜": 5549,
      "鵞": 5550,
      "鵡": 5551,
      "鵬": 5552,
      "鵰": 5553,
      "鵲": 5554,
      "鶏": 5555,
      "鶯": 5556,
      "鶴": 5557,
      "鷲": 5558,
      "鷹": 5559,
      "鷺": 5560,
      "鸟": 5561,
      "鸡": 5562,
      "鸣": 5563,
      "鸥": 5564,
      "鸦": 5565,
      "鸭": 5566,
      "鸮": 5567,
      "鸽": 5568,
      "鸿": 5569,
      "鹃": 5570,
      "鹅": 5571,
      "鹏": 5572,
      "鹘": 5573,
      "鹤": 5574,
      "鹰": 5575,
      "鹹": 5576,
      "鹽": 5577,
      "鹿": 5578,
      "麋": 5579,
      "麒": 5580,
      "麓": 5581,
      "麗": 5582,
      "麟": 5583,
      "麥": 5584,
      "麦": 5585,
      "麵": 5586,
      "麻": 5587,
      "麼": 5588,
      "麿": 5589,
      "黃": 5590,
      "黄": 5591,
      "黎": 5592,
      "黑": 5593,
      "黒": 5594,
      "黔": 5595,
      "默": 5596,
      "黙": 5597,
      "點": 5598,
      "鼇": 5599,
      "鼎": 5600,
      "鼓": 5601,
      "鼠": 5602,
      "鼻": 5603,
      "齊": 5604,
      "齋": 5605,
      "齐": 5606,
      "齡": 5607,
      "龄": 5608,
      "龍": 5609,
      "龐": 5610,
      "龑": 5611,
      "龔": 5612,
      "龙": 5613,
      "龚": 5614,
      "龜": 5615,
      "龟": 5616,
      "龢": 5617,
      "ꜜ": 5618,
      "ꭹ": 5619,
      "ꭿ": 5620,
      "ꮃ": 5621,
      "ꮄ": 5622,
      "ꮎ": 5623,
      "ꮕ": 5624,
      "ꮚ": 5625,
      "ꮜ": 5626,
      "ꮟ": 5627,
      "ꮤ": 5628,
      "ꮳ": 5629,
      "ꮷ": 5630,
      "ꮹ": 5631,
      "ꯂ": 5632,
      "ꯇ": 5633,
      "ꯛ": 5634,
      "ꯣ": 5635,
      "﨑": 5636,
      "ﬁ": 5637,
      "ﭕ": 5638,
      "ﭙ": 5639,
      "ﮈ": 5640,
      "ﮌ": 5641,
      "ﮔ": 5642,
      "ﮕ": 5643,
      "ﮨ": 5644,
      "ﮭ": 5645,
      "ﷲ": 5646,
      "ﺁ": 5647,
      "ﺍ": 5648,
      "ﺎ": 5649,
      "ﺐ": 5650,
      "ﺑ": 5651,
      "ﺒ": 5652,
      "ﺓ": 5653,
      "ﺕ": 5654,
      "ﺘ": 5655,
      "ﺝ": 5656,
      "ﺟ": 5657,
      "ﺠ": 5658,
      "ﺤ": 5659,
      "ﺩ": 5660,
      "ﺪ": 5661,
      "ﺭ": 5662,
      "ﺮ": 5663,
      "ﺱ": 5664,
      "ﺳ": 5665,
      "ﺴ": 5666,
      "ﺸ": 5667,
      "ﺻ": 5668,
      "ﺿ": 5669,
      "ﻌ": 5670,
      "ﻏ": 5671,
      "ﻐ": 5672,
      "ﻓ": 5673,
      "ﻖ": 5674,
      "ﻗ": 5675,
      "ﻛ": 5676,
      "ﻞ": 5677,
      "ﻟ": 5678,
      "ﻤ": 5679,
      "ﻥ": 5680,
      "ﻧ": 5681,
      "ﻨ": 5682,
      "ﻩ": 5683,
      "ﻫ": 5684,
      "ﻬ": 5685,
      "ﻭ": 5686,
      "ﻮ": 5687,
      "ﻲ": 5688,
      "ﻳ": 5689,
      "ﻴ": 5690,
      "！": 5691,
      "＃": 5692,
      "＆": 5693,
      "（": 5694,
      "）": 5695,
      "＋": 5696,
      "，": 5697,
      "－": 5698,
      "．": 5699,
      "／": 5700,
      "０": 5701,
      "１": 5702,
      "２": 5703,
      "３": 5704,
      "４": 5705,
      "５": 5706,
      "６": 5707,
      "７": 5708,
      "８": 5709,
      "９": 5710,
      "：": 5711,
      "；": 5712,
      "＜": 5713,
      "＝": 5714,
      "＞": 5715,
      "ａ": 5716,
      "ｃ": 5717,
      "ｄ": 5718,
      "ｅ": 5719,
      "ｆ": 5720,
      "ｇ": 5721,
      "ｉ": 5722,
      "ｋ": 5723,
      "ｎ": 5724,
      "ｏ": 5725,
      "ｐ": 5726,
      "ｑ": 5727,
      "ｒ": 5728,
      "ｓ": 5729,
      "ｔ": 5730,
      "ｖ": 5731,
      "ｘ": 5732,
      "ｚ": 5733,
      "｜": 5734,
      "～": 5735,
      "｢": 5736,
      "｣": 5737,
      "･": 5738,
      "ｺ": 5739,
      "ﾋ": 5740,
      "ﾟ": 5741,
      "￠": 5742,
      "￥": 5743,
      "𢄂": 5744,
      "##y": 5745,
      "##r": 5746,
      "##k": 5747,
      "##i": 5748,
      "##a": 5749,
      "##s": 5750,
      "##e": 5751,
      "##n": 5752,
      "##c": 5753,
      "##l": 5754,
      "##o": 5755,
      "##d": 5756,
      "##b": 5757,
      "##t": 5758,
      "##h": 5759,
      "##g": 5760,
      "##u": 5761,
      "##m": 5762,
      "##f": 5763,
      "##x": 5764,
      "##ル": 5765,
      "##フ": 5766,
      "##ス": 5767,
      "##と": 5768,
      "##z": 5769,
      "##v": 5770,
      "##j": 5771,
      "##q": 5772,
      "##p": 5773,
      "##ˈ": 5774,
      "##ɲ": 5775,
      "##а": 5776,
      "##ј": 5777,
      "##е": 5778,
      "##в": 5779,
      "##р": 5780,
      "##м": 5781,
      "##о": 5782,
      "##ш": 5783,
      "##ə": 5784,
      "##ɪ": 5785,
      "##ː": 5786,
      "##ʊ": 5787,
      "##w": 5788,
      "##л": 5789,
      "##и": 5790,
      "##у": 5791,
      "##с": 5792,
      "##н": 5793,
      "##д": 5794,
      "##ћ": 5795,
      "##9": 5796,
      "##8": 5797,
      "##ᅵ": 5798,
      "##ᄋ": 5799,
      "##ᅮ": 5800,
      "##ᆺ": 5801,
      "##ᄉ": 5802,
      "##ᅡ": 5803,
      "##ᄅ": 5804,
      "##ᆷ": 5805,
      "##0": 5806,
      "##5": 5807,
      "##2": 5808,
      "##イ": 5809,
      "##ム": 5810,
      "##т": 5811,
      "##ы": 5812,
      "##ɔ": 5813,
      "##ɨ": 5814,
      "##ɕ": 5815,
      "##ɐ": 5816,
      "##ȷ": 5817,
      "##ر": 5818,
      "##ي": 5819,
      "##ا": 5820,
      "##د": 5821,
      "##س": 5822,
      "##ت": 5823,
      "##ب": 5824,
      "##ρ": 5825,
      "##α": 5826,
      "##σ": 5827,
      "##τ": 5828,
      "##η": 5829,
      "##ι": 5830,
      "##ο": 5831,
      "##ω": 5832,
      "##ν": 5833,
      "##1": 5834,
      "##ो": 5835,
      "##ग": 5836,
      "##3": 5837,
      "##ß": 5838,
      "##ъ": 5839,
      "##ණ": 5840,
      "##ඩ": 5841,
      "##ා": 5842,
      "##ර": 5843,
      "##か": 5844,
      "##ら": 5845,
      "##ش": 5846,
      "##ن": 5847,
      "##و": 5848,
      "##ز": 5849,
      "##گ": 5850,
      "##4": 5851,
      "##6": 5852,
      "##7": 5853,
      "##ɡ": 5854,
      "##ʲ": 5855,
      "##ɛ": 5856,
      "##°": 5857,
      "##з": 5858,
      "##ч": 5859,
      "##к": 5860,
      "##б": 5861,
      "##خ": 5862,
      "##ل": 5863,
      "##ج": 5864,
      "##ʂ": 5865,
      "##ك": 5866,
      "##ˌ": 5867,
      "##ح": 5868,
      "##ャ": 5869,
      "##ी": 5870,
      "##च": 5871,
      "##ा": 5872,
      "##ー": 5873,
      "##ヘ": 5874,
      "##ラ": 5875,
      "##ל": 5876,
      "##ו": 5877,
      "##נ": 5878,
      "##י": 5879,
      "##א": 5880,
      "##г": 5881,
      "##х": 5882,
      "##ｄ": 5883,
      "##ဟ": 5884,
      "##င": 5885,
      "##း": 5886,
      "##ਕ": 5887,
      "##ਾ": 5888,
      "##ਲ": 5889,
      "##া": 5890,
      "##দ": 5891,
      "##র": 5892,
      "##ি": 5893,
      "##হ": 5894,
      "##ট": 5895,
      "##п": 5896,
      "##ц": 5897,
      "##ท": 5898,
      "##ย": 5899,
      "##เ": 5900,
      "##จ": 5901,
      "##ร": 5902,
      "##ญ": 5903,
      "##カ": 5904,
      "##ه": 5905,
      "##κ": 5906,
      "##ε": 5907,
      "##ட": 5908,
      "##ம": 5909,
      "##ப": 5910,
      "##ு": 5911,
      "##ɴ": 5912,
      "##ʐ": 5913,
      "##ᅥ": 5914,
      "##ᅣ": 5915,
      "##ᆼ": 5916,
      "##ᄀ": 5917,
      "##ᅩ": 5918,
      "##ᆯ": 5919,
      "##ᄃ": 5920,
      "##ᅪ": 5921,
      "##ᄌ": 5922,
      "##م": 5923,
      "##ʋ": 5924,
      "##ŋ": 5925,
      "##ʑ": 5926,
      "##æ": 5927,
      "##ᆫ": 5928,
      "##ᆨ": 5929,
      "##ಾ": 5930,
      "##ಗ": 5931,
      "##ಮ": 5932,
      "##ಂ": 5933,
      "##ಡ": 5934,
      "##ಲ": 5935,
      "##ف": 5936,
      "##↑": 5937,
      "##っ": 5938,
      "##ल": 5939,
      "##ی": 5940,
      "##ع": 5941,
      "##ਮ": 5942,
      "##غ": 5943,
      "##テ": 5944,
      "##ニ": 5945,
      "##ュ": 5946,
      "##ク": 5947,
      "##ン": 5948,
      "##ト": 5949,
      "##জ": 5950,
      "##ৰ": 5951,
      "##ী": 5952,
      "##レ": 5953,
      "##チ": 5954,
      "##न": 5955,
      "##ق": 5956,
      "##ł": 5957,
      "##ь": 5958,
      "##♪": 5959,
      "##♯": 5960,
      "##வ": 5961,
      "##ி": 5962,
      "##க": 5963,
      "##ய": 5964,
      "##ல": 5965,
      "##ಹ": 5966,
      "##ನ": 5967,
      "##ರ": 5968,
      "##і": 5969,
      "##я": 5970,
      "##ד": 5971,
      "##ר": 5972,
      "##ɒ": 5973,
      "##ʰ": 5974,
      "##ª": 5975,
      "##ظ": 5976,
      "##น": 5977,
      "##ธ": 5978,
      "##พ": 5979,
      "##า": 5980,
      "##ล": 5981,
      "##ค": 5982,
      "##อ": 5983,
      "##ง": 5984,
      "##ม": 5985,
      "##ذ": 5986,
      "##प": 5987,
      "##ज": 5988,
      "##®": 5989,
      "##र": 5990,
      "##थ": 5991,
      "##ɑ": 5992,
      "##ב": 5993,
      "##ط": 5994,
      "##ø": 5995,
      "##ッ": 5996,
      "##ハ": 5997,
      "##の": 5998,
      "##ש": 5999,
      "##ת": 6000,
      "##ʿ": 6001,
      "##ة": 6002,
      "##ᄆ": 6003,
      "##ळ": 6004,
      "##ᅧ": 6005,
      "##ก": 6006,
      "##แ": 6007,
      "##ʒ": 6008,
      "##る": 6009,
      "##ɾ": 6010,
      "##ড": 6011,
      "##গ": 6012,
      "##ঙ": 6013,
      "##ζ": 6014,
      "##ς": 6015,
      "##ヒ": 6016,
      "##オ": 6017,
      "##へ": 6018,
      "##き": 6019,
      "##ษ": 6020,
      "##ภ": 6021,
      "##ณ": 6022,
      "##ா": 6023,
      "##ே": 6024,
      "##ர": 6025,
      "##প": 6026,
      "##タ": 6027,
      "##ส": 6028,
      "##ศ": 6029,
      "##ด": 6030,
      "##щ": 6031,
      "##ও": 6032,
      "##ক": 6033,
      "##ত": 6034,
      "##ミ": 6035,
      "##ᅢ": 6036,
      "##ᄍ": 6037,
      "##ᄒ": 6038,
      "##ण": 6039,
      "##چ": 6040,
      "##ᄎ": 6041,
      "##လ": 6042,
      "##ေ": 6043,
      "##ာ": 6044,
      "##ဘ": 6045,
      "##ရ": 6046,
      "##ద": 6047,
      "##ర": 6048,
      "##ం": 6049,
      "##γ": 6050,
      "##λ": 6051,
      "##ж": 6052,
      "##ю": 6053,
      "##э": 6054,
      "##ץ": 6055,
      "##ф": 6056,
      "##ネ": 6057,
      "##キ": 6058,
      "##リ": 6059,
      "##চ": 6060,
      "##য": 6061,
      "##ե": 6062,
      "##ն": 6063,
      "##ր": 6064,
      "##ի": 6065,
      "##ք": 6066,
      "##ɣ": 6067,
      "##ʃ": 6068,
      "##ʻ": 6069,
      "##ð": 6070,
      "##し": 6071,
      "##व": 6072,
      "##ন": 6073,
      "##ঝ": 6074,
      "##ল": 6075,
      "##メ": 6076,
      "##ウ": 6077,
      "##ィ": 6078,
      "##シ": 6079,
      "##ョ": 6080,
      "##ォ": 6081,
      "##പ": 6082,
      "##േ": 6083,
      "##ാ": 6084,
      "##ള": 6085,
      "##ि": 6086,
      "##श": 6087,
      "##क": 6088,
      "##ᄐ": 6089,
      "##×": 6090,
      "##ʼ": 6091,
      "##を": 6092,
      "##ে": 6093,
      "##ナ": 6094,
      "##જ": 6095,
      "##ન": 6096,
      "##દ": 6097,
      "##ર": 6098,
      "##མ": 6099,
      "##ས": 6100,
      "##ெ": 6101,
      "##ᅦ": 6102,
      "##ச": 6103,
      "##υ": 6104,
      "##δ": 6105,
      "##ξ": 6106,
      "##ᅰ": 6107,
      "##コ": 6108,
      "##ホ": 6109,
      "##ı": 6110,
      "##כ": 6111,
      "##さ": 6112,
      "##ゆ": 6113,
      "##め": 6114,
      "##み": 6115,
      "##ص": 6116,
      "##ట": 6117,
      "##ব": 6118,
      "##π": 6119,
      "##ـ": 6120,
      "##ワ": 6121,
      "##お": 6122,
      "##ろ": 6123,
      "##म": 6124,
      "##ख": 6125,
      "##ס": 6126,
      "##ফ": 6127,
      "##پ": 6128,
      "##ഗ": 6129,
      "##ത": 6130,
      "##ന": 6131,
      "##ਬ": 6132,
      "##ਸ": 6133,
      "##ਰ": 6134,
      "##ਤ": 6135,
      "##మ": 6136,
      "##హ": 6137,
      "##ు": 6138,
      "##క": 6139,
      "##ృ": 6140,
      "##ష": 6141,
      "##ణ": 6142,
      "##ट": 6143,
      "##ല": 6144,
      "##ം": 6145,
      "##ア": 6146,
      "##モ": 6147,
      "##շ": 6148,
      "##ա": 6149,
      "##կ": 6150,
      "##え": 6151,
      "##ひ": 6152,
      "##ᅳ": 6153,
      "##ᄂ": 6154,
      "##な": 6155,
      "##そ": 6156,
      "##ふ": 6157,
      "##త": 6158,
      "##ᅲ": 6159,
      "##भ": 6160,
      "##ま": 6161,
      "##エ": 6162,
      "##ک": 6163,
      "##ロ": 6164,
      "##ں": 6165,
      "##ಳ": 6166,
      "##ಪ": 6167,
      "##ಜ": 6168,
      "##ァ": 6169,
      "##ү": 6170,
      "##μ": 6171,
      "##ھ": 6172,
      "##ह": 6173,
      "##ᅭ": 6174,
      "##ತ": 6175,
      "##ು": 6176,
      "##గ": 6177,
      "##డ": 6178,
      "##θ": 6179,
      "##¼": 6180,
      "##は": 6181,
      "##い": 6182,
      "##న": 6183,
      "##చ": 6184,
      "##య": 6185,
      "##њ": 6186,
      "##բ": 6187,
      "##ռ": 6188,
      "##գ": 6189,
      "##տ": 6190,
      "##ո": 6191,
      "##ւ": 6192,
      "##թ": 6193,
      "##ន": 6194,
      "##ା": 6195,
      "##ର": 6196,
      "##େ": 6197,
      "##հ": 6198,
      "##ん": 6199,
      "##こ": 6200,
      "##た": 6201,
      "##け": 6202,
      "##त": 6203,
      "##サ": 6204,
      "##յ": 6205,
      "##හ": 6206,
      "##ව": 6207,
      "##ැ": 6208,
      "##ල": 6209,
      "##て": 6210,
      "##ป": 6211,
      "##ะ": 6212,
      "##ำ": 6213,
      "##ห": 6214,
      "##ว": 6215,
      "##ต": 6216,
      "##ถ": 6217,
      "##ఖ": 6218,
      "##ြ": 6219,
      "##တ": 6220,
      "##က": 6221,
      "##ʔ": 6222,
      "##ක": 6223,
      "##ට": 6224,
      "##ち": 6225,
      "##せ": 6226,
      "##ड": 6227,
      "##ા": 6228,
      "##ક": 6229,
      "##ો": 6230,
      "##द": 6231,
      "##फ": 6232,
      "##ɟ": 6233,
      "##ਪ": 6234,
      "##ੀ": 6235,
      "##լ": 6236,
      "##վ": 6237,
      "##ɫ": 6238,
      "##ˑ": 6239,
      "##य": 6240,
      "##വ": 6241,
      "##ി": 6242,
      "##ט": 6243,
      "##ौ": 6244,
      "##ల": 6245,
      "##φ": 6246,
      "##ম": 6247,
      "##ప": 6248,
      "##ה": 6249,
      "##ょ": 6250,
      "##వ": 6251,
      "##ᄁ": 6252,
      "##ᆶ": 6253,
      "##³": 6254,
      "##œ": 6255,
      "##ಯ": 6256,
      "##ದ": 6257,
      "##జ": 6258,
      "##ᆸ": 6259,
      "##ʁ": 6260,
      "##ہ": 6261,
      "##ض": 6262,
      "##ᄇ": 6263,
      "##ソ": 6264,
      "##ェ": 6265,
      "##ս": 6266,
      "##த": 6267,
      "##™": 6268,
      "##ა": 6269,
      "##რ": 6270,
      "##ც": 6271,
      "##ვ": 6272,
      "##ნ": 6273,
      "##ი": 6274,
      "##ਦ": 6275,
      "##ק": 6276,
      "##න": 6277,
      "##ද": 6278,
      "##ほ": 6279,
      "##ʏ": 6280,
      "##ళ": 6281,
      "##บ": 6282,
      "##ʕ": 6283,
      "##ӕ": 6284,
      "##ᅴ": 6285,
      "##स": 6286,
      "##ᅯ": 6287,
      "##শ": 6288,
      "##ಕ": 6289,
      "##マ": 6290,
      "##դ": 6291,
      "##ｚ": 6292,
      "##ヤ": 6293,
      "##χ": 6294,
      "##ষ": 6295,
      "##উ": 6296,
      "##β": 6297,
      "##ʎ": 6298,
      "##ғ": 6299,
      "##ˀ": 6300,
      "##れ": 6301,
      "##ဉ": 6302,
      "##ျ": 6303,
      "##မ": 6304,
      "##３": 6305,
      "##đ": 6306,
      "##ട": 6307,
      "##ബ": 6308,
      "##ക": 6309,
      "##စ": 6310,
      "##န": 6311,
      "##ข": 6312,
      "##ᅱ": 6313,
      "##ゅ": 6314,
      "##ツ": 6315,
      "##ケ": 6316,
      "##ং": 6317,
      "##ᅬ": 6318,
      "##ז": 6319,
      "##ן": 6320,
      "##ղ": 6321,
      "##ன": 6322,
      "##ם": 6323,
      "##დ": 6324,
      "##ს": 6325,
      "##ɜ": 6326,
      "##մ": 6327,
      "##օ": 6328,
      "##ই": 6329,
      "##ɦ": 6330,
      "##ழ": 6331,
      "##ை": 6332,
      "##ය": 6333,
      "##ං": 6334,
      "##ਹ": 6335,
      "##ਿ": 6336,
      "##ไ": 6337,
      "##や": 6338,
      "##つ": 6339,
      "##り": 6340,
      "##െ": 6341,
      "##ര": 6342,
      "##ൽ": 6343,
      "##ゃ": 6344,
      "##ণ": 6345,
      "##あ": 6346,
      "##ಣ": 6347,
      "##વ": 6348,
      "##ഹ": 6349,
      "##മ": 6350,
      "##ദ": 6351,
      "##ى": 6352,
      "##স": 6353,
      "##ח": 6354,
      "##く": 6355,
      "##ฟ": 6356,
      "##ە": 6357,
      "##ஜ": 6358,
      "##ね": 6359,
      "##½": 6360,
      "##љ": 6361,
      "##ɵ": 6362,
      "##す": 6363,
      "##ʌ": 6364,
      "##খ": 6365,
      "##ಷ": 6366,
      "##＞": 6367,
      "##থ": 6368,
      "##ண": 6369,
      "##ɯ": 6370,
      "##ᡠ": 6371,
      "##ᡵ": 6372,
      "##ᡤ": 6373,
      "##ᠠ": 6374,
      "##ᠴ": 6375,
      "##ᡳ": 6376,
      "##ಧ": 6377,
      "##ೃ": 6378,
      "##ұ": 6379,
      "##қ": 6380,
      "##ೕ": 6381,
      "##ೂ": 6382,
      "##ಟ": 6383,
      "##よ": 6384,
      "##☆": 6385,
      "##ອ": 6386,
      "##ງ": 6387,
      "##ສ": 6388,
      "##も": 6389,
      "##ৱ": 6390,
      "##ג": 6391,
      "##ष": 6392,
      "##ត": 6393,
      "##ប": 6394,
      "##ទ": 6395,
      "##ម": 6396,
      "##ђ": 6397,
      "##ಬ": 6398,
      "##う": 6399,
      "##ഷ": 6400,
      "##ײ": 6401,
      "##ᄑ": 6402,
      "##ब": 6403,
      "##ე": 6404,
      "##ტ": 6405,
      "##џ": 6406,
      "##ജ": 6407,
      "##º": 6408,
      "##उ": 6409,
      "##ħ": 6410,
      "##ˤ": 6411,
      "##ई": 6412,
      "##ყ": 6413,
      "##ლ": 6414,
      "##ధ": 6415,
      "##శ": 6416,
      "##ঠ": 6417,
      "##స": 6418,
      "##ช": 6419,
      "##ฐ": 6420,
      "##ਆ": 6421,
      "##യ": 6422,
      "##ନ": 6423,
      "##ଗ": 6424,
      "##ୀ": 6425,
      "##ந": 6426,
      "##ধ": 6427,
      "##´": 6428,
      "##ગ": 6429,
      "##ત": 6430,
      "##ವ": 6431,
      "##ပ": 6432,
      "##ထ": 6433,
      "##є": 6434,
      "##ঞ": 6435,
      "##ᅨ": 6436,
      "##ঘ": 6437,
      "##ಶ": 6438,
      "##ॉ": 6439,
      "##ɬ": 6440,
      "##ച": 6441,
      "##セ": 6442,
      "##ⲉ": 6443,
      "##ⲙ": 6444,
      "##ע": 6445,
      "##ʉ": 6446,
      "##ꯣ": 6447,
      "##ꯛ": 6448,
      "##ꯇ": 6449,
      "##ළ": 6450,
      "##ම": 6451,
      "##ည": 6452,
      "##သ": 6453,
      "##わ": 6454,
      "##ﬁ": 6455,
      "##ఞ": 6456,
      "##ూ": 6457,
      "##ث": 6458,
      "##ञ": 6459,
      "##బ": 6460,
      "##€": 6461,
      "##∞": 6462,
      "##ⲏ": 6463,
      "##ⲑ": 6464,
      "##ⲟ": 6465,
      "##ⲩ": 6466,
      "##ⲁ": 6467,
      "##ⲃ": 6468,
      "##ढ": 6469,
      "##ך": 6470,
      "##ஷ": 6471,
      "##מ": 6472,
      "##ஸ": 6473,
      "##צ": 6474,
      "##ལ": 6475,
      "##ང": 6476,
      "##ᇁ": 6477,
      "##ო": 6478,
      "##ஞ": 6479,
      "##ூ": 6480,
      "##უ": 6481,
      "##ซ": 6482,
      "##ܐ": 6483,
      "##ܪ": 6484,
      "##ܬ": 6485,
      "##ɖ": 6486,
      "##ᡴ": 6487,
      "##ᠨ": 6488,
      "##ﻤ": 6489,
      "##ﭙ": 6490,
      "##ﺮ": 6491,
      "##ﺱ": 6492,
      "##ꜜ": 6493,
      "##פ": 6494,
      "##⑧": 6495,
      "##བ": 6496,
      "##କ": 6497,
      "##ध": 6498,
      "##შ": 6499,
      "##ბ": 6500,
      "##ぃ": 6501,
      "##ˠ": 6502,
      "##ಥ": 6503,
      "##に": 6504,
      "##ஹ": 6505,
      "##ள": 6506,
      "##ീ": 6507,
      "##ங": 6508,
      "##²": 6509,
      "##ൻ": 6510,
      "##ശ": 6511,
      "##ಸ": 6512,
      "##ෑ": 6513,
      "##ခ": 6514,
      "##მ": 6515,
      "##ា": 6516,
      "##ក": 6517,
      "##ល": 6518,
      "##វ": 6519,
      "##យ": 6520,
      "##ស": 6521,
      "##រ": 6522,
      "##ខ": 6523,
      "##ភ": 6524,
      "##ङ": 6525,
      "##ٹ": 6526,
      "##इ": 6527,
      "##ਡ": 6528,
      "##ヨ": 6529,
      "##ਨ": 6530,
      "##ڈ": 6531,
      "##¢": 6532,
      "##～": 6533,
      "##ჯ": 6534,
      "##ძ": 6535,
      "##ө": 6536,
      "##ژ": 6537,
      "##ฮ": 6538,
      "##−": 6539,
      "##ʝ": 6540,
      "##ත": 6541,
      "##ධ": 6542,
      "##ണ": 6543,
      "##★": 6544,
      "##ថ": 6545,
      "##ច": 6546,
      "##េ": 6547,
      "##ព": 6548,
      "##ជ": 6549,
      "##ց": 6550,
      "##ဋ": 6551,
      "##ဌ": 6552,
      "##ဝ": 6553,
      "##◆": 6554,
      "##⁄": 6555,
      "##ә": 6556,
      "##റ": 6557,
      "##ے": 6558,
      "##ღ": 6559,
      "##©": 6560,
      "##झ": 6561,
      "##გ": 6562,
      "##ௗ": 6563,
      "##ʷ": 6564,
      "##ʈ": 6565,
      "##ደ": 6566,
      "##ስ": 6567,
      "##ሰ": 6568,
      "##ⲓ": 6569,
      "##ⲣ": 6570,
      "##ⲱ": 6571,
      "##ග": 6572,
      "##ଉ": 6573,
      "##ତ": 6574,
      "##ୟ": 6575,
      "##თ": 6576,
      "##۸": 6577,
      "##۵": 6578,
      "##ノ": 6579,
      "##ێ": 6580,
      "##ଷ": 6581,
      "##٠": 6582,
      "##ങ": 6583,
      "##ഴ": 6584,
      "##ฎ": 6585,
      "##ਗ": 6586,
      "##む": 6587,
      "##ད": 6588,
      "##ৗ": 6589,
      "##ᠢ": 6590,
      "##ᠪ": 6591,
      "##ᠶ": 6592,
      "##ᠷ": 6593,
      "##ɸ": 6594,
      "##ጀ": 6595,
      "##ን": 6596,
      "##ಚ": 6597,
      "##ﻨ": 6598,
      "##ﻌ": 6599,
      "##ﺘ": 6600,
      "##ﻲ": 6601,
      "##ﺍ": 6602,
      "##ﻳ": 6603,
      "##ﻥ": 6604,
      "##အ": 6605,
      "##គ": 6606,
      "##ណ": 6607,
      "##ឌ": 6608,
      "##ฑ": 6609,
      "##ස": 6610,
      "##බ": 6611,
      "##ฒ": 6612,
      "##⁶": 6613,
      "##ң": 6614,
      "##ぬ": 6615,
      "##է": 6616,
      "##ൾ": 6617,
      "##ܡ": 6618,
      "##ܝ": 6619,
      "##և": 6620,
      "##ජ": 6621,
      "##छ": 6622,
      "##ധ": 6623,
      "##ㇰ": 6624,
      "##ᄏ": 6625,
      "##ভ": 6626,
      "##ヌ": 6627,
      "##ᆹ": 6628,
      "##ਣ": 6629,
      "##ᖏ": 6630,
      "##ᕐ": 6631,
      "##ᓱ": 6632,
      "##ᐊ": 6633,
      "##ᓗ": 6634,
      "##ᔾ": 6635,
      "##ᔪ": 6636,
      "##ᖅ": 6637,
      "##ۋ": 6638,
      "##փ": 6639,
      "##ʾ": 6640,
      "##⅔": 6641,
      "##ෙ": 6642,
      "##ഞ": 6643,
      "##խ": 6644,
      "##ވ": 6645,
      "##ރ": 6646,
      "##ಞ": 6647,
      "##ප": 6648,
      "##લ": 6649,
      "##પ": 6650,
      "##મ": 6651,
      "##ඨ": 6652,
      "##භ": 6653,
      "##ਟ": 6654,
      "##ء": 6655,
      "##ჩ": 6656,
      "##ળ": 6657,
      "##ય": 6658,
      "##ଡ": 6659,
      "##ଶ": 6660,
      "##〇": 6661,
      "##ታ": 6662,
      "##ቸ": 6663,
      "##ው": 6664,
      "##ڌ": 6665,
      "##ཀ": 6666,
      "##ង": 6667,
      "##โ": 6668,
      "##ʧ": 6669,
      "##ʹ": 6670,
      "##ና": 6671,
      "##ት": 6672,
      "##→": 6673,
      "##۳": 6674,
      "##۲": 6675,
      "##ർ": 6676,
      "##ҵ": 6677,
      "##ఠ": 6678,
      "##ဖ": 6679,
      "##˧": 6680,
      "##˩": 6681,
      "##ⅱ": 6682,
      "##ሊ": 6683,
      "##ڠ": 6684,
      "##ୗ": 6685,
      "##ଦ": 6686,
      "##ற": 6687,
      "##థ": 6688,
      "##ʱ": 6689,
      "##ﻭ": 6690,
      "##ﻩ": 6691,
      "##զ": 6692,
      "##ฤ": 6693,
      "##ґ": 6694,
      "##ཏ": 6695,
      "##ག": 6696,
      "##ʀ": 6697,
      "##ゥ": 6698,
      "##ፍ": 6699,
      "##ያ": 6700,
      "##າ": 6701,
      "##ວ": 6702,
      "##ເ": 6703,
      "##ດ": 6704,
      "##ນ": 6705,
      "##ກ": 6706,
      "##ฬ": 6707,
      "##ᓪ": 6708,
      "##ᕈ": 6709,
      "##ᑎ": 6710,
      "##ᐅ": 6711,
      "##ᑉ": 6712,
      "##ユ": 6713,
      "##ⁿ": 6714,
      "##ဗ": 6715,
      "##ဒ": 6716,
      "##ဓ": 6717,
      "##ठ": 6718,
      "##¥": 6719,
      "##պ": 6720,
      "##ը": 6721,
      "##ხ": 6722,
      "##ぇ": 6723,
      "##އ": 6724,
      "##މ": 6725,
      "##സ": 6726,
      "##ɹ": 6727,
      "##ਜ": 6728,
      "##ሞ": 6729,
      "##ክ": 6730,
      "##ራ": 6731,
      "##ሲ": 6732,
      "##ମ": 6733,
      "##ջ": 6734,
      "##ﺪ": 6735,
      "##ﻗ": 6736,
      "##ﺎ": 6737,
      "##ﺕ": 6738,
      "##ဇ": 6739,
      "##ҭ": 6740,
      "##ծ": 6741,
      "##¹": 6742,
      "##এ": 6743,
      "##ｉ": 6744,
      "##ପ": 6745,
      "##ዊ": 6746,
      "##ڙ": 6747,
      "##ဏ": 6748,
      "##ဠ": 6749,
      "##⅓": 6750,
      "##♣": 6751,
      "##ൗ": 6752,
      "##ᕆ": 6753,
      "##ᖓ": 6754,
      "##ಘ": 6755,
      "##ៀ": 6756,
      "##♥": 6757,
      "##ഭ": 6758,
      "##ձ": 6759,
      "##ᄊ": 6760,
      "##ٽ": 6761,
      "##ೖ": 6762,
      "##ಫ": 6763,
      "##ｓ": 6764,
      "##ｐ": 6765,
      "##ａ": 6766,
      "##ｒ": 6767,
      "##ｔ": 6768,
      "##２": 6769,
      "##ผ": 6770,
      "##ⲇ": 6771,
      "##ⲝ": 6772,
      "##ⲥ": 6773,
      "##ᅫ": 6774,
      "##ᆭ": 6775,
      "##ʦ": 6776,
      "##ৈ": 6777,
      "##ɥ": 6778,
      "##ᇀ": 6779,
      "##ｘ": 6780,
      "##ڍ": 6781,
      "##ါ": 6782,
      "##ㄠ": 6783,
      "##ˋ": 6784,
      "##ए": 6785,
      "##ഥ": 6786,
      "##འ": 6787,
      "##ଲ": 6788,
      "##ଜ": 6789,
      "##ზ": 6790,
      "##ਈ": 6791,
      "##ਵ": 6792,
      "##კ": 6793,
      "##ʥ": 6794,
      "##ɽ": 6795,
      "##װ": 6796,
      "##ӏ": 6797,
      "##ᶞ": 6798,
      "##０": 6799,
      "##ছ": 6800,
      "##બ": 6801,
      "##ਖ": 6802,
      "##ꮃ": 6803,
      "##ꭹ": 6804,
      "##ｖ": 6805,
      "##ﻟ": 6806,
      "##ﻐ": 6807,
      "##ﺭ": 6808,
      "##ﺓ": 6809,
      "##ქ": 6810,
      "##ܟ": 6811,
      "##ܠ": 6812,
      "##સ": 6813,
      "##થ": 6814,
      "##ҳ": 6815,
      "##ඟ": 6816,
      "##ଏ": 6817,
      "##ഫ": 6818,
      "##ഡ": 6819,
      "##ฯ": 6820,
      "##អ": 6821,
      "##ډ": 6822,
      "##अ": 6823,
      "##ఘ": 6824,
      "##٤": 6825,
      "##þ": 6826,
      "##ଚ": 6827,
      "##ଳ": 6828,
      "##ବ": 6829,
      "##ହ": 6830,
      "##ಭ": 6831,
      "##ਝ": 6832,
      "##ɳ": 6833,
      "##ཇ": 6834,
      "##１": 6835,
      "##ճ": 6836,
      "##ယ": 6837,
      "##ཚ": 6838,
      "##ψ": 6839,
      "##౦": 6840,
      "##ڏ": 6841,
      "##ڻ": 6842,
      "##ብ": 6843,
      "##ረ": 6844,
      "##ፅ": 6845,
      "##ዮ": 6846,
      "##घ": 6847,
      "##ච": 6848,
      "##ฏ": 6849,
      "##ҟ": 6850,
      "##ऊ": 6851,
      "##ɧ": 6852,
      "##ڱ": 6853,
      "##ਯ": 6854,
      "##ଂ": 6855,
      "##ඹ": 6856,
      "##─": 6857,
      "##ી": 6858,
      "##ꮹ": 6859,
      "##ꭿ": 6860,
      "##ۃ": 6861,
      "##ᓅ": 6862,
      "##ᑦ": 6863,
      "##ᐃ": 6864,
      "##ᒃ": 6865,
      "##ᓴ": 6866,
      "##չ": 6867,
      "##ན": 6868,
      "##ʍ": 6869,
      "##ៃ": 6870,
      "##ဆ": 6871,
      "##ⁱ": 6872,
      "##７": 6873,
      "##ఱ": 6874,
      "##⎯": 6875,
      "##ᆮ": 6876,
      "##₵": 6877,
      "##ሳ": 6878,
      "##ለ": 6879,
      "##ኝ": 6880,
      "##ᐳ": 6881,
      "##ᕇ": 6882,
      "##ഠ": 6883,
      "##ܒ": 6884,
      "##ܘ": 6885,
      "##♦": 6886,
      "##ः": 6887,
      "##ҷ": 6888,
      "##ᇂ": 6889,
      "##ૌ": 6890,
      "##િ": 6891,
      "##ੜ": 6892,
      "##ކ": 6893,
      "##ލ": 6894,
      "##ᆰ": 6895,
      "##ଣ": 6896,
      "##ោ": 6897,
      "##ဥ": 6898,
      "##＝": 6899,
      "##ᄄ": 6900,
      "##ᓐ": 6901,
      "##ބ": 6902,
      "##ၿ": 6903,
      "##ۇ": 6904,
      "##ფ": 6905,
      "##ܦ": 6906,
      "##ડ": 6907,
      "##ቱ": 6908,
      "##ើ": 6909,
      "##ᑕ": 6910,
      "##ඳ": 6911,
      "##൪": 6912,
      "##ར": 6913,
      "##ଟ": 6914,
      "##ဂ": 6915,
      "##ৎ": 6916,
      "##ҹ": 6917,
      "##ଫ": 6918,
      "##ގ": 6919,
      "##ይ": 6920,
      "##ማ": 6921,
      "##ሪ": 6922,
      "##ም": 6923,
      "##˚": 6924,
      "##ਫ": 6925,
      "##ਥ": 6926,
      "##ཛ": 6927,
      "##∀": 6928,
      "##ር": 6929,
      "##భ": 6930,
      "##□": 6931,
      "##ѣ": 6932,
      "##ൈ": 6933,
      "##ટ": 6934,
      "##ଢ": 6935,
      "##ଙ": 6936,
      "##ഖ": 6937,
      "##શ": 6938,
      "##ҧ": 6939,
      "##∏": 6940,
      "##ڑ": 6941,
      "##±": 6942,
      "##የ": 6943,
      "##ຳ": 6944,
      "##ມ": 6945,
      "##ະ": 6946,
      "##ଥ": 6947,
      "##ឡ": 6948,
      "##ހ": 6949,
      "##ދ": 6950,
      "##£": 6951,
      "##ǀ": 6952,
      "##ֆ": 6953,
      "##ભ": 6954,
      "##ઈ": 6955,
      "##ል": 6956,
      "##ኤ": 6957,
      "##ٱ": 6958,
      "##ᠯ": 6959,
      "##ଆ": 6960,
      "##೦": 6961,
      "##¨": 6962,
      "##ཟ": 6963,
      "##፻": 6964,
      "##ែ": 6965,
      "##ᖀ": 6966,
      "##ᔩ": 6967,
      "##ጊ": 6968,
      "##ۆ": 6969,
      "##ܢ": 6970,
      "##ใ": 6971,
      "##۱": 6972,
      "##ᆾ": 6973,
      "##ᠭ": 6974,
      "##ᠤ": 6975,
      "##⋅": 6976,
      "##ﻬ": 6977,
      "##ຊ": 6978,
      "##ຍ": 6979,
      "##۷": 6980,
      "##ኢ": 6981,
      "##ሱ": 6982,
      "##ገ": 6983,
      "##ǂ": 6984,
      "##һ": 6985,
      "##ҡ": 6986,
      "##ނ": 6987,
      "##ɤ": 6988,
      "##ཙ": 6989,
      "##ڵ": 6990,
      "##ړ": 6991,
      "##ˊ": 6992,
      "##９": 6993,
      "##ግ": 6994,
      "##ላ": 6995,
      "##ች": 6996,
      "##♭": 6997,
      "##ҙ": 6998,
      "##٧": 6999,
      "##ଧ": 7000,
      "##ಖ": 7001,
      "##ශ": 7002,
      "##⁴": 7003,
      "##ቡ": 7004,
      "##ሻ": 7005,
      "##ｋ": 7006,
      "##आ": 7007,
      "##ɓ": 7008,
      "##წ": 7009,
      "##ድ": 7010,
      "##ሣ": 7011,
      "##ⵉ": 7012,
      "##ⵛ": 7013,
      "##ⴽ": 7014,
      "##ⴰ": 7015,
      "##ސ": 7016,
      "##ޓ": 7017,
      "##ঃ": 7018,
      "##ɝ": 7019,
      "##ፈ": 7020,
      "##ሄ": 7021,
      "##ሴ": 7022,
      "##ฉ": 7023,
      "##ⲡ": 7024,
      "##ⲛ": 7025,
      "##ຫ": 7026,
      "##ڤ": 7027,
      "##ܚ": 7028,
      "##ᡧ": 7029,
      "##ᄈ": 7030,
      "##ਠ": 7031,
      "##ᠥ": 7032,
      "##ᠰ": 7033,
      "##ᠦ": 7034,
      "##ף": 7035,
      "##ዩ": 7036,
      "##ಠ": 7037,
      "##ធ": 7038,
      "##♙": 7039,
      "##ݣ": 7040,
      "##ણ": 7041,
      "##ｅ": 7042,
      "##ཁ": 7043,
      "##ɰ": 7044,
      "##ដ": 7045,
      "##ዝ": 7046,
      "##●": 7047,
      "##હ": 7048,
      "##ﮭ": 7049,
      "##ﻴ": 7050,
      "##ﻞ": 7051,
      "##ﺤ": 7052,
      "##ﺩ": 7053,
      "##ڪ": 7054,
      "##ې": 7055,
      "##ښ": 7056,
      "##ધ": 7057,
      "##ዲ": 7058,
      "##ヶ": 7059,
      "##ｆ": 7060,
      "##ޙ": 7061,
      "##¾": 7062,
      "##ϕ": 7063,
      "##⁵": 7064,
      "##ဈ": 7065,
      "##ລ": 7066,
      "##ɻ": 7067,
      "##ﷲ": 7068,
      "##ጋ": 7069,
      "##６": 7070,
      "##ۏ": 7071,
      "##ڭ": 7072,
      "##ｃ": 7073,
      "##ｏ": 7074,
      "##ખ": 7075,
      "##ບ": 7076,
      "##㎡": 7077,
      "##ｑ": 7078,
      "##ସ": 7079,
      "##ᕋ": 7080,
      "##ᓂ": 7081,
      "##○": 7082,
      "##ঢ": 7083,
      "##ൺ": 7084,
      "##ଯ": 7085,
      "##ޖ": 7086,
      "##ఫ": 7087,
      "##ኋ": 7088,
      "##ڀ": 7089,
      "##ຢ": 7090,
      "##ঈ": 7091,
      "##ዎ": 7092,
      "##ሮ": 7093,
      "##ɭ": 7094,
      "##ሸ": 7095,
      "##አ": 7096,
      "##ਏ": 7097,
      "##ଅ": 7098,
      "##আ": 7099,
      "##♂": 7100,
      "##ቅ": 7101,
      "##ሩ": 7102,
      "##ܣ": 7103,
      "##ባ": 7104,
      "##ˮ": 7105,
      "##པ": 7106,
      "##ଇ": 7107,
      "##ǃ": 7108,
      "##ሓ": 7109,
      "##♀": 7110,
      "##ڛ": 7111,
      "##ګ": 7112,
      "##ଠ": 7113,
      "##ⲅ": 7114,
      "##ញ": 7115,
      "##ᑐ": 7116,
      "##ᔨ": 7117,
      "##ᖃ": 7118,
      "##ᒌ": 7119,
      "##ゝ": 7120,
      "##ሜ": 7121,
      "##ហ": 7122,
      "##ڨ": 7123,
      "##ۍ": 7124,
      "##ଭ": 7125,
      "##ﮌ": 7126,
      "##ㄨ": 7127,
      "##ㄛ": 7128,
      "##ᆻ": 7129,
      "##ᠡ": 7130,
      "##ᠩ": 7131,
      "##♠": 7132,
      "##ጉ": 7133,
      "##ຄ": 7134,
      "##ﺁ": 7135,
      "##ﻧ": 7136,
      "##ﺑ": 7137,
      "##˨": 7138,
      "##˥": 7139,
      "##∃": 7140,
      "##ᠺ": 7141,
      "##ᕙ": 7142,
      "##ஃ": 7143,
      "##პ": 7144,
      "##ⅳ": 7145,
      "##ਛ": 7146,
      "##ᓄ": 7147,
      "##ਧ": 7148,
      "##ᆽ": 7149,
      "##ฝ": 7150,
      "##ゑ": 7151,
      "##ወ": 7152,
      "##ቀ": 7153,
      "##ሆ": 7154,
      "##ޔ": 7155,
      "##ҥ": 7156,
      "##ఙ": 7157,
      "##￠": 7158,
      "##ޅ": 7159,
      "##ފ": 7160,
      "##ኪ": 7161,
      "##ፕ": 7162,
      "##ህ": 7163,
      "##ઠ": 7164,
      "##ቂ": 7165,
      "##ᐋ": 7166,
      "##ጌ": 7167,
      "##ۈ": 7168,
      "##ෂ": 7169,
      "##ୱ": 7170,
      "##ឋ": 7171,
      "##ﮈ": 7172,
      "##ﺳ": 7173,
      "##ଞ": 7174,
      "##ෟ": 7175,
      "##˙": 7176,
      "##ሁ": 7177,
      "##ฆ": 7178,
      "##ᓇ": 7179,
      "##ᕗ": 7180,
      "##ᒥ": 7181,
      "##ኸ": 7182,
      "##ⲕ": 7183,
      "##ଝ": 7184,
      "##８": 7185,
      "##ꮄ": 7186,
      "##ꮜ": 7187,
      "##ꮕ": 7188,
      "##ໄ": 7189,
      "##ຕ": 7190,
      "##ኩ": 7191,
      "##٦": 7192,
      "##ჟ": 7193,
      "##ɘ": 7194,
      "##በ": 7195,
      "##ᠣ": 7196,
      "##㈜": 7197,
      "##ڊ": 7198,
      "##ඞ": 7199,
      "##ᐸ": 7200,
      "##ሾ": 7201,
      "##መ": 7202,
      "##ཕ": 7203,
      "##ཉ": 7204,
      "##ஏ": 7205,
      "##µ": 7206,
      "##ឿ": 7207,
      "##ៅ": 7208,
      "##ɚ": 7209,
      "##ཡ": 7210,
      "##ܕ": 7211,
      "##ሠ": 7212,
      "##ଘ": 7213,
      "##ᴇ": 7214,
      "##ﺠ": 7215,
      "##ﺐ": 7216,
      "##ﻮ": 7217,
      "##ષ": 7218,
      "##ຽ": 7219,
      "##৯": 7220,
      "##০": 7221,
      "##ƶ": 7222,
      "##ᓕ": 7223,
      "##ތ": 7224,
      "##ժ": 7225,
      "##ႏ": 7226,
      "##ຮ": 7227,
      "##ះ": 7228,
      "##ቴ": 7229,
      "##ﺴ": 7230,
      "##ථ": 7231,
      "##ઇ": 7232,
      "##ⅴ": 7233,
      "##ϯ": 7234,
      "##ﺝ": 7235,
      "##∙": 7236,
      "##ჰ": 7237,
      "##ﺸ": 7238,
      "##ﻖ": 7239,
      "##ټ": 7240,
      "##ઢ": 7241,
      "##ڇ": 7242,
      "##ተ": 7243,
      "##ᑫ": 7244,
      "##ᐧ": 7245,
      "##ᐣ": 7246,
      "##ʤ": 7247,
      "##ཆ": 7248,
      "##ヲ": 7249,
      "##ओ": 7250,
      "##ພ": 7251,
      "##≤": 7252,
      "##১": 7253,
      "##৩": 7254,
      "##ˢ": 7255,
      "##ഐ": 7256,
      "##څ": 7257,
      "##ڢ": 7258,
      "##ڶ": 7259,
      "##ሃ": 7260,
      "##５": 7261,
      "##ﾟ": 7262,
      "##ｺ": 7263,
      "##ᡥ": 7264,
      "##ᡝ": 7265,
      "##ᓲ": 7266,
      "##ഛ": 7267,
      "##ԥ": 7268,
      "##ቶ": 7269,
      "##ⲭ": 7270,
      "##೯": 7271,
      "##ಎ": 7272,
      "##ჭ": 7273,
      "##÷": 7274,
      "##ᡡ": 7275,
      "##ᠸ": 7276,
      "##ሕ": 7277,
      "##ﮕ": 7278,
      "##ﺒ": 7279,
      "##ꮎ": 7280,
      "##ꮟ": 7281,
      "##ޝ": 7282,
      "##ኮ": 7283,
      "##ぁ": 7284,
      "##ⲧ": 7285,
      "##ޒ": 7286,
      "##ዕ": 7287,
      "##ˇ": 7288,
      "##㋮": 7289,
      "##ҕ": 7290,
      "##①": 7291,
      "##ሀ": 7292,
      "##ሙ": 7293,
      "##৭": 7294,
      "##২": 7295,
      "##ゐ": 7296,
      "##ʣ": 7297,
      "##٢": 7298,
      "##٩": 7299,
      "##ሬ": 7300,
      "##ሚ": 7301,
      "##ካ": 7302,
      "##ᑭ": 7303,
      "##ᕝ": 7304,
      "##ᕕ": 7305,
      "##ጵ": 7306,
      "##₤": 7307,
      "##ඝ": 7308,
      "##ኒ": 7309,
      "##ቨ": 7310,
      "##ቲ": 7311,
      "##ﻫ": 7312,
      "##ሉ": 7313,
      "##ᡣ": 7314,
      "##ᡞ": 7315,
      "##ᓯ": 7316,
      "##ᓛ": 7317,
      "##＜": 7318,
      "##ڬ": 7319,
      "##ޢ": 7320,
      "##⅝": 7321,
      "##ⵣ": 7322,
      "##ⲗ": 7323,
      "##ਘ": 7324,
      "##०": 7325,
      "##℃": 7326,
      "##ｎ": 7327,
      "##ଵ": 7328,
      "##¬": 7329,
      "##ɮ": 7330,
      "##ኖ": 7331,
      "##ʸ": 7332,
      "##ነ": 7333,
      "##ਅ": 7334,
      "##ǁ": 7335,
      "##he": 7336,
      "##er": 7337,
      "the": 7338,
      "##an": 7339,
      "##in": 7340,
      "##or": 7341,
      "in": 7342,
      "##on": 7343,
      "##es": 7344,
      "##ed": 7345,
      "##ar": 7346,
      "##at": 7347,
      "##en": 7348,
      "##al": 7349,
      "##as": 7350,
      "an": 7351,
      "of": 7352,
      "##ic": 7353,
      "##is": 7354,
      "is": 7355,
      "##it": 7356,
      "and": 7357,
      "##il": 7358,
      "##ou": 7359,
      "##om": 7360,
      "##ing": 7361,
      "##el": 7362,
      "##ol": 7363,
      "##ion": 7364,
      "##re": 7365,
      "##am": 7366,
      "19": 7367,
      "was": 7368,
      "##ec": 7369,
      "it": 7370,
      "##ent": 7371,
      "##us": 7372,
      "##ro": 7373,
      "to": 7374,
      "st": 7375,
      "##ch": 7376,
      "##et": 7377,
      "##iv": 7378,
      "##ur": 7379,
      "##ist": 7380,
      "by": 7381,
      "##ad": 7382,
      "##th": 7383,
      "on": 7384,
      "al": 7385,
      "for": 7386,
      "##st": 7387,
      "##le": 7388,
      "as": 7389,
      "##ir": 7390,
      "##id": 7391,
      "##ig": 7392,
      "##ac": 7393,
      "##em": 7394,
      "##ow": 7395,
      "##ly": 7396,
      "##oun": 7397,
      "##ation": 7398,
      "##and": 7399,
      "##um": 7400,
      "20": 7401,
      "##ia": 7402,
      "##ter": 7403,
      "##ian": 7404,
      "##ay": 7405,
      "th": 7406,
      "fr": 7407,
      "##oc": 7408,
      "##ag": 7409,
      "##ers": 7410,
      "com": 7411,
      "##ies": 7412,
      "##ot": 7413,
      "ch": 7414,
      "##ul": 7415,
      "un": 7416,
      "##ut": 7417,
      "##un": 7418,
      "re": 7419,
      "##est": 7420,
      "##im": 7421,
      "he": 7422,
      "##ber": 7423,
      "##ith": 7424,
      "##ub": 7425,
      "##ce": 7426,
      "##ov": 7427,
      "at": 7428,
      "pro": 7429,
      "sp": 7430,
      "##ct": 7431,
      "with": 7432,
      "##ill": 7433,
      "##os": 7434,
      "wh": 7435,
      "pl": 7436,
      "200": 7437,
      "##op": 7438,
      "##ab": 7439,
      "##ap": 7440,
      "from": 7441,
      "##ain": 7442,
      "##ric": 7443,
      "##mer": 7444,
      "##ated": 7445,
      "ne": 7446,
      "##ip": 7447,
      "sch": 7448,
      "##orn": 7449,
      "##av": 7450,
      "##all": 7451,
      "##ak": 7452,
      "##ool": 7453,
      "##od": 7454,
      "##ud": 7455,
      "con": 7456,
      "school": 7457,
      "en": 7458,
      "##her": 7459,
      "##ount": 7460,
      "ar": 7461,
      "be": 7462,
      "##ary": 7463,
      "##ity": 7464,
      "de": 7465,
      "or": 7466,
      "##igh": 7467,
      "##ish": 7468,
      "##ate": 7469,
      "sh": 7470,
      "##art": 7471,
      "pr": 7472,
      "se": 7473,
      "##ge": 7474,
      "tr": 7475,
      "le": 7476,
      "##ant": 7477,
      "##ess": 7478,
      "##ive": 7479,
      "##ast": 7480,
      "comp": 7481,
      "dist": 7482,
      "##if": 7483,
      "##ort": 7484,
      "##ard": 7485,
      "##uc": 7486,
      "##ound": 7487,
      "fil": 7488,
      "##own": 7489,
      "##ased": 7490,
      "##ine": 7491,
      "18": 7492,
      "ser": 7493,
      "film": 7494,
      "##ous": 7495,
      "born": 7496,
      "##amil": 7497,
      "##ember": 7498,
      "##ord": 7499,
      "br": 7500,
      "##ect": 7501,
      "##ong": 7502,
      "##age": 7503,
      "##ust": 7504,
      "##ich": 7505,
      "sou": 7506,
      "alb": 7507,
      "##rict": 7508,
      "##ell": 7509,
      "##ele": 7510,
      "##so": 7511,
      "district": 7512,
      "##ubl": 7513,
      "loc": 7514,
      "col": 7515,
      "##ie": 7516,
      "##ass": 7517,
      "its": 7518,
      "count": 7519,
      "spec": 7520,
      "famil": 7521,
      "album": 7522,
      "bo": 7523,
      "##our": 7524,
      "cl": 7525,
      "gr": 7526,
      "also": 7527,
      "mar": 7528,
      "bu": 7529,
      "new": 7530,
      "are": 7531,
      "##ican": 7532,
      "amer": 7533,
      "kn": 7534,
      "##ial": 7535,
      "199": 7536,
      "##ae": 7537,
      "##ire": 7538,
      "##hed": 7539,
      "##any": 7540,
      "fir": 7541,
      "has": 7542,
      "##ue": 7543,
      "his": 7544,
      "ap": 7545,
      "buil": 7546,
      "known": 7547,
      "##ational": 7548,
      "##land": 7549,
      "##ib": 7550,
      "198": 7551,
      "rec": 7552,
      "##ame": 7553,
      "##ok": 7554,
      "##tern": 7555,
      "nor": 7556,
      "ad": 7557,
      "rele": 7558,
      "first": 7559,
      "play": 7560,
      "species": 7561,
      "family": 7562,
      "##per": 7563,
      "##og": 7564,
      "publ": 7565,
      "county": 7566,
      "##ver": 7567,
      "##ral": 7568,
      "##ical": 7569,
      "ind": 7570,
      "american": 7571,
      "wor": 7572,
      "##ited": 7573,
      "located": 7574,
      "cent": 7575,
      "201": 7576,
      "##iz": 7577,
      "##iver": 7578,
      "sc": 7579,
      "##00": 7580,
      "that": 7581,
      "##ear": 7582,
      "##ates": 7583,
      "##ra": 7584,
      "pol": 7585,
      "found": 7586,
      "##ond": 7587,
      "vill": 7588,
      "##ore": 7589,
      "##gh": 7590,
      "##ld": 7591,
      "south": 7592,
      "gen": 7593,
      "fe": 7594,
      "comm": 7595,
      "##man": 7596,
      "serv": 7597,
      "mo": 7598,
      "village": 7599,
      "she": 7600,
      "197": 7601,
      "##ack": 7602,
      "##rit": 7603,
      "##ens": 7604,
      "released": 7605,
      "who": 7606,
      "car": 7607,
      "##ang": 7608,
      "##der": 7609,
      "fl": 7610,
      "river": 7611,
      "af": 7612,
      "ex": 7613,
      "##ry": 7614,
      "##duc": 7615,
      "##res": 7616,
      "part": 7617,
      "ac": 7618,
      "##ivers": 7619,
      "##az": 7620,
      "which": 7621,
      "nov": 7622,
      "##io": 7623,
      "##ment": 7624,
      "north": 7625,
      "high": 7626,
      "eng": 7627,
      "##ey": 7628,
      "rep": 7629,
      "##wn": 7630,
      "ro": 7631,
      "##ru": 7632,
      "one": 7633,
      "inc": 7634,
      "##qu": 7635,
      "##ree": 7636,
      "mus": 7637,
      "##ace": 7638,
      "us": 7639,
      "united": 7640,
      "##ished": 7641,
      "##ight": 7642,
      "ab": 7643,
      "univers": 7644,
      "record": 7645,
      "##aw": 7646,
      "##wo": 7647,
      "##ince": 7648,
      "##ory": 7649,
      "##ug": 7650,
      "##ative": 7651,
      "reg": 7652,
      "196": 7653,
      "##ah": 7654,
      "her": 7655,
      "##end": 7656,
      "##pt": 7657,
      "##ail": 7658,
      "##irect": 7659,
      "stud": 7660,
      "des": 7661,
      "mi": 7662,
      "direct": 7663,
      "##ther": 7664,
      "##ans": 7665,
      "co": 7666,
      "company": 7667,
      "hist": 7668,
      "par": 7669,
      "##ough": 7670,
      "el": 7671,
      "##ign": 7672,
      "can": 7673,
      "##ina": 7674,
      "##ice": 7675,
      "##sh": 7676,
      "states": 7677,
      "##ock": 7678,
      "##rop": 7679,
      "194": 7680,
      "##ide": 7681,
      "##ater": 7682,
      "##ure": 7683,
      "##ional": 7684,
      "university": 7685,
      "fo": 7686,
      "##ik": 7687,
      "##ach": 7688,
      "pop": 7689,
      "##ouse": 7690,
      "app": 7691,
      "built": 7692,
      "prov": 7693,
      "sec": 7694,
      "man": 7695,
      "national": 7696,
      "##ball": 7697,
      "jo": 7698,
      "##hn": 7699,
      "bl": 7700,
      "##out": 7701,
      "195": 7702,
      "sing": 7703,
      "##we": 7704,
      "##ake": 7705,
      "##iss": 7706,
      "##ton": 7707,
      "##ely": 7708,
      "te": 7709,
      "west": 7710,
      "##ts": 7711,
      "su": 7712,
      "sub": 7713,
      "rom": 7714,
      "per": 7715,
      "war": 7716,
      "this": 7717,
      "two": 7718,
      "writ": 7719,
      "##lud": 7720,
      "##ding": 7721,
      "class": 7722,
      "##ence": 7723,
      "##amp": 7724,
      "includ": 7725,
      "year": 7726,
      "##ep": 7727,
      "histor": 7728,
      "colle": 7729,
      "##ern": 7730,
      "popul": 7731,
      "ir": 7732,
      "house": 7733,
      "##oll": 7734,
      "world": 7735,
      "cont": 7736,
      "off": 7737,
      "min": 7738,
      "foot": 7739,
      "##ank": 7740,
      "genus": 7741,
      "##ese": 7742,
      "##ath": 7743,
      "whe": 7744,
      "based": 7745,
      "##to": 7746,
      "res": 7747,
      "directed": 7748,
      "##inal": 7749,
      "east": 7750,
      "##urr": 7751,
      "##uring": 7752,
      "##ural": 7753,
      "##ft": 7754,
      "##ere": 7755,
      "##enn": 7756,
      "ger": 7757,
      "mount": 7758,
      "##les": 7759,
      "former": 7760,
      "mon": 7761,
      "dr": 7762,
      "la": 7763,
      "##idae": 7764,
      "aust": 7765,
      "music": 7766,
      "ph": 7767,
      "##ten": 7768,
      "km": 7769,
      "second": 7770,
      "plant": 7771,
      "##ork": 7772,
      "star": 7773,
      "roman": 7774,
      "college": 7775,
      "gre": 7776,
      "##act": 7777,
      "##anc": 7778,
      "state": 7779,
      "##mp": 7780,
      "##ade": 7781,
      "name": 7782,
      "me": 7783,
      "band": 7784,
      "book": 7785,
      "##ult": 7786,
      "may": 7787,
      "football": 7788,
      "city": 7789,
      "member": 7790,
      "air": 7791,
      "pre": 7792,
      "central": 7793,
      "##ents": 7794,
      "##ier": 7795,
      "lar": 7796,
      "after": 7797,
      "all": 7798,
      "novel": 7799,
      "published": 7800,
      "##ite": 7801,
      "ed": 7802,
      "produc": 7803,
      "##ome": 7804,
      "bet": 7805,
      "##te": 7806,
      "2006": 7807,
      "art": 7808,
      "bro": 7809,
      "193": 7810,
      "but": 7811,
      "not": 7812,
      "dec": 7813,
      "nav": 7814,
      "up": 7815,
      "historic": 7816,
      "##yl": 7817,
      "##iel": 7818,
      "sm": 7819,
      "##se": 7820,
      "##ime": 7821,
      "##aj": 7822,
      "pe": 7823,
      "polit": 7824,
      "##gr": 7825,
      "##urch": 7826,
      "##ict": 7827,
      "##ister": 7828,
      "17": 7829,
      "##son": 7830,
      "##vel": 7831,
      "med": 7832,
      "po": 7833,
      "##old": 7834,
      "gu": 7835,
      "##ions": 7836,
      "population": 7837,
      "jun": 7838,
      "##ance": 7839,
      "were": 7840,
      "building": 7841,
      "under": 7842,
      "austral": 7843,
      "12": 7844,
      "##ward": 7845,
      "met": 7846,
      "cap": 7847,
      "##ower": 7848,
      "##ied": 7849,
      "jan": 7850,
      "lake": 7851,
      "cal": 7852,
      "end": 7853,
      "thr": 7854,
      "act": 7855,
      "##esh": 7856,
      "mountain": 7857,
      "canad": 7858,
      "design": 7859,
      "192": 7860,
      "am": 7861,
      "brit": 7862,
      "##ai": 7863,
      "orig": 7864,
      "191": 7865,
      "during": 7866,
      "public": 7867,
      "nam": 7868,
      "been": 7869,
      "##ica": 7870,
      "curr": 7871,
      "##ized": 7872,
      "ag": 7873,
      "work": 7874,
      "province": 7875,
      "##ff": 7876,
      "ass": 7877,
      "##ick": 7878,
      "current": 7879,
      "church": 7880,
      "ship": 7881,
      "about": 7882,
      "##omet": 7883,
      "##sp": 7884,
      "founded": 7885,
      "##ual": 7886,
      "song": 7887,
      "oper": 7888,
      "##ood": 7889,
      "##ibut": 7890,
      "##ob": 7891,
      "##ile": 7892,
      "navy": 7893,
      "##au": 7894,
      "##oup": 7895,
      "##ics": 7896,
      "feat": 7897,
      "##are": 7898,
      "cr": 7899,
      "elect": 7900,
      "prof": 7901,
      "##ween": 7902,
      "10": 7903,
      "##olog": 7904,
      "##ley": 7905,
      "between": 7906,
      "played": 7907,
      "repres": 7908,
      "##ician": 7909,
      "est": 7910,
      "cons": 7911,
      "john": 7912,
      "british": 7913,
      "##ale": 7914,
      "##ase": 7915,
      "##one": 7916,
      "##estern": 7917,
      "##lish": 7918,
      "ju": 7919,
      "pers": 7920,
      "##ave": 7921,
      "only": 7922,
      "##du": 7923,
      "sy": 7924,
      "##ix": 7925,
      "original": 7926,
      "##ital": 7927,
      "##ations": 7928,
      "##uary": 7929,
      "four": 7930,
      "through": 7931,
      "##min": 7932,
      "most": 7933,
      "sw": 7934,
      "york": 7935,
      "##ring": 7936,
      "ge": 7937,
      "series": 7938,
      "ear": 7939,
      "##ons": 7940,
      "char": 7941,
      "##aceae": 7942,
      "##isc": 7943,
      "we": 7944,
      "##ors": 7945,
      "written": 7946,
      "oct": 7947,
      "##ious": 7948,
      "##apan": 7949,
      "january": 7950,
      "11": 7951,
      "##eral": 7952,
      "##uss": 7953,
      "##row": 7954,
      "other": 7955,
      "15": 7956,
      "aug": 7957,
      "16": 7958,
      "politician": 7959,
      "represent": 7960,
      "japan": 7961,
      "bar": 7962,
      "their": 7963,
      "##for": 7964,
      "pres": 7965,
      "over": 7966,
      "sept": 7967,
      "##ober": 7968,
      "english": 7969,
      "educ": 7970,
      "group": 7971,
      "three": 7972,
      "august": 7973,
      "nort": 7974,
      "march": 7975,
      "##air": 7976,
      "september": 7977,
      "october": 7978,
      "rock": 7979,
      "long": 7980,
      "intern": 7981,
      "##int": 7982,
      "##iam": 7983,
      "##enc": 7984,
      "##ately": 7985,
      "within": 7986,
      "##ril": 7987,
      "served": 7988,
      "##way": 7989,
      "had": 7990,
      "##iet": 7991,
      "##ind": 7992,
      "main": 7993,
      "##emic": 7994,
      "profess": 7995,
      "best": 7996,
      "##ama": 7997,
      "inst": 7998,
      "##0s": 7999,
      "bec": 8000,
      "own": 8001,
      "gl": 8002,
      "april": 8003,
      "june": 8004,
      "##ann": 8005,
      "##ys": 8006,
      "story": 8007,
      "op": 8008,
      "into": 8009,
      "##eng": 8010,
      "november": 8011,
      "cens": 8012,
      "##ures": 8013,
      "since": 8014,
      "##inn": 8015,
      "##ange": 8016,
      "##ourn": 8017,
      "will": 8018,
      "census": 8019,
      "records": 8020,
      "july": 8021,
      "bus": 8022,
      "##xim": 8023,
      "##let": 8024,
      "##ane": 8025,
      "##ose": 8026,
      "##ition": 8027,
      "common": 8028,
      "mid": 8029,
      "produced": 8030,
      "##istr": 8031,
      "##ph": 8032,
      "form": 8033,
      "appro": 8034,
      "named": 8035,
      "sci": 8036,
      "##duct": 8037,
      "rev": 8038,
      "##ash": 8039,
      "##ird": 8040,
      "admin": 8041,
      "##able": 8042,
      "##ery": 8043,
      "december": 8044,
      "small": 8045,
      "iran": 8046,
      "lab": 8047,
      "##ague": 8048,
      "##fer": 8049,
      "##hes": 8050,
      "##ark": 8051,
      "international": 8052,
      "western": 8053,
      "##att": 8054,
      "##ury": 8055,
      "##lin": 8056,
      "13": 8057,
      "##astern": 8058,
      "cor": 8059,
      "calif": 8060,
      "californ": 8061,
      "kil": 8062,
      "rural": 8063,
      "##ings": 8064,
      "trans": 8065,
      "##bru": 8066,
      "currently": 8067,
      "14": 8068,
      "##ost": 8069,
      "##port": 8070,
      "##ench": 8071,
      "near": 8072,
      "out": 8073,
      "febru": 8074,
      "february": 8075,
      "area": 8076,
      "##raft": 8077,
      "vo": 8078,
      "california": 8079,
      "ste": 8080,
      "mag": 8081,
      "administr": 8082,
      "##ruct": 8083,
      "bel": 8084,
      "##gan": 8085,
      "well": 8086,
      "##up": 8087,
      "poland": 8088,
      "##ka": 8089,
      "town": 8090,
      "##ives": 8091,
      "chr": 8092,
      "german": 8093,
      "french": 8094,
      "mil": 8095,
      "##ship": 8096,
      "persian": 8097,
      "##cr": 8098,
      "2010": 8099,
      "professional": 8100,
      "##uth": 8101,
      "gov": 8102,
      "approxim": 8103,
      "##yp": 8104,
      "lead": 8105,
      "##ior": 8106,
      "league": 8107,
      "##ket": 8108,
      "##ros": 8109,
      "##lo": 8110,
      "har": 8111,
      "stre": 8112,
      "##ames": 8113,
      "they": 8114,
      "##til": 8115,
      "##hen": 8116,
      "singer": 8117,
      "190": 8118,
      "##velop": 8119,
      "where": 8120,
      "approximately": 8121,
      "##inc": 8122,
      "kilomet": 8123,
      "##ull": 8124,
      "head": 8125,
      "mov": 8126,
      "develop": 8127,
      "govern": 8128,
      "studio": 8129,
      "##ild": 8130,
      "##bert": 8131,
      "##ision": 8132,
      "russ": 8133,
      "ev": 8134,
      "time": 8135,
      "years": 8136,
      "ital": 8137,
      "product": 8138,
      "native": 8139,
      "##yn": 8140,
      "list": 8141,
      "##urn": 8142,
      "const": 8143,
      "##abl": 8144,
      "island": 8145,
      "##bo": 8146,
      "deb": 8147,
      "##over": 8148,
      "plac": 8149,
      "##ific": 8150,
      "ter": 8151,
      "##ium": 8152,
      "ret": 8153,
      "so": 8154,
      "port": 8155,
      "2007": 8156,
      "##ana": 8157,
      "##fl": 8158,
      "tit": 8159,
      "2008": 8160,
      "##pl": 8161,
      "including": 8162,
      "dep": 8163,
      "##emb": 8164,
      "journ": 8165,
      "##ms": 8166,
      "##ident": 8167,
      "##por": 8168,
      "##ins": 8169,
      "##ission": 8170,
      "sl": 8171,
      "##ke": 8172,
      "2009": 8173,
      "##its": 8174,
      "lies": 8175,
      "acad": 8176,
      "##ield": 8177,
      "coll": 8178,
      "eu": 8179,
      "2011": 8180,
      "cre": 8181,
      "##oph": 8182,
      "av": 8183,
      "endemic": 8184,
      "att": 8185,
      "larg": 8186,
      "no": 8187,
      "sen": 8188,
      "##hern": 8189,
      "commun": 8190,
      "geor": 8191,
      "##oss": 8192,
      "189": 8193,
      "##itut": 8194,
      "mal": 8195,
      "old": 8196,
      "##by": 8197,
      "students": 8198,
      "tec": 8199,
      "families": 8200,
      "india": 8201,
      "have": 8202,
      "qu": 8203,
      "gm": 8204,
      "##ology": 8205,
      "kilometres": 8206,
      "award": 8207,
      "##ki": 8208,
      "romanized": 8209,
      "artist": 8210,
      "##br": 8211,
      "##ille": 8212,
      "northern": 8213,
      "##ices": 8214,
      "indian": 8215,
      "sn": 8216,
      "##unc": 8217,
      "souther": 8218,
      "##ows": 8219,
      "australia": 8220,
      "##rat": 8221,
      "acc": 8222,
      "##und": 8223,
      "later": 8224,
      "25": 8225,
      "##ek": 8226,
      "southern": 8227,
      "##ters": 8228,
      "##ott": 8229,
      "##ablished": 8230,
      "##ropical": 8231,
      "journal": 8232,
      "established": 8233,
      "moth": 8234,
      "until": 8235,
      "2012": 8236,
      "##ania": 8237,
      "##ster": 8238,
      "dem": 8239,
      "##fore": 8240,
      "call": 8241,
      "auth": 8242,
      "short": 8243,
      "val": 8244,
      "soc": 8245,
      "##abit": 8246,
      "player": 8247,
      "##ife": 8248,
      "made": 8249,
      "phil": 8250,
      "debut": 8251,
      "##uf": 8252,
      "num": 8253,
      "more": 8254,
      "ep": 8255,
      "wal": 8256,
      "when": 8257,
      "now": 8258,
      "administrative": 8259,
      "##ington": 8260,
      "##af": 8261,
      "##ont": 8262,
      "republ": 8263,
      "ii": 8264,
      "##ened": 8265,
      "label": 8266,
      "register": 8267,
      "maj": 8268,
      "camp": 8269,
      "##cc": 8270,
      "before": 8271,
      "##ene": 8272,
      "law": 8273,
      "care": 8274,
      "##ham": 8275,
      "england": 8276,
      "foll": 8277,
      "var": 8278,
      "##ection": 8279,
      "afric": 8280,
      "mod": 8281,
      "##eship": 8282,
      "##ax": 8283,
      "starring": 8284,
      "mot": 8285,
      "park": 8286,
      "sim": 8287,
      "institut": 8288,
      "##iness": 8289,
      "##ise": 8290,
      "sal": 8291,
      "##ne": 8292,
      "gmina": 8293,
      "techn": 8294,
      "rel": 8295,
      "##itt": 8296,
      "habit": 8297,
      "del": 8298,
      "il": 8299,
      "canadian": 8300,
      "##ivod": 8301,
      "service": 8302,
      "30": 8303,
      "voivod": 8304,
      "priv": 8305,
      "originally": 8306,
      "eastern": 8307,
      "voivodeship": 8308,
      "author": 8309,
      "red": 8310,
      "sol": 8311,
      "far": 8312,
      "team": 8313,
      "roy": 8314,
      "inter": 8315,
      "won": 8316,
      "canada": 8317,
      "str": 8318,
      "##iew": 8319,
      "sum": 8320,
      "grow": 8321,
      "bas": 8322,
      "##ement": 8323,
      "##ines": 8324,
      "business": 8325,
      "general": 8326,
      "habitat": 8327,
      "san": 8328,
      "21": 8329,
      "##red": 8330,
      "ang": 8331,
      "nat": 8332,
      "##uck": 8333,
      "##erv": 8334,
      "street": 8335,
      "christ": 8336,
      "mas": 8337,
      "william": 8338,
      "add": 8339,
      "kh": 8340,
      "##ri": 8341,
      "##ator": 8342,
      "germ": 8343,
      "##aper": 8344,
      "2013": 8345,
      "arch": 8346,
      "forest": 8347,
      "hel": 8348,
      "##ipal": 8349,
      "##eh": 8350,
      "##ider": 8351,
      "##ata": 8352,
      "black": 8353,
      "188": 8354,
      "##form": 8355,
      "my": 8356,
      "pat": 8357,
      "##rap": 8358,
      "##yle": 8359,
      "set": 8360,
      "flower": 8361,
      "down": 8362,
      "king": 8363,
      "go": 8364,
      "22": 8365,
      "designed": 8366,
      "pet": 8367,
      "sur": 8368,
      "2005": 8369,
      "##ony": 8370,
      "education": 8371,
      "rem": 8372,
      "##ities": 8373,
      "engine": 8374,
      "europ": 8375,
      "germany": 8376,
      "##ains": 8377,
      "australian": 8378,
      "early": 8379,
      "major": 8380,
      "##ired": 8381,
      "tribut": 8382,
      "##omin": 8383,
      "third": 8384,
      "ele": 8385,
      "japanese": 8386,
      "america": 8387,
      "six": 8388,
      "##ribut": 8389,
      "sea": 8390,
      "mill": 8391,
      "places": 8392,
      "##epend": 8393,
      "independ": 8394,
      "##ville": 8395,
      "##ival": 8396,
      "24": 8397,
      "europe": 8398,
      "mer": 8399,
      "##craft": 8400,
      "range": 8401,
      "grad": 8402,
      "##ipp": 8403,
      "que": 8404,
      "che": 8405,
      "ec": 8406,
      "party": 8407,
      "sil": 8408,
      "both": 8409,
      "leg": 8410,
      "##bia": 8411,
      "regional": 8412,
      "plays": 8413,
      "prev": 8414,
      "fin": 8415,
      "##ove": 8416,
      "largest": 8417,
      "dav": 8418,
      "##ole": 8419,
      "single": 8420,
      "mich": 8421,
      "capital": 8422,
      "2004": 8423,
      "many": 8424,
      "footballer": 8425,
      "listed": 8426,
      "chin": 8427,
      "magaz": 8428,
      "##ived": 8429,
      "sever": 8430,
      "##ung": 8431,
      "##ating": 8432,
      "pa": 8433,
      "##ular": 8434,
      "arm": 8435,
      "sk": 8436,
      "bank": 8437,
      "science": 8438,
      "##ays": 8439,
      "##ike": 8440,
      "italian": 8441,
      "aircraft": 8442,
      "being": 8443,
      "##ford": 8444,
      "##ross": 8445,
      "##ico": 8446,
      "white": 8447,
      "##ides": 8448,
      "23": 8449,
      "stor": 8450,
      "mass": 8451,
      "imp": 8452,
      "##ert": 8453,
      "##iation": 8454,
      "royal": 8455,
      "tex": 8456,
      "special": 8457,
      "there": 8458,
      "recorded": 8459,
      "russian": 8460,
      "appear": 8461,
      "used": 8462,
      "vol": 8463,
      "some": 8464,
      "tur": 8465,
      "home": 8466,
      "progr": 8467,
      "uk": 8468,
      "mun": 8469,
      "##mar": 8470,
      "##cess": 8471,
      "je": 8472,
      "than": 8473,
      "##edy": 8474,
      "##imes": 8475,
      "##bur": 8476,
      "schools": 8477,
      "##reek": 8478,
      "cat": 8479,
      "##vent": 8480,
      "em": 8481,
      "sup": 8482,
      "hol": 8483,
      "run": 8484,
      "private": 8485,
      "land": 8486,
      "ann": 8487,
      "several": 8488,
      "called": 8489,
      "vir": 8490,
      "##ner": 8491,
      "cour": 8492,
      "fict": 8493,
      "commission": 8494,
      "##yc": 8495,
      "tributary": 8496,
      "bre": 8497,
      "independent": 8498,
      "26": 8499,
      "follow": 8500,
      "tw": 8501,
      "##ve": 8502,
      "chinese": 8503,
      "career": 8504,
      "ma": 8505,
      "##stem": 8506,
      "##ty": 8507,
      "##gin": 8508,
      "int": 8509,
      "2002": 8510,
      "top": 8511,
      "owned": 8512,
      "##que": 8513,
      "previous": 8514,
      "def": 8515,
      "28": 8516,
      "187": 8517,
      "ext": 8518,
      "2000": 8519,
      "along": 8520,
      "##ida": 8521,
      "prim": 8522,
      "lim": 8523,
      "region": 8524,
      "number": 8525,
      "lond": 8526,
      "hill": 8527,
      "magazine": 8528,
      "27": 8529,
      "##uk": 8530,
      "2003": 8531,
      "##ufact": 8532,
      "##crib": 8533,
      "manufact": 8534,
      "##che": 8535,
      "london": 8536,
      "penn": 8537,
      "##emy": 8538,
      "track": 8539,
      "mont": 8540,
      "enter": 8541,
      "##ren": 8542,
      "##000": 8543,
      "##ara": 8544,
      "construct": 8545,
      "##go": 8546,
      "##ress": 8547,
      "lo": 8548,
      "##idge": 8549,
      "president": 8550,
      "became": 8551,
      "launc": 8552,
      "suc": 8553,
      "same": 8554,
      "flowering": 8555,
      "mex": 8556,
      "186": 8557,
      "do": 8558,
      "wood": 8559,
      "wing": 8560,
      "##ron": 8561,
      "##ris": 8562,
      "pass": 8563,
      "bal": 8564,
      "minister": 8565,
      "century": 8566,
      "system": 8567,
      "##itu": 8568,
      "peop": 8569,
      "child": 8570,
      "es": 8571,
      "title": 8572,
      "mor": 8573,
      "country": 8574,
      "div": 8575,
      "writer": 8576,
      "assoc": 8577,
      "launched": 8578,
      "##azil": 8579,
      "live": 8580,
      "##osp": 8581,
      "im": 8582,
      "##ech": 8583,
      "champ": 8584,
      "##els": 8585,
      "describ": 8586,
      "##ee": 8587,
      "start": 8588,
      "mc": 8589,
      "coast": 8590,
      "features": 8591,
      "##als": 8592,
      "##ze": 8593,
      "democ": 8594,
      "people": 8595,
      "bay": 8596,
      "##shire": 8597,
      "muse": 8598,
      "manag": 8599,
      "history": 8600,
      "brazil": 8601,
      "##writ": 8602,
      "such": 8603,
      "drama": 8604,
      "road": 8605,
      "##anish": 8606,
      "songs": 8607,
      "##ograp": 8608,
      "rail": 8609,
      "james": 8610,
      "club": 8611,
      "five": 8612,
      "life": 8613,
      "uss": 8614,
      "##abad": 8615,
      "##ues": 8616,
      "center": 8617,
      "##tain": 8618,
      "29": 8619,
      "##oung": 8620,
      "##ylv": 8621,
      "comedy": 8622,
      "then": 8623,
      "compos": 8624,
      "lou": 8625,
      "style": 8626,
      "government": 8627,
      "##ler": 8628,
      "large": 8629,
      "young": 8630,
      "##led": 8631,
      "just": 8632,
      "democrat": 8633,
      "##line": 8634,
      "hig": 8635,
      "##omot": 8636,
      "ft": 8637,
      "academy": 8638,
      "museum": 8639,
      "typ": 8640,
      "rich": 8641,
      "services": 8642,
      "tele": 8643,
      "around": 8644,
      "2001": 8645,
      "ber": 8646,
      "##ject": 8647,
      "pal": 8648,
      "##ams": 8649,
      "##yr": 8650,
      "##ma": 8651,
      "##na": 8652,
      "water": 8653,
      "great": 8654,
      "cath": 8655,
      "##wood": 8656,
      "texas": 8657,
      "seas": 8658,
      "mat": 8659,
      "compet": 8660,
      "super": 8661,
      "flor": 8662,
      "lang": 8663,
      "##olic": 8664,
      "##tar": 8665,
      "##ounc": 8666,
      "##quar": 8667,
      "last": 8668,
      "##la": 8669,
      "secondary": 8670,
      "inv": 8671,
      "fiction": 8672,
      "##aint": 8673,
      "##ston": 8674,
      "##ya": 8675,
      "peak": 8676,
      "##elf": 8677,
      "munic": 8678,
      "municipal": 8679,
      "##the": 8680,
      "##writer": 8681,
      "##ather": 8682,
      "champion": 8683,
      "kar": 8684,
      "##ven": 8685,
      "day": 8686,
      "newsp": 8687,
      "##bs": 8688,
      "##ief": 8689,
      "oly": 8690,
      "gold": 8691,
      "hot": 8692,
      "natural": 8693,
      "##ones": 8694,
      "china": 8695,
      "ent": 8696,
      "green": 8697,
      "bill": 8698,
      "##aves": 8699,
      "ren": 8700,
      "how": 8701,
      "##ured": 8702,
      "back": 8703,
      "##ha": 8704,
      "##ially": 8705,
      "disc": 8706,
      "wash": 8707,
      "formerly": 8708,
      "ze": 8709,
      "##ists": 8710,
      "franc": 8711,
      "##dle": 8712,
      "##ex": 8713,
      "cover": 8714,
      "catholic": 8715,
      "##ylvania": 8716,
      "side": 8717,
      "exp": 8718,
      "union": 8719,
      "offic": 8720,
      "release": 8721,
      "fac": 8722,
      "colum": 8723,
      "aut": 8724,
      "##ily": 8725,
      "occ": 8726,
      "dis": 8727,
      "##bor": 8728,
      "stars": 8729,
      "virgin": 8730,
      "includes": 8731,
      "1999": 8732,
      "described": 8733,
      "##ering": 8734,
      "##west": 8735,
      "penns": 8736,
      "oh": 8737,
      "##ii": 8738,
      "185": 8739,
      "net": 8740,
      "##ats": 8741,
      "##ink": 8742,
      "##itar": 8743,
      "li": 8744,
      "##vision": 8745,
      "local": 8746,
      "line": 8747,
      "bul": 8748,
      "pennsylvania": 8749,
      "##yer": 8750,
      "tor": 8751,
      "community": 8752,
      "miss": 8753,
      "late": 8754,
      "##me": 8755,
      "indust": 8756,
      "corpor": 8757,
      "mary": 8758,
      "##ij": 8759,
      "george": 8760,
      "sold": 8761,
      "tropical": 8762,
      "##ength": 8763,
      "complet": 8764,
      "vers": 8765,
      "headquar": 8766,
      "son": 8767,
      "thom": 8768,
      "david": 8769,
      "##aland": 8770,
      "##field": 8771,
      "##ified": 8772,
      "##etts": 8773,
      "cult": 8774,
      "washington": 8775,
      "##ota": 8776,
      "ke": 8777,
      "##iety": 8778,
      "bur": 8779,
      "development": 8780,
      "##ful": 8781,
      "resear": 8782,
      "cam": 8783,
      "##rick": 8784,
      "mel": 8785,
      "##achus": 8786,
      "##atives": 8787,
      "lit": 8788,
      "vict": 8789,
      "sa": 8790,
      "base": 8791,
      "paul": 8792,
      "##ael": 8793,
      "massachus": 8794,
      "mad": 8795,
      "massachusetts": 8796,
      "1991": 8797,
      "##ental": 8798,
      "##ani": 8799,
      "market": 8800,
      "1998": 8801,
      "wom": 8802,
      "tall": 8803,
      "success": 8804,
      "##ago": 8805,
      "length": 8806,
      "campus": 8807,
      "full": 8808,
      "post": 8809,
      "musician": 8810,
      "operated": 8811,
      "distribut": 8812,
      "##ona": 8813,
      "cast": 8814,
      "production": 8815,
      "snail": 8816,
      "again": 8817,
      "mac": 8818,
      "##ett": 8819,
      "gir": 8820,
      "songwriter": 8821,
      "rece": 8822,
      "brown": 8823,
      "office": 8824,
      "doc": 8825,
      "langu": 8826,
      "robert": 8827,
      "##aining": 8828,
      "trad": 8829,
      "id": 8830,
      "romania": 8831,
      "newspaper": 8832,
      "##co": 8833,
      "mountains": 8834,
      "see": 8835,
      "democratic": 8836,
      "##nes": 8837,
      "ever": 8838,
      "hal": 8839,
      "sign": 8840,
      "31": 8841,
      "research": 8842,
      "valley": 8843,
      "cit": 8844,
      "elected": 8845,
      "television": 8846,
      "rad": 8847,
      "hor": 8848,
      "##ets": 8849,
      "summer": 8850,
      "africa": 8851,
      "##uel": 8852,
      "commonly": 8853,
      "olymp": 8854,
      "##ret": 8855,
      "while": 8856,
      "##ino": 8857,
      "##ected": 8858,
      "##ney": 8859,
      "1996": 8860,
      "##akes": 8861,
      "rh": 8862,
      "##eland": 8863,
      "mart": 8864,
      "1997": 8865,
      "##yd": 8866,
      "##ella": 8867,
      "republic": 8868,
      "##ling": 8869,
      "##tered": 8870,
      "##ais": 8871,
      "louis": 8872,
      "1992": 8873,
      "##ograph": 8874,
      "##ari": 8875,
      "##itect": 8876,
      "following": 8877,
      "metres": 8878,
      "ohio": 8879,
      "architect": 8880,
      "hosp": 8881,
      "##ls": 8882,
      "##gian": 8883,
      "tre": 8884,
      "representatives": 8885,
      "lat": 8886,
      "previously": 8887,
      "guitar": 8888,
      "arts": 8889,
      "squ": 8890,
      "##ries": 8891,
      "hum": 8892,
      "books": 8893,
      "wil": 8894,
      "##reg": 8895,
      "director": 8896,
      "hospital": 8897,
      "##ada": 8898,
      "review": 8899,
      "children": 8900,
      "depart": 8901,
      "popular": 8902,
      "hall": 8903,
      "technology": 8904,
      "zealand": 8905,
      "du": 8906,
      "emp": 8907,
      "power": 8908,
      "aff": 8909,
      "mark": 8910,
      "##ush": 8911,
      "playing": 8912,
      "##ould": 8913,
      "grand": 8914,
      "low": 8915,
      "chart": 8916,
      "1995": 8917,
      "municipality": 8918,
      "##ps": 8919,
      "swed": 8920,
      "like": 8921,
      "##itor": 8922,
      "##ces": 8923,
      "##apt": 8924,
      "1993": 8925,
      "conn": 8926,
      "##burg": 8927,
      "you": 8928,
      "1990": 8929,
      "turk": 8930,
      "marine": 8931,
      "##iated": 8932,
      "##sk": 8933,
      "##ald": 8934,
      "mexico": 8935,
      "1988": 8936,
      "virginia": 8937,
      "mu": 8938,
      "##ined": 8939,
      "level": 8940,
      "1989": 8941,
      "don": 8942,
      "##get": 8943,
      "commer": 8944,
      "di": 8945,
      "include": 8946,
      "tour": 8947,
      "##ically": 8948,
      "##hel": 8949,
      "plants": 8950,
      "non": 8951,
      "sound": 8952,
      "##zer": 8953,
      "##ency": 8954,
      "forests": 8955,
      "##ano": 8956,
      "##alth": 8957,
      "##ences": 8958,
      "##anch": 8959,
      "spanish": 8960,
      "##rol": 8961,
      "iss": 8962,
      "##amb": 8963,
      "1994": 8964,
      "##iving": 8965,
      "leaves": 8966,
      "1945": 8967,
      "southe": 8968,
      "100": 8969,
      "##azz": 8970,
      "gradu": 8971,
      "middle": 8972,
      "##unk": 8973,
      "vide": 8974,
      "albums": 8975,
      "carol": 8976,
      "mult": 8977,
      "fre": 8978,
      "##work": 8979,
      "subt": 8980,
      "sport": 8981,
      "flow": 8982,
      "rest": 8983,
      "##eph": 8984,
      "1986": 8985,
      "arg": 8986,
      "france": 8987,
      "him": 8988,
      "##iana": 8989,
      "1985": 8990,
      "##ually": 8991,
      "##eded": 8992,
      "began": 8993,
      "##ger": 8994,
      "1987": 8995,
      "institute": 8996,
      "winn": 8997,
      "1984": 8998,
      "florida": 8999,
      "cop": 9000,
      "##rew": 9001,
      "##onom": 9002,
      "miles": 9003,
      "lu": 9004,
      "victor": 9005,
      "jack": 9006,
      "##par": 9007,
      "week": 9008,
      "fed": 9009,
      "organ": 9010,
      "##ored": 9011,
      "##ois": 9012,
      "##era": 9013,
      "##ta": 9014,
      "1983": 9015,
      "assemb": 9016,
      "conc": 9017,
      "##usk": 9018,
      "movie": 9019,
      "tree": 9020,
      "stand": 9021,
      "184": 9022,
      "corporation": 9023,
      "1982": 9024,
      "dou": 9025,
      "jos": 9026,
      "hand": 9027,
      "brother": 9028,
      "##ula": 9029,
      "1980": 9030,
      "opened": 9031,
      "light": 9032,
      "language": 9033,
      "producer": 9034,
      "dest": 9035,
      "ye": 9036,
      "##ended": 9037,
      "dif": 9038,
      "##aking": 9039,
      "##ola": 9040,
      "refer": 9041,
      "bi": 9042,
      "angel": 9043,
      "##dom": 9044,
      "##aker": 9045,
      "gar": 9046,
      "##be": 9047,
      "##wer": 9048,
      "blue": 9049,
      "feet": 9050,
      "sar": 9051,
      "##ador": 9052,
      "shr": 9053,
      "serves": 9054,
      "association": 9055,
      "right": 9056,
      "##ize": 9057,
      "added": 9058,
      "commissioned": 9059,
      "scott": 9060,
      "tal": 9061,
      "det": 9062,
      "michael": 9063,
      "##ison": 9064,
      "consider": 9065,
      "##cept": 9066,
      "##ved": 9067,
      "dut": 9068,
      "##hest": 9069,
      "moll": 9070,
      "##ument": 9071,
      "works": 9072,
      "er": 9073,
      "type": 9074,
      "##gar": 9075,
      "final": 9076,
      "pur": 9077,
      "governor": 9078,
      "gast": 9079,
      "##ble": 9080,
      "tom": 9081,
      "serving": 9082,
      "1979": 9083,
      "##ander": 9084,
      "open": 9085,
      "stories": 9086,
      "fourth": 9087,
      "win": 9088,
      "prem": 9089,
      "situ": 9090,
      "hav": 9091,
      "parish": 9092,
      "thomas": 9093,
      "der": 9094,
      "grows": 9095,
      "##gy": 9096,
      "big": 9097,
      "charles": 9098,
      "broad": 9099,
      "pit": 9100,
      "hen": 9101,
      "sam": 9102,
      "##ently": 9103,
      "games": 9104,
      "centre": 9105,
      "usa": 9106,
      "frank": 9107,
      "fif": 9108,
      "kr": 9109,
      "love": 9110,
      "christian": 9111,
      "board": 9112,
      "contains": 9113,
      "assembly": 9114,
      "rac": 9115,
      "ten": 9116,
      "##antic": 9117,
      "gun": 9118,
      "order": 9119,
      "##ning": 9120,
      "##ges": 9121,
      "##oth": 9122,
      "kore": 9123,
      "limited": 9124,
      "site": 9125,
      "1981": 9126,
      "charac": 9127,
      "championship": 9128,
      "##ropod": 9129,
      "hard": 9130,
      "ob": 9131,
      "40": 9132,
      "project": 9133,
      "mm": 9134,
      "contin": 9135,
      "##ius": 9136,
      "death": 9137,
      "los": 9138,
      "cro": 9139,
      "pos": 9140,
      "ontar": 9141,
      "##reen": 9142,
      "metal": 9143,
      "ontario": 9144,
      "chief": 9145,
      "pac": 9146,
      "richard": 9147,
      "bord": 9148,
      "department": 9149,
      "compil": 9150,
      "##side": 9151,
      "jazz": 9152,
      "media": 9153,
      "##isl": 9154,
      "collection": 9155,
      "subtropical": 9156,
      "hon": 9157,
      "place": 9158,
      "##ping": 9159,
      "sant": 9160,
      "##bec": 9161,
      "##ellow": 9162,
      "columbia": 9163,
      "started": 9164,
      "fore": 9165,
      "cle": 9166,
      "##omer": 9167,
      "##ala": 9168,
      "##ado": 9169,
      "railway": 9170,
      "republican": 9171,
      "##aus": 9172,
      "##nam": 9173,
      "seat": 9174,
      "##ena": 9175,
      "tem": 9176,
      "division": 9177,
      "times": 9178,
      "african": 9179,
      "50": 9180,
      "ol": 9181,
      "situated": 9182,
      "##igan": 9183,
      "game": 9184,
      "deg": 9185,
      "foc": 9186,
      "orch": 9187,
      "fest": 9188,
      "civ": 9189,
      "##aff": 9190,
      "1978": 9191,
      "ant": 9192,
      "##yll": 9193,
      "kingdom": 9194,
      "cir": 9195,
      "batt": 9196,
      "gastropod": 9197,
      "atl": 9198,
      "mic": 9199,
      "##ained": 9200,
      "1976": 9201,
      "sel": 9202,
      "show": 9203,
      "##oma": 9204,
      "northe": 9205,
      "video": 9206,
      "##ism": 9207,
      "often": 9208,
      "mang": 9209,
      "##hi": 9210,
      "program": 9211,
      "183": 9212,
      "season": 9213,
      "##berg": 9214,
      "##itional": 9215,
      "1972": 9216,
      "counc": 9217,
      "flows": 9218,
      "nar": 9219,
      "##oon": 9220,
      "fer": 9221,
      "spring": 9222,
      "##ishing": 9223,
      "commerc": 9224,
      "bol": 9225,
      "ham": 9226,
      "carolina": 9227,
      "##lands": 9228,
      "##asc": 9229,
      "ur": 9230,
      "films": 9231,
      "cm": 9232,
      "princ": 9233,
      "dan": 9234,
      "motor": 9235,
      "##board": 9236,
      "##ora": 9237,
      "prot": 9238,
      "dev": 9239,
      "##ody": 9240,
      "creek": 9241,
      "ha": 9242,
      "##cher": 9243,
      "construction": 9244,
      "sand": 9245,
      "##erson": 9246,
      "rap": 9247,
      "heav": 9248,
      "mr": 9249,
      "##ple": 9250,
      "focus": 9251,
      "free": 9252,
      "considered": 9253,
      "tracks": 9254,
      "1977": 9255,
      "##ible": 9256,
      "brand": 9257,
      "memb": 9258,
      "perfor": 9259,
      "festival": 9260,
      "##ract": 9261,
      "##ensis": 9262,
      "##bu": 9263,
      "1973": 9264,
      "social": 9265,
      "voc": 9266,
      "received": 9267,
      "somet": 9268,
      "left": 9269,
      "locomot": 9270,
      "age": 9271,
      "##ua": 9272,
      "engineering": 9273,
      "##ped": 9274,
      "thre": 9275,
      "exper": 9276,
      "##ker": 9277,
      "wales": 9278,
      "orchid": 9279,
      "ill": 9280,
      "transport": 9281,
      "members": 9282,
      "saint": 9283,
      "##onia": 9284,
      "hop": 9285,
      "##atus": 9286,
      "spe": 9287,
      "##ye": 9288,
      "hms": 9289,
      "##har": 9290,
      "poet": 9291,
      "among": 9292,
      "##olk": 9293,
      "##of": 9294,
      "differ": 9295,
      "field": 9296,
      "##istan": 9297,
      "publis": 9298,
      "os": 9299,
      "wat": 9300,
      "1975": 9301,
      "##elling": 9302,
      "senate": 9303,
      "##iod": 9304,
      "use": 9305,
      "##augh": 9306,
      "litt": 9307,
      "submar": 9308,
      "shar": 9309,
      "created": 9310,
      "##omb": 9311,
      "##asy": 9312,
      "very": 9313,
      "highest": 9314,
      "##anth": 9315,
      "report": 9316,
      "men": 9317,
      "hotel": 9318,
      "##ively": 9319,
      "##ume": 9320,
      "version": 9321,
      "sun": 9322,
      "management": 9323,
      "##ali": 9324,
      "mollusk": 9325,
      "##aur": 9326,
      "##urer": 9327,
      "##oles": 9328,
      "##ockey": 9329,
      "representing": 9330,
      "##ita": 9331,
      "chic": 9332,
      "medical": 9333,
      "electric": 9334,
      "greek": 9335,
      "##day": 9336,
      "council": 9337,
      "alth": 9338,
      "color": 9339,
      "##idi": 9340,
      "1970": 9341,
      "1974": 9342,
      "fle": 9343,
      "against": 9344,
      "real": 9345,
      "areas": 9346,
      "philipp": 9347,
      "arab": 9348,
      "political": 9349,
      "hy": 9350,
      "various": 9351,
      "baseball": 9352,
      "##roll": 9353,
      "circ": 9354,
      "##iny": 9355,
      "educational": 9356,
      "oldest": 9357,
      "loss": 9358,
      "asia": 9359,
      "retired": 9360,
      "mur": 9361,
      "although": 9362,
      "argent": 9363,
      "wide": 9364,
      "civil": 9365,
      "included": 9366,
      "flowers": 9367,
      "legisl": 9368,
      "ul": 9369,
      "pen": 9370,
      "european": 9371,
      "lt": 9372,
      "##med": 9373,
      "pict": 9374,
      "commercial": 9375,
      "feature": 9376,
      "dar": 9377,
      "corn": 9378,
      "alex": 9379,
      "1968": 9380,
      "##inct": 9381,
      "##eth": 9382,
      "peter": 9383,
      "rob": 9384,
      "citation": 9385,
      "pacific": 9386,
      "soft": 9387,
      "equ": 9388,
      "##ware": 9389,
      "conf": 9390,
      "bor": 9391,
      "1971": 9392,
      "##ria": 9393,
      "olympics": 9394,
      "den": 9395,
      "##ages": 9396,
      "gro": 9397,
      "fant": 9398,
      "these": 9399,
      "vess": 9400,
      "##wan": 9401,
      "threat": 9402,
      "fam": 9403,
      "##ots": 9404,
      "health": 9405,
      "##ette": 9406,
      "joseph": 9407,
      "1969": 9408,
      "hit": 9409,
      "pain": 9410,
      "##ape": 9411,
      "##ura": 9412,
      "sat": 9413,
      "dam": 9414,
      "##ky": 9415,
      "news": 9416,
      "compilation": 9417,
      "million": 9418,
      "month": 9419,
      "##ided": 9420,
      "society": 9421,
      "laid": 9422,
      "##mark": 9423,
      "##ient": 9424,
      "acqu": 9425,
      "##gia": 9426,
      "ko": 9427,
      "##eter": 9428,
      "needed": 9429,
      "fall": 9430,
      "##ga": 9431,
      "35": 9432,
      "cd": 9433,
      "##ady": 9434,
      "represented": 9435,
      "good": 9436,
      "irish": 9437,
      "mah": 9438,
      "haw": 9439,
      "mix": 9440,
      "offers": 9441,
      "##va": 9442,
      "cross": 9443,
      "steam": 9444,
      "little": 9445,
      "oce": 9446,
      "crit": 9447,
      "subs": 9448,
      "1944": 9449,
      "##ennial": 9450,
      "quebec": 9451,
      "illin": 9452,
      "chicago": 9453,
      "##western": 9454,
      "headquartered": 9455,
      "pan": 9456,
      "role": 9457,
      "cur": 9458,
      "destro": 9459,
      "editor": 9460,
      "ver": 9461,
      "period": 9462,
      "repl": 9463,
      "##ged": 9464,
      "completed": 9465,
      "cru": 9466,
      "hockey": 9467,
      "illinois": 9468,
      "each": 9469,
      "181": 9470,
      "turn": 9471,
      "dark": 9472,
      "border": 9473,
      "##ror": 9474,
      "present": 9475,
      "##hip": 9476,
      "point": 9477,
      "##oir": 9478,
      "##ars": 9479,
      "scot": 9480,
      "##ban": 9481,
      "intro": 9482,
      "square": 9483,
      "products": 9484,
      "anim": 9485,
      "##rain": 9486,
      "academic": 9487,
      "##de": 9488,
      "ros": 9489,
      "swedish": 9490,
      "##arily": 9491,
      "elev": 9492,
      "ben": 9493,
      "##osed": 9494,
      "singles": 9495,
      "##iidae": 9496,
      "1943": 9497,
      "across": 9498,
      "names": 9499,
      "support": 9500,
      "press": 9501,
      "mos": 9502,
      "height": 9503,
      "women": 9504,
      "modern": 9505,
      "ps": 9506,
      "threatened": 9507,
      "##ko": 9508,
      "##ersey": 9509,
      "reserv": 9510,
      "federal": 9511,
      "##oming": 9512,
      "document": 9513,
      "secret": 9514,
      "##ments": 9515,
      "adv": 9516,
      "##itary": 9517,
      "perform": 9518,
      "seven": 9519,
      "round": 9520,
      "ins": 9521,
      "fem": 9522,
      "ho": 9523,
      "shrub": 9524,
      "##urs": 9525,
      "them": 9526,
      "syn": 9527,
      "belong": 9528,
      "##ca": 9529,
      "hung": 9530,
      "##ops": 9531,
      "##overs": 9532,
      "##awa": 9533,
      "##ued": 9534,
      "##acher": 9535,
      "ly": 9536,
      "tel": 9537,
      "fort": 9538,
      "cz": 9539,
      "##iff": 9540,
      "##ode": 9541,
      "sometimes": 9542,
      "michigan": 9543,
      "##ipl": 9544,
      "1942": 9545,
      "edward": 9546,
      "ku": 9547,
      "##enue": 9548,
      "moist": 9549,
      "anth": 9550,
      "actor": 9551,
      "ice": 9552,
      "##aster": 9553,
      "##ks": 9554,
      "vis": 9555,
      "comic": 9556,
      "##ense": 9557,
      "1964": 9558,
      "jud": 9559,
      "182": 9560,
      "liter": 9561,
      "tot": 9562,
      "##ecut": 9563,
      "##cl": 9564,
      "tower": 9565,
      "##gl": 9566,
      "different": 9567,
      "struct": 9568,
      "vi": 9569,
      "dutch": 9570,
      "##arian": 9571,
      "##ami": 9572,
      "medal": 9573,
      "composer": 9574,
      "ireland": 9575,
      "held": 9576,
      "van": 9577,
      "1967": 9578,
      "grass": 9579,
      "way": 9580,
      "hous": 9581,
      "sem": 9582,
      "crater": 9583,
      "primarily": 9584,
      "hong": 9585,
      "kong": 9586,
      "eight": 9587,
      "##my": 9588,
      "earl": 9589,
      "chap": 9590,
      "henry": 9591,
      "##den": 9592,
      "infl": 9593,
      "adapt": 9594,
      "partic": 9595,
      "ut": 9596,
      "election": 9597,
      "famous": 9598,
      "cric": 9599,
      "accord": 9600,
      "formed": 9601,
      "network": 9602,
      "##han": 9603,
      "recording": 9604,
      "##ini": 9605,
      "##za": 9606,
      "entertain": 9607,
      "econom": 9608,
      "rug": 9609,
      "##itions": 9610,
      "##ansas": 9611,
      "##aka": 9612,
      "consists": 9613,
      "##ba": 9614,
      "##iger": 9615,
      "kent": 9616,
      "islands": 9617,
      "solo": 9618,
      "arr": 9619,
      "##ugu": 9620,
      "##ches": 9621,
      "##oor": 9622,
      "ker": 9623,
      "theat": 9624,
      "parl": 9625,
      "beg": 9626,
      "father": 9627,
      "da": 9628,
      "cost": 9629,
      "ships": 9630,
      "##hood": 9631,
      "1965": 9632,
      "manga": 9633,
      "32": 9634,
      "mall": 9635,
      "##tr": 9636,
      "featuring": 9637,
      "worked": 9638,
      "##ils": 9639,
      "edition": 9640,
      "jersey": 9641,
      "##jan": 9642,
      "##adu": 9643,
      "nep": 9644,
      "##ios": 9645,
      "##outh": 9646,
      "tenn": 9647,
      "##lex": 9648,
      "##ogn": 9649,
      "liber": 9650,
      "primary": 9651,
      "fly": 9652,
      "##ature": 9653,
      "performan": 9654,
      "guitarist": 9655,
      "fifth": 9656,
      "perennial": 9657,
      "ocean": 9658,
      "##app": 9659,
      "grade": 9660,
      "submarine": 9661,
      "init": 9662,
      "##ym": 9663,
      "##imet": 9664,
      "due": 9665,
      "constructed": 9666,
      "##ude": 9667,
      "proper": 9668,
      "court": 9669,
      "manufacturer": 9670,
      "gard": 9671,
      "angeles": 9672,
      "##ally": 9673,
      "stage": 9674,
      "cab": 9675,
      "##ached": 9676,
      "##mit": 9677,
      "##ization": 9678,
      "wr": 9679,
      "italy": 9680,
      "lower": 9681,
      "1962": 9682,
      "dail": 9683,
      "tar": 9684,
      "yellow": 9685,
      "1966": 9686,
      "ltd": 9687,
      "oreg": 9688,
      "noted": 9689,
      "fantasy": 9690,
      "plat": 9691,
      "##town": 9692,
      "died": 9693,
      "##inted": 9694,
      "mem": 9695,
      "##ells": 9696,
      "oregon": 9697,
      "invest": 9698,
      "military": 9699,
      "smith": 9700,
      "front": 9701,
      "##eder": 9702,
      "sixth": 9703,
      "wall": 9704,
      "musical": 9705,
      "georgia": 9706,
      "moved": 9707,
      "gh": 9708,
      "ray": 9709,
      "throughout": 9710,
      "illust": 9711,
      "##ask": 9712,
      "jr": 9713,
      "##no": 9714,
      "tamil": 9715,
      "##amed": 9716,
      "station": 9717,
      "exist": 9718,
      "bir": 9719,
      "growing": 9720,
      "pu": 9721,
      "provides": 9722,
      "herb": 9723,
      "grades": 9724,
      "##water": 9725,
      "rang": 9726,
      "developed": 9727,
      "having": 9728,
      "bird": 9729,
      "##iec": 9730,
      "ca": 9731,
      "gener": 9732,
      "1960": 9733,
      "transl": 9734,
      "##ility": 9735,
      "neigh": 9736,
      "ra": 9737,
      "township": 9738,
      "##atic": 9739,
      "surv": 9740,
      "##ants": 9741,
      "artists": 9742,
      "model": 9743,
      "night": 9744,
      "compan": 9745,
      "1963": 9746,
      "cricket": 9747,
      "##back": 9748,
      "2014": 9749,
      "though": 9750,
      "screen": 9751,
      "##uter": 9752,
      "institution": 9753,
      "half": 9754,
      "##ati": 9755,
      "trav": 9756,
      "##anian": 9757,
      "##wegian": 9758,
      "altern": 9759,
      "##ender": 9760,
      "norwegian": 9761,
      "chang": 9762,
      "##rial": 9763,
      "firm": 9764,
      "parliam": 9765,
      "event": 9766,
      "leader": 9767,
      "##ophyll": 9768,
      "northwest": 9769,
      "boat": 9770,
      "senior": 9771,
      "parliament": 9772,
      "according": 9773,
      "##uit": 9774,
      "##ов": 9775,
      "mayor": 9776,
      "ak": 9777,
      "leading": 9778,
      "southeast": 9779,
      "lib": 9780,
      "##mon": 9781,
      "competed": 9782,
      "1959": 9783,
      "##agon": 9784,
      "rank": 9785,
      "official": 9786,
      "1956": 9787,
      "farm": 9788,
      "connect": 9789,
      "daily": 9790,
      "premier": 9791,
      "1961": 9792,
      "##ilar": 9793,
      "stone": 9794,
      "fri": 9795,
      "parts": 9796,
      "winning": 9797,
      "ot": 9798,
      "character": 9799,
      "##ny": 9800,
      "##mond": 9801,
      "software": 9802,
      "stock": 9803,
      "stem": 9804,
      "##enth": 9805,
      "##icles": 9806,
      "buildings": 9807,
      "##50": 9808,
      "resp": 9809,
      "lie": 9810,
      "acquired": 9811,
      "contribut": 9812,
      "ve": 9813,
      "##bai": 9814,
      "entertainment": 9815,
      "##ique": 9816,
      "180": 9817,
      "##ja": 9818,
      "##rated": 9819,
      "bud": 9820,
      "##ted": 9821,
      "sports": 9822,
      "box": 9823,
      "revival": 9824,
      "operates": 9825,
      "##iro": 9826,
      "##atory": 9827,
      "minnes": 9828,
      "wro": 9829,
      "##iaceae": 9830,
      "person": 9831,
      "##iy": 9832,
      "traditional": 9833,
      "featured": 9834,
      "abb": 9835,
      "minnesota": 9836,
      "hind": 9837,
      "tv": 9838,
      "inform": 9839,
      "living": 9840,
      "term": 9841,
      "##well": 9842,
      "tak": 9843,
      "silver": 9844,
      "section": 9845,
      "cup": 9846,
      "##aska": 9847,
      "subsidi": 9848,
      "##isco": 9849,
      "tim": 9850,
      "painter": 9851,
      "dry": 9852,
      "step": 9853,
      "##iding": 9854,
      "kal": 9855,
      "command": 9856,
      "##uz": 9857,
      "glob": 9858,
      "appeared": 9859,
      "wid": 9860,
      "dig": 9861,
      "sir": 9862,
      "##omp": 9863,
      "promin": 9864,
      "##ych": 9865,
      "publishing": 9866,
      "1957": 9867,
      "turkey": 9868,
      "above": 9869,
      "historical": 9870,
      "##vin": 9871,
      "draft": 9872,
      "documentary": 9873,
      "active": 9874,
      "##rum": 9875,
      "albert": 9876,
      "ground": 9877,
      "pak": 9878,
      "lee": 9879,
      "##eds": 9880,
      "actress": 9881,
      "castle": 9882,
      "paris": 9883,
      "##ises": 9884,
      "1958": 9885,
      "brick": 9886,
      "##ological": 9887,
      "##buil": 9888,
      "##ites": 9889,
      "referred": 9890,
      "1953": 9891,
      "drum": 9892,
      "bass": 9893,
      "radio": 9894,
      "##pr": 9895,
      "martin": 9896,
      "indones": 9897,
      "rugby": 9898,
      "aud": 9899,
      "comb": 9900,
      "related": 9901,
      "##ves": 9902,
      "bat": 9903,
      "fire": 9904,
      "##olut": 9905,
      "##oy": 9906,
      "1955": 9907,
      "ukrain": 9908,
      "much": 9909,
      "hun": 9910,
      "roles": 9911,
      "##iller": 9912,
      "ecu": 9913,
      "##itte": 9914,
      "introduc": 9915,
      "few": 9916,
      "wild": 9917,
      "##ends": 9918,
      "brook": 9919,
      "army": 9920,
      "1941": 9921,
      "fair": 9922,
      "bridge": 9923,
      "successful": 9924,
      "mainly": 9925,
      "prior": 9926,
      "##ting": 9927,
      "sour": 9928,
      "ah": 9929,
      "degree": 9930,
      "girls": 9931,
      "total": 9932,
      "60": 9933,
      "##adesh": 9934,
      "action": 9935,
      "ecuador": 9936,
      "financ": 9937,
      "chair": 9938,
      "affil": 9939,
      "36": 9940,
      "wind": 9941,
      "still": 9942,
      "industry": 9943,
      "##gress": 9944,
      "emplo": 9945,
      "##icle": 9946,
      "1917": 9947,
      "sus": 9948,
      "1948": 9949,
      "junior": 9950,
      "teacher": 9951,
      "norway": 9952,
      "vessel": 9953,
      "##other": 9954,
      "1946": 9955,
      "1952": 9956,
      "southwest": 9957,
      "33": 9958,
      "##ications": 9959,
      "##ised": 9960,
      "fish": 9961,
      "phot": 9962,
      "advent": 9963,
      "companies": 9964,
      "bab": 9965,
      "sov": 9966,
      "elevation": 9967,
      "ken": 9968,
      "peer": 9969,
      "##cer": 9970,
      "pron": 9971,
      "ram": 9972,
      "scient": 9973,
      "##ان": 9974,
      "electron": 9975,
      "##ielder": 9976,
      "hu": 9977,
      "covers": 9978,
      "##gs": 9979,
      "##hem": 9980,
      "scottish": 9981,
      "bulb": 9982,
      "##ophyllum": 9983,
      "lost": 9984,
      "training": 9985,
      "similar": 9986,
      "##yan": 9987,
      "bon": 9988,
      "##da": 9989,
      "raj": 9990,
      "##ered": 9991,
      "aer": 9992,
      "renamed": 9993,
      "philippines": 9994,
      "would": 9995,
      "##itz": 9996,
      "##adel": 9997,
      "centimet": 9998,
      "took": 9999,
      "1954": 10000,
      "##anda": 10001,
      "upper": 10002,
      "##owa": 10003,
      "##vers": 10004,
      "##ply": 10005,
      "shop": 10006,
      "jon": 10007,
      "##olf": 10008,
      "carl": 10009,
      "##ming": 10010,
      "##hens": 10011,
      "ran": 10012,
      "les": 10013,
      "##aria": 10014,
      "committe": 10015,
      "czech": 10016,
      "##airs": 10017,
      "glac": 10018,
      "pomer": 10019,
      "##ien": 10020,
      "nomin": 10021,
      "malays": 10022,
      "rout": 10023,
      "##mad": 10024,
      "avenue": 10025,
      "alt": 10026,
      "1950": 10027,
      "##och": 10028,
      "##wor": 10029,
      "constitu": 10030,
      "iv": 10031,
      "ss": 10032,
      "##aching": 10033,
      "subur": 10034,
      "bac": 10035,
      "polish": 10036,
      "russia": 10037,
      "secretary": 10038,
      "heart": 10039,
      "principal": 10040,
      "ok": 10041,
      "##ried": 10042,
      "##abor": 10043,
      "complex": 10044,
      "beet": 10045,
      "1940": 10046,
      "avail": 10047,
      "##fielder": 10048,
      "northeast": 10049,
      "##lor": 10050,
      "finn": 10051,
      "howe": 10052,
      "##wa": 10053,
      "##bury": 10054,
      "import": 10055,
      "online": 10056,
      "##ause": 10057,
      "bow": 10058,
      "hills": 10059,
      "##ness": 10060,
      "bang": 10061,
      "##str": 10062,
      "francisco": 10063,
      "return": 10064,
      "##ective": 10065,
      "1947": 10066,
      "sav": 10067,
      "##ocese": 10068,
      "##bian": 10069,
      "boys": 10070,
      "fact": 10071,
      "appo": 10072,
      "ref": 10073,
      "##ste": 10074,
      "1949": 10075,
      "expl": 10076,
      "student": 10077,
      "passeng": 10078,
      "legislative": 10079,
      "fab": 10080,
      "pap": 10081,
      "store": 10082,
      "##ias": 10083,
      "recogn": 10084,
      "##ublin": 10085,
      "ball": 10086,
      "##aut": 10087,
      "##ores": 10088,
      "card": 10089,
      "##arp": 10090,
      "human": 10091,
      "fig": 10092,
      "##nd": 10093,
      "boston": 10094,
      "179": 10095,
      "##ila": 10096,
      "chain": 10097,
      "mater": 10098,
      "higher": 10099,
      "distributed": 10100,
      "##اد": 10101,
      "45": 10102,
      "##wide": 10103,
      "replac": 10104,
      "introduced": 10105,
      "maryland": 10106,
      "host": 10107,
      "available": 10108,
      "##ima": 10109,
      "##spec": 10110,
      "cas": 10111,
      "##zy": 10112,
      "novels": 10113,
      "awards": 10114,
      "sab": 10115,
      "congress": 10116,
      "dre": 10117,
      "##aly": 10118,
      "horror": 10119,
      "##edited": 10120,
      "colorado": 10121,
      "what": 10122,
      "publisher": 10123,
      "reviewed": 10124,
      "beh": 10125,
      "1951": 10126,
      "##olia": 10127,
      "restaur": 10128,
      "fc": 10129,
      "##famil": 10130,
      "##vd": 10131,
      "close": 10132,
      "studies": 10133,
      "body": 10134,
      "did": 10135,
      "subsidiary": 10136,
      "queens": 10137,
      "fur": 10138,
      "conserv": 10139,
      "heavy": 10140,
      "gal": 10141,
      "less": 10142,
      "1939": 10143,
      "better": 10144,
      "execut": 10145,
      "##istry": 10146,
      "billboard": 10147,
      "came": 10148,
      "making": 10149,
      "##onto": 10150,
      "vocal": 10151,
      "bh": 10152,
      "spain": 10153,
      "soviet": 10154,
      "bad": 10155,
      "become": 10156,
      "atlantic": 10157,
      "nick": 10158,
      "##rect": 10159,
      "##olution": 10160,
      "bell": 10161,
      "cert": 10162,
      "victoria": 10163,
      "jim": 10164,
      "##iate": 10165,
      "34": 10166,
      "neighbor": 10167,
      "surr": 10168,
      "butter": 10169,
      "mostly": 10170,
      "headquarters": 10171,
      "cin": 10172,
      "##ising": 10173,
      "cer": 10174,
      "##erous": 10175,
      "##ck": 10176,
      "esc": 10177,
      "##une": 10178,
      "notable": 10179,
      "##sc": 10180,
      "##omm": 10181,
      "##ivid": 10182,
      "battle": 10183,
      "mir": 10184,
      "sevent": 10185,
      "wel": 10186,
      "structure": 10187,
      "key": 10188,
      "snails": 10189,
      "##inet": 10190,
      "ath": 10191,
      "##ox": 10192,
      "maz": 10193,
      "##ably": 10194,
      "korean": 10195,
      "wars": 10196,
      "countries": 10197,
      "appl": 10198,
      "paper": 10199,
      "airline": 10200,
      "##phia": 10201,
      "arct": 10202,
      "feed": 10203,
      "founder": 10204,
      "ell": 10205,
      "master": 10206,
      "phys": 10207,
      "went": 10208,
      "gil": 10209,
      "comics": 10210,
      "wisc": 10211,
      "##family": 10212,
      "god": 10213,
      "whose": 10214,
      "##span": 10215,
      "lawyer": 10216,
      "committee": 10217,
      "lives": 10218,
      "silent": 10219,
      "wrote": 10220,
      "bulbophyllum": 10221,
      "##fly": 10222,
      "##onsin": 10223,
      "nepal": 10224,
      "##anz": 10225,
      "reported": 10226,
      "colon": 10227,
      "dor": 10228,
      "wisconsin": 10229,
      "tai": 10230,
      "paint": 10231,
      "##men": 10232,
      "bern": 10233,
      "influ": 10234,
      "##ounced": 10235,
      "ta": 10236,
      "ven": 10237,
      "santa": 10238,
      "##ought": 10239,
      "##head": 10240,
      "working": 10241,
      "spons": 10242,
      "##ography": 10243,
      "##oe": 10244,
      "greater": 10245,
      "philadel": 10246,
      "ariz": 10247,
      "##ership": 10248,
      "##iple": 10249,
      "toronto": 10250,
      "undergr": 10251,
      "##aph": 10252,
      "hits": 10253,
      "##eman": 10254,
      "##aya": 10255,
      "girl": 10256,
      "37": 10257,
      "die": 10258,
      "prominent": 10259,
      "adm": 10260,
      "medium": 10261,
      "##ram": 10262,
      "##rug": 10263,
      "events": 10264,
      "weekly": 10265,
      "retail": 10266,
      "charl": 10267,
      "brothers": 10268,
      "however": 10269,
      "sciences": 10270,
      "oak": 10271,
      "philadelphia": 10272,
      "enc": 10273,
      "basket": 10274,
      "##ute": 10275,
      "sri": 10276,
      "toget": 10277,
      "representative": 10278,
      "peru": 10279,
      "##play": 10280,
      "resident": 10281,
      "together": 10282,
      "individ": 10283,
      "destroyer": 10284,
      "self": 10285,
      "eff": 10286,
      "ash": 10287,
      "fresh": 10288,
      "mob": 10289,
      "##ids": 10290,
      "activ": 10291,
      "insp": 10292,
      "separ": 10293,
      "food": 10294,
      "cla": 10295,
      "arizona": 10296,
      "et": 10297,
      "hom": 10298,
      "##gen": 10299,
      "veh": 10300,
      "habitats": 10301,
      "piny": 10302,
      "sequ": 10303,
      "affiliated": 10304,
      "louisiana": 10305,
      "rivers": 10306,
      "wingspan": 10307,
      "##burgh": 10308,
      "##most": 10309,
      "1936": 10310,
      "##osa": 10311,
      "signed": 10312,
      "gram": 10313,
      "mcc": 10314,
      "##ucky": 10315,
      "systems": 10316,
      "enroll": 10317,
      "jeff": 10318,
      "annual": 10319,
      "38": 10320,
      "hip": 10321,
      "##acy": 10322,
      "beng": 10323,
      "wife": 10324,
      "material": 10325,
      "jul": 10326,
      "##imb": 10327,
      "##aries": 10328,
      "##icated": 10329,
      "##illa": 10330,
      "liberal": 10331,
      "any": 10332,
      "moths": 10333,
      "42": 10334,
      "##eg": 10335,
      "##onym": 10336,
      "##yard": 10337,
      "andrew": 10338,
      "##porary": 10339,
      "prime": 10340,
      "pinyin": 10341,
      "##ects": 10342,
      "joined": 10343,
      "pod": 10344,
      "##aki": 10345,
      "financial": 10346,
      "##uten": 10347,
      "copies": 10348,
      "prop": 10349,
      "autom": 10350,
      "##ensive": 10351,
      "programs": 10352,
      "pian": 10353,
      "woman": 10354,
      "read": 10355,
      "##wings": 10356,
      "boy": 10357,
      "##olds": 10358,
      "information": 10359,
      "placed": 10360,
      "##tic": 10361,
      "##ults": 10362,
      "because": 10363,
      "graduate": 10364,
      "female": 10365,
      "fleet": 10366,
      "surround": 10367,
      "##rey": 10368,
      "hungarian": 10369,
      "##cast": 10370,
      "roof": 10371,
      "larv": 10372,
      "captain": 10373,
      "queen": 10374,
      "position": 10375,
      "dvd": 10376,
      "patrol": 10377,
      "nev": 10378,
      "19th": 10379,
      "variety": 10380,
      "##ava": 10381,
      "##akh": 10382,
      "bron": 10383,
      "##rich": 10384,
      "space": 10385,
      "contract": 10386,
      "plan": 10387,
      "azer": 10388,
      "1918": 10389,
      "fun": 10390,
      "property": 10391,
      "mean": 10392,
      "individual": 10393,
      "crime": 10394,
      "ru": 10395,
      "ce": 10396,
      "libr": 10397,
      "basketball": 10398,
      "##idence": 10399,
      "pictures": 10400,
      "contem": 10401,
      "mexican": 10402,
      "reached": 10403,
      "gall": 10404,
      "##oul": 10405,
      "##estan": 10406,
      "operating": 10407,
      "reservoir": 10408,
      "branch": 10409,
      "bob": 10410,
      "naval": 10411,
      "scotland": 10412,
      "today": 10413,
      "cultiv": 10414,
      "##oo": 10415,
      "jac": 10416,
      "downtown": 10417,
      "daniel": 10418,
      "inf": 10419,
      "##ales": 10420,
      "summit": 10421,
      "composed": 10422,
      "fa": 10423,
      "##tor": 10424,
      "purch": 10425,
      "minor": 10426,
      "cant": 10427,
      "##bridge": 10428,
      "jer": 10429,
      "led": 10430,
      "azerbai": 10431,
      "od": 10432,
      "niger": 10433,
      "medic": 10434,
      "matt": 10435,
      "##win": 10436,
      "roll": 10437,
      "rod": 10438,
      "##inea": 10439,
      "stores": 10440,
      "serbian": 10441,
      "1919": 10442,
      "senator": 10443,
      "brazilian": 10444,
      "39": 10445,
      "cape": 10446,
      "som": 10447,
      "offices": 10448,
      "malaysia": 10449,
      "tenness": 10450,
      "luc": 10451,
      "ox": 10452,
      "seasons": 10453,
      "amb": 10454,
      "folk": 10455,
      "ach": 10456,
      "deep": 10457,
      "80": 10458,
      "##vir": 10459,
      "##oms": 10460,
      "##je": 10461,
      "tennessee": 10462,
      "fern": 10463,
      "1938": 10464,
      "rain": 10465,
      "sax": 10466,
      "foundation": 10467,
      "appointed": 10468,
      "##iven": 10469,
      "digital": 10470,
      "larvae": 10471,
      "inn": 10472,
      "attended": 10473,
      "##ea": 10474,
      "others": 10475,
      "collabor": 10476,
      "test": 10477,
      "##dy": 10478,
      "arabic": 10479,
      "syd": 10480,
      "theatre": 10481,
      "psych": 10482,
      "glacier": 10483,
      "cand": 10484,
      "jackson": 10485,
      "locomotive": 10486,
      "past": 10487,
      "quar": 10488,
      "industrial": 10489,
      "nine": 10490,
      "##ji": 10491,
      "every": 10492,
      "lived": 10493,
      "1937": 10494,
      "##ycle": 10495,
      "##odz": 10496,
      "##hib": 10497,
      "##asht": 10498,
      "##ining": 10499,
      "staff": 10500,
      "surf": 10501,
      "sponsored": 10502,
      "swit": 10503,
      "##imed": 10504,
      "block": 10505,
      "mixed": 10506,
      "operations": 10507,
      "moon": 10508,
      "bos": 10509,
      "dom": 10510,
      "##ux": 10511,
      "1928": 10512,
      "jean": 10513,
      "##orpor": 10514,
      "cra": 10515,
      "indonesia": 10516,
      "entered": 10517,
      "##ouri": 10518,
      "ast": 10519,
      "ark": 10520,
      "worldwide": 10521,
      "midfielder": 10522,
      "performance": 10523,
      "foreign": 10524,
      "territ": 10525,
      "another": 10526,
      "ba": 10527,
      "##hs": 10528,
      "##kee": 10529,
      "##jo": 10530,
      "standard": 10531,
      "##ned": 10532,
      "1980s": 10533,
      "distribution": 10534,
      "##tu": 10535,
      "##tim": 10536,
      "airport": 10537,
      "anton": 10538,
      "pred": 10539,
      "pot": 10540,
      "specializ": 10541,
      "ess": 10542,
      "southeastern": 10543,
      "addition": 10544,
      "lieuten": 10545,
      "view": 10546,
      "##rd": 10547,
      "1930": 10548,
      "pup": 10549,
      "neighborhood": 10550,
      "##ez": 10551,
      "publication": 10552,
      "lieutenant": 10553,
      "##house": 10554,
      "iron": 10555,
      "dub": 10556,
      "kir": 10557,
      "saw": 10558,
      "##xt": 10559,
      "chile": 10560,
      "diam": 10561,
      "mother": 10562,
      "##ances": 10563,
      "1934": 10564,
      "frame": 10565,
      "##ump": 10566,
      "web": 10567,
      "promot": 10568,
      "access": 10569,
      "##val": 10570,
      "technical": 10571,
      "70": 10572,
      "pract": 10573,
      "fro": 10574,
      "contemporary": 10575,
      "fund": 10576,
      "lear": 10577,
      "##ourne": 10578,
      "waters": 10579,
      "cargo": 10580,
      "##don": 10581,
      "##lywood": 10582,
      "korea": 10583,
      "sydney": 10584,
      "oil": 10585,
      "##mont": 10586,
      "executive": 10587,
      "athlet": 10588,
      "##rian": 10589,
      "jones": 10590,
      "##eli": 10591,
      "taiwan": 10592,
      "trade": 10593,
      "1935": 10594,
      "leaf": 10595,
      "steel": 10596,
      "lin": 10597,
      "##arm": 10598,
      "##ken": 10599,
      "consist": 10600,
      "invol": 10601,
      "rose": 10602,
      "##otyp": 10603,
      "origin": 10604,
      "alternative": 10605,
      "via": 10606,
      "usually": 10607,
      "##wick": 10608,
      "##aped": 10609,
      "element": 10610,
      "##icut": 10611,
      "dipl": 10612,
      "##ira": 10613,
      "arth": 10614,
      "1920": 10615,
      "sister": 10616,
      "dj": 10617,
      "golden": 10618,
      "blues": 10619,
      "##ui": 10620,
      "train": 10621,
      "counties": 10622,
      "dun": 10623,
      "lank": 10624,
      "cut": 10625,
      "winter": 10626,
      "##0000": 10627,
      "global": 10628,
      "1929": 10629,
      "latin": 10630,
      "passenger": 10631,
      "colom": 10632,
      "41": 10633,
      "race": 10634,
      "##nia": 10635,
      "maine": 10636,
      "volume": 10637,
      "designated": 10638,
      "##real": 10639,
      "force": 10640,
      "ded": 10641,
      "##ending": 10642,
      "grey": 10643,
      "important": 10644,
      "queensland": 10645,
      "kerman": 10646,
      "isra": 10647,
      "20th": 10648,
      "nevada": 10649,
      "##mas": 10650,
      "iowa": 10651,
      "viet": 10652,
      "1970s": 10653,
      "missouri": 10654,
      "kentucky": 10655,
      "mission": 10656,
[...]
