[UNK]
[PAD]
[CLS]
[SEP]
[MASK]
!
#
$
%
&
'
(
)
*
+
,
-
.
/
0
1
2
3
4
5
6
7
8
9
:
;
<
=
>
?
@
[
\
]
^
_
`
a
b
c
d
e
f
g
h
i
j
k
l
m
n
o
p
q
r
s
t
u
v
w
x
y
z
{
|
}
~
¡
¢
£
¥
§
¨
©
ª
«
¬
®
°
±
²
³
´
µ
·
¹
º
»
¼
½
¾
¿
×
ß
æ
ð
÷
ø
þ
đ
ħ
ı
ĳ
ł
ŋ
œ
ƶ
ǀ
ǁ
ǂ
ǃ
ȷ
ɐ
ɑ
ɒ
ɓ
ɔ
ɕ
ɖ
ɘ
ə
ɚ
ɛ
ɜ
ɝ
ɟ
ɡ
ɣ
ɤ
ɥ
ɦ
ɧ
ɨ
ɪ
ɫ
ɬ
ɭ
ɮ
ɯ
ɰ
ɲ
ɳ
ɴ
ɵ
ɸ
ɹ
ɻ
ɽ
ɾ
ʀ
ʁ
ʂ
ʃ
ʈ
ʉ
ʊ
ʋ
ʌ
ʍ
ʎ
ʏ
ʐ
ʑ
ʒ
ʔ
ʕ
ʝ
ʣ
ʤ
ʥ
ʦ
ʧ
ʨ
ʰ
ʱ
ʲ
ʷ
ʸ
ʹ
ʻ
ʼ
ʾ
ʿ
ˀ
ˇ
ˈ
ˊ
ˋ
ˌ
ː
ˑ
˙
˚
ˠ
ˢ
ˤ
˥
˧
˨
˩
ˮ
α
β
γ
δ
ε
ζ
η
θ
ι
κ
λ
μ
ν
ξ
ο
π
ρ
ς
σ
τ
υ
φ
χ
ψ
ω
ϕ
ϣ
ϯ
а
б
в
г
д
е
ж
з
и
к
л
м
н
о
п
р
с
т
у
ф
х
ц
ч
ш
щ
ъ
ы
ь
э
ю
я
ђ
є
і
ј
љ
њ
ћ
џ
ѣ
ѳ
ґ
ғ
ҕ
ҙ
қ
ҟ
ҡ
ң
ҥ
ҧ
ҭ
ү
ұ
ҳ
ҵ
ҷ
ҹ
һ
ӏ
ӕ
ә
ө
ӷ
ԥ
ա
բ
գ
դ
ե
զ
է
ը
թ
ժ
ի
լ
խ
ծ
կ
հ
ձ
ղ
ճ
մ
յ
ն
շ
ո
չ
պ
ջ
ռ
ս
վ
տ
ր
ց
ւ
փ
ք
օ
ֆ
և
־
א
ב
ג
ד
ה
ו
ז
ח
ט
י
ך
כ
ל
ם
מ
ן
נ
ס
ע
ף
פ
ץ
צ
ק
ר
ש
ת
װ
ײ
״
،
؛
؟
ء
ا
ب
ة
ت
ث
ج
ح
خ
د
ذ
ر
ز
س
ش
ص
ض
ط
ظ
ع
غ
ـ
ف
ق
ك
ل
م
ن
ه
و
ى
ي
٠
١
٢
٣
٤
٦
٧
٩
ٮ
ٱ
ٹ
ٻ
ټ
ٽ
پ
ڀ
ڄ
څ
چ
ڇ
ڈ
ډ
ڊ
ڌ
ڍ
ڏ
ڑ
ړ
ژ
ڙ
ښ
ڛ
ڠ
ڢ
ڤ
ڥ
ڨ
ک
ڪ
ګ
ڬ
ڭ
گ
ڱ
ڵ
ڶ
ں
ڻ
ھ
ہ
ۃ
ۆ
ۇ
ۈ
ۋ
ی
ۍ
ێ
ۏ
ې
ے
۔
ە
۱
۲
۳
۵
۷
۸
۽
ܐ
ܒ
ܓ
ܕ
ܗ
ܘ
ܙ
ܚ
ܛ
ܝ
ܟ
ܠ
ܡ
ܢ
ܣ
ܥ
ܦ
ܩ
ܪ
ܬ
ݒ
ݣ
ހ
ނ
ރ
ބ
ޅ
ކ
އ
ވ
މ
ފ
ދ
ތ
ލ
ގ
ސ
ޑ
ޒ
ޓ
ޔ
ޖ
ޙ
ޝ
ޢ
ޤ
ः
अ
आ
इ
ई
उ
ऊ
ऋ
ए
ऐ
ऑ
ओ
औ
क
ख
ग
घ
ङ
च
छ
ज
झ
ञ
ट
ठ
ड
ढ
ण
त
थ
द
ध
न
प
फ
ब
भ
म
य
र
ल
ळ
व
श
ष
स
ह
ा
ि
ी
ॉ
ो
ौ
०
२
३
॰
ং
ঃ
অ
আ
ই
ঈ
উ
ঊ
এ
ও
ক
খ
গ
ঘ
ঙ
চ
ছ
জ
ঝ
ঞ
ট
ঠ
ড
ঢ
ণ
ত
থ
দ
ধ
ন
প
ফ
ব
ভ
ম
য
র
ল
শ
ষ
স
হ
া
ি
ী
ে
ৈ
ৎ
ৗ
০
১
২
৩
৭
৮
৯
ৰ
ৱ
ਅ
ਆ
ਇ
ਈ
ਉ
ਏ
ਕ
ਖ
ਗ
ਘ
ਚ
ਛ
ਜ
ਝ
ਟ
ਠ
ਡ
ਣ
ਤ
ਥ
ਦ
ਧ
ਨ
ਪ
ਫ
ਬ
ਭ
ਮ
ਯ
ਰ
ਲ
ਵ
ਸ
ਹ
ਾ
ਿ
ੀ
ੜ
અ
ઇ
ઈ
ક
ખ
ગ
ચ
જ
ટ
ઠ
ડ
ઢ
ણ
ત
થ
દ
ધ
ન
પ
બ
ભ
મ
ય
ર
લ
ળ
વ
શ
ષ
સ
હ
ા
િ
ી
ો
ૌ
ଂ
ଅ
ଆ
ଇ
ଉ
ଏ
ଓ
କ
ଖ
ଗ
ଘ
ଙ
ଚ
ଜ
ଝ
ଞ
ଟ
ଠ
ଡ
ଢ
ଣ
ତ
ଥ
ଦ
ଧ
ନ
ପ
ଫ
ବ
ଭ
ମ
ଯ
ର
ଲ
ଳ
ଵ
ଶ
ଷ
ସ
ହ
ା
ୀ
େ
ୗ
ୟ
ୱ
ஃ
அ
ஆ
இ
ஈ
உ
ஊ
எ
ஏ
ஐ
ஒ
ஓ
க
ங
ச
ஜ
ஞ
ட
ண
த
ந
ன
ப
ம
ய
ர
ற
ல
ள
ழ
வ
ஷ
ஸ
ஹ
ா
ி
ு
ூ
ெ
ே
ை
ௗ
ం
అ
ఆ
ఇ
ఈ
ఉ
ఎ
ఏ
ఐ
ఒ
ఓ
క
ఖ
గ
ఘ
ఙ
చ
జ
ఞ
ట
ఠ
డ
ణ
త
థ
ద
ధ
న
ప
ఫ
బ
భ
మ
య
ర
ఱ
ల
ళ
వ
శ
ష
స
హ
ు
ూ
ృ
౦
ಂ
ಅ
ಆ
ಇ
ಈ
ಉ
ಎ
ಏ
ಐ
ಒ
ಓ
ಕ
ಖ
ಗ
ಘ
ಚ
ಛ
ಜ
ಞ
ಟ
ಠ
ಡ
ಣ
ತ
ಥ
ದ
ಧ
ನ
ಪ
ಫ
ಬ
ಭ
ಮ
ಯ
ರ
ಲ
ಳ
ವ
ಶ
ಷ
ಸ
ಹ
ಾ
ು
ೂ
ೃ
ೕ
ೖ
೦
೯
ം
അ
ആ
ഇ
ഈ
ഉ
ഊ
ഋ
എ
ഏ
ഐ
ഒ
ഓ
ക
ഖ
ഗ
ങ
ച
ഛ
ജ
ഞ
ട
ഠ
ഡ
ണ
ത
ഥ
ദ
ധ
ന
പ
ഫ
ബ
ഭ
മ
യ
ര
റ
ല
ള
ഴ
വ
ശ
ഷ
സ
ഹ
ാ
ി
ീ
െ
േ
ൈ
ൗ
൪
ൺ
ൻ
ർ
ൽ
ൾ
ං
අ
ආ
ඇ
ඉ
උ
ඌ
එ
ඒ
ඔ
ක
ග
ඝ
ඞ
ඟ
ච
ජ
ට
ඨ
ඩ
ණ
ත
ථ
ද
ධ
න
ඳ
ප
බ
භ
ම
ඹ
ය
ර
ල
ව
ශ
ෂ
ස
හ
ළ
ෆ
ා
ැ
ෑ
ෙ
ෟ
ก
ข
ค
ฅ
ฆ
ง
จ
ฉ
ช
ซ
ญ
ฎ
ฏ
ฐ
ฑ
ฒ
ณ
ด
ต
ถ
ท
ธ
น
บ
ป
ผ
ฝ
พ
ฟ
ภ
ม
ย
ร
ฤ
ล
ว
ศ
ษ
ส
ห
ฬ
อ
ฮ
ฯ
ะ
า
ำ
เ
แ
โ
ใ
ไ
ກ
ຄ
ງ
ຈ
ຊ
ຍ
ດ
ຕ
ທ
ນ
ບ
ຝ
ພ
ມ
ຢ
ລ
ວ
ສ
ຫ
ອ
ຮ
ະ
າ
ຳ
ຽ
ເ
ໂ
ໃ
ໄ
་
།
ཀ
ཁ
ག
ང
ཆ
ཇ
ཉ
ཏ
ཐ
ད
ན
པ
ཕ
བ
མ
ཙ
ཚ
ཛ
ཟ
འ
ཡ
ར
ལ
ཤ
ས
ཨ
က
ခ
ဂ
င
စ
ဆ
ဇ
ဈ
ဉ
ည
ဋ
ဌ
ဏ
တ
ထ
ဒ
ဓ
န
ပ
ဖ
ဗ
ဘ
မ
ယ
ရ
လ
ဝ
သ
ဟ
ဠ
အ
ဥ
ဧ
ါ
ာ
ေ
း
ျ
ြ
၁
၂
၃
၄
၅
၆
၉
၊
၏
ၿ
ႏ
ა
ბ
გ
დ
ე
ვ
ზ
თ
ი
კ
ლ
მ
ნ
ო
პ
ჟ
რ
ს
ტ
უ
ფ
ქ
ღ
ყ
შ
ჩ
ც
ძ
წ
ჭ
ხ
ჯ
ჰ
ᄀ
ᄁ
ᄂ
ᄃ
ᄄ
ᄅ
ᄆ
ᄇ
ᄈ
ᄉ
ᄊ
ᄋ
ᄌ
ᄍ
ᄎ
ᄏ
ᄐ
ᄑ
ᄒ
ᅡ
ᅢ
ᅣ
ᅥ
ᅦ
ᅧ
ᅨ
ᅩ
ᅪ
ᅫ
ᅬ
ᅭ
ᅮ
ᅯ
ᅰ
ᅱ
ᅲ
ᅳ
ᅴ
ᅵ
ᆨ
ᆫ
ᆭ
ᆮ
ᆯ
ᆰ
ᆶ
ᆷ
ᆸ
ᆹ
ᆺ
ᆻ
ᆼ
ᆽ
ᆾ
ᇀ
ᇁ
ᇂ
ሀ
ሁ
ሃ
ሄ
ህ
ሆ
ለ
ሉ
ሊ
ላ
ል
ሐ
ሓ
ሕ
መ
ሙ
ሚ
ማ
ሜ
ም
ሞ
ሠ
ሣ
ረ
ሩ
ሪ
ራ
ሬ
ር
ሮ
ሰ
ሱ
ሲ
ሳ
ሴ
ስ
ሶ
ሸ
ሻ
ሾ
ቀ
ቂ
ቅ
በ
ቡ
ቢ
ባ
ብ
ቨ
ተ
ቱ
ቲ
ታ
ቴ
ት
ቶ
ቸ
ች
ኃ
ኋ
ነ
ኒ
ና
ን
ኖ
ኝ
አ
ኢ
ኣ
ኤ
እ
ከ
ኩ
ኪ
ካ
ክ
ኮ
ኸ
ወ
ዊ
ዋ
ው
ዎ
ዓ
ዕ
ዜ
ዝ
ዢ
የ
ዩ
ያ
ይ
ዮ
ደ
ዲ
ዳ
ዴ
ድ
ዸ
ዻ
ጀ
ጆ
ገ
ጉ
ጊ
ጋ
ጌ
ግ
ጣ
ጤ
ጥ
ጨ
ጵ
ጻ
ጽ
ፅ
ፈ
ፍ
ፕ
፡
፭
፻
ᐃ
ᐅ
ᐊ
ᐋ
ᐣ
ᐦ
ᐧ
ᐱ
ᐲ
ᐳ
ᐸ
ᑉ
ᑎ
ᑐ
ᑕ
ᑦ
ᑫ
ᑭ
ᑯ
ᑰ
ᑲ
ᒃ
ᒌ
ᒥ
ᒦ
ᒪ
ᓂ
ᓄ
ᓅ
ᓇ
ᓐ
ᓕ
ᓗ
ᓛ
ᓪ
ᓯ
ᓱ
ᓲ
ᓴ
ᔨ
ᔩ
ᔪ
ᔾ
ᕆ
ᕇ
ᕈ
ᕋ
ᕐ
ᕕ
ᕗ
ᕙ
ᕝ
ᖀ
ᖁ
ᖃ
ᖅ
ᖏ
ᖓ
ក
ខ
គ
ឃ
ង
ច
ឆ
ជ
ឈ
ញ
ដ
ឋ
ឌ
ណ
ត
ថ
ទ
ធ
ន
ប
ផ
ព
ភ
ម
យ
រ
ល
វ
ស
ហ
ឡ
អ
ា
ើ
ឿ
ៀ
េ
ែ
ៃ
ោ
ៅ
ះ
ᠠ
ᠡ
ᠢ
ᠣ
ᠤ
ᠥ
ᠦ
ᠨ
ᠩ
ᠪ
ᠭ
ᠯ
ᠰ
ᠲ
ᠴ
ᠶ
ᠷ
ᠸ
ᠺ
ᡝ
ᡞ
ᡠ
ᡡ
ᡣ
ᡤ
ᡥ
ᡧ
ᡳ
ᡴ
ᡵ
ᡶ
ᴀ
ᴇ
ᴋ
ᶞ
‐
‑
‒
–
—
―
‘
’
‚
‛
“
”
„
†
•
…
‰
′
″
‼
‿
⁄
⁊
ⁱ
⁴
⁵
⁶
⁽
⁾
ⁿ
₤
₧
₨
₩
€
₳
₵
℃
№
™
⅓
⅔
⅛
⅜
⅝
ⅱ
ⅳ
ⅴ
←
↑
→
↓
↔
∀
∃
∏
−
∙
√
∞
∧
≈
≤
⋅
⎯
①
③
⑧
⑬
─
□
◆
○
●
★
☆
♀
♂
♙
♠
♣
♥
♦
♪
♭
♯
ⲁ
ⲃ
ⲅ
ⲇ
ⲉ
ⲏ
ⲑ
ⲓ
ⲕ
ⲗ
ⲙ
ⲛ
ⲝ
ⲟ
ⲡ
ⲣ
ⲥ
ⲧ
ⲩ
ⲫ
ⲭ
ⲱ
⳿
ⴰ
ⴽ
ⵉ
ⵏ
ⵛ
ⵜ
ⵣ
、
。
々
〇
〈
〉
《
》
「
」
『
』
【
】
〜
ぁ
あ
ぃ
い
う
ぇ
え
お
か
き
く
け
こ
さ
し
す
せ
そ
た
ち
っ
つ
て
と
な
に
ぬ
ね
の
は
ひ
ふ
へ
ほ
ま
み
む
め
も
ゃ
や
ゅ
ゆ
ょ
よ
ら
り
る
れ
ろ
わ
ゐ
ゑ
を
ん
ゝ
ァ
ア
ィ
イ
ゥ
ウ
ェ
エ
ォ
オ
カ
キ
ク
ケ
コ
サ
シ
ス
セ
ソ
タ
チ
ッ
ツ
テ
ト
ナ
ニ
ヌ
ネ
ノ
ハ
ヒ
フ
ヘ
ホ
マ
ミ
ム
メ
モ
ャ
ヤ
ュ
ユ
ョ
ヨ
ラ
リ
ル
レ
ロ
ワ
ヱ
ヲ
ン
ヶ
・
ー
ㄅ
ㄈ
ㄍ
ㄎ
ㄖ
ㄛ
ㄠ
ㄨ
ㄩ
ㅎ
ㇰ
㈜
㋮
㎡
一
丁
七
万
丈
三
上
下
不
与
专
世
丘
丙
业
丛
东
丝
丞
両
两
严
並
个
中
丰
串
临
丸
丹
为
主
丽
乃
久
么
义
之
乌
乍
乎
乏
乐
乔
乗
乙
九
乞
也
乡
书
买
乱
乳
乾
亀
了
予
争
事
二
于
云
互
五
井
亘
亚
些
亜
亞
亡
亢
交
亦
产
亨
亩
享
京
亭
亮
亲
人
什
仁
仄
仆
仇
今
介
仏
仑
仓
仔
仕
他
付
仙
代
令
以
仪
们
仮
仰
仲
件
任
份
仿
企
伊
伍
伏
休
众
优
伙
会
伝
伟
传
伦
伯
估
伴
伶
伸
似
伽
位
低
住
佐
佑
体
何
余
佛
作
你
佩
佰
佳
使
侃
來
侍
侑
侚
供
依
侠
価
侣
侨
侯
侵
侶
便
係
俊
俎
俏
俗
俚
保
俞
俠
信
俣
俩
俬
俭
修
俯
俵
俺
倉
個
倍
們
倖
候
借
倩
倪
倫
倶
倾
假
偉
偕
做
停
健
側
偵
偷
偽
傅
傑
備
傢
储
傳
傷
僊
働
像
僑
僕
僚
僧
僮
儀
億
儒
優
儲
儷
儿
允
元
兄
充
兆
先
光
克
兎
児
兒
兖
兗
党
兜
入
內
全
兩
八
公
六
兰
共
关
兴
兵
其
具
典
兹
养
兼
冀
内
円
冈
冊
再
冑
冒
写
军
农
冠
冢
冥
冨
冬
冯
冰
冲
决
冴
冶
冷
凄
准
凉
凌
凍
凛
凝
凡
凤
処
凧
凪
凯
凰
凱
凶
凸
出
击
函
刀
刁
刃
分
切
刈
刊
刑
划
列
刘
则
刚
创
初
判
別
利
别
刮
到
制
刷
券
刹
刺
刻
則
削
剋
剌
前
剑
剛
剣
剧
剪
剱
創
劃
劇
劉
劍
劒
力
办
功
加
务
劣
动
助
努
劳
労
効
势
勁
勅
勇
勉
勋
勒
動
勘
務
勝
勞
勢
勤
勧
勰
勲
勳
勿
匂
包
化
北
匙
匠
匡
匣
匪
匯
匹
区
医
區
十
千
升
午
卉
半
华
协
卑
卒
卓
協
单
南
単
博
卜
占
卡
卢
卫
卯
印
危
却
卿
厂
历
厚
厝
原
厦
厨
厲
厳
去
县
参
參
又
叉
及
友
双
反
収
发
叔
取
受
变
叡
叢
口
古
只
叫
召
可
台
史
右
叶
号
司
叹
吁
吃
各
合
吉
吊
同
名
后
吏
向
吒
吔
吕
君
吞
吟
吧
启
吳
吴
吶
吸
吹
吻
吼
吾
呀
呂
呉
告
呑
呖
员
周
呪
呱
味
呼
命
咀
和
咎
咕
咖
咪
咲
咳
咸
哀
品
哈
哉
响
員
哥
哨
哪
哭
哮
哲
唄
唇
唐
唔
唯
唱
商
啊
問
啓
啟
啡
啤
啦
啮
啲
啸
啼
喀
喃
善
喆
喇
喊
喋
喘
喚
喜
喧
喪
喫
喬
單
喰
営
喷
喻
嗎
嗣
嘆
嘉
嘎
嘘
嘩
嘯
嘴
噂
噛
器
噴
嚴
囁
囃
囍
囚
四
回
囡
团
団
囧
园
囲
図
围
国
图
圃
圆
國
圍
圏
園
圓
圖
團
圜
土
圣
圧
在
圩
圭
地
圳
场
圻
址
坂
均
坊
坑
块
坚
坝
坡
坤
坪
型
垠
垣
埈
城
埔
域
埠
埤
執
培
基
埻
埼
堀
堂
堅
堆
堇
堕
堡
堤
堯
堰
報
場
堺
塌
塑
塔
塘
塚
塩
塵
塾
境
墅
墉
墓
増
增
墟
墨
墩
墮
墳
墾
壁
壇
壊
壞
壢
壤
士
壬
壮
壯
声
壱
売
壶
壹
壺
壽
备
変
复
夏
夕
外
夙
多
夜
够
夢
大
天
太
夫
央
失
头
夷
夺
奀
奇
奈
奉
奋
奎
奏
契
奔
奕
奖
套
奥
奧
奨
奪
奮
女
奴
奶
她
好
如
妃
妄
妇
妈
妓
妖
妙
妞
妤
妮
妳
妹
妻
姆
姉
姊
始
姐
姑
姓
委
姚
姜
姦
姫
姬
姶
姸
姻
姿
威
娃
娄
娇
娘
娛
娜
娟
娥
娱
娴
娼
婆
婉
婕
婚
婦
婴
婷
媒
媚
媛
媽
嫁
嫂
嫌
嫻
嬅
嬌
嬢
嬰
孃
子
孔
孖
字
存
孙
孛
孜
孝
孟
季
孤
学
孩
孫
學
孽
宁
宅
宇
守
安
宋
完
宍
宏
宕
宗
官
宙
定
宛
宜
宝
实
実
宠
审
客
宣
室
宥
宪
宫
宮
宰
害
宴
宵
家
容
宽
宾
宿
寂
寄
寅
密
寇
富
寒
寓
寛
寝
寞
察
實
寧
寨
審
寫
寬
寮
寰
寳
寵
寶
对
寺
导
対
寿
封
専
射
将
將
專
尉
尊
尋
對
導
小
少
尔
尕
尖
尙
尚
尤
尧
就
尹
尻
尼
尽
尾
尿
局
层
居
屈
届
屋
屍
屏
展
属
屠
層
履
屬
屯
山
岁
岐
岑
岔
岚
岛
岡
岩
岬
岭
岱
岳
岷
岸
峙
峠
峡
峨
峩
峯
峰
島
峻
峽
崃
崇
崍
崎
崑
崔
崖
崗
崙
崛
崴
嵋
嵌
嵐
嵜
嵩
嵯
嶋
嶌
嶺
嶽
巌
巍
巖
川
州
巡
巢
巣
工
左
巧
巨
巫
差
己
已
巳
巴
巻
巽
币
市
布
帅
帆
师
希
帖
帝
帥
带
師
席
帯
帰
帳
帶
常
帽
幅
幌
幕
幗
幡
幣
幫
干
平
年
幸
幹
幻
幼
幽
广
庁
広
庄
庆
庇
床
序
庐
库
应
底
店
庙
庚
府
庞
度
座
庫
庭
庵
康
庸
庾
廂
廈
廉
廊
廖
廚
廟
廠
廣
廬
廳
延
廷
建
廻
开
弁
异
弋
式
弐
弓
弔
引
弗
弘
弛
弟
张
弥
弦
弯
弱
張
強
强
弼
弾
彅
彊
彌
彎
归
当
录
彗
形
彤
彥
彦
彩
彪
彬
彭
彰
影
役
彻
彼
征
待
很
律
後
徐
徒
従
得
從
御
復
循
微
徳
徵
德
徹
徽
心
必
忌
忍
志
忘
応
忠
快
忱
念
忻
怀
怒
怖
怜
思
怡
急
性
怨
怪
总
恆
恋
恐
恒
恥
恨
恩
恭
息
恵
恺
恽
悅
悚
悟
悠
患
悦
悩
悪
悲
悶
悼
情
惊
惑
惕
惜
惟
惠
惨
想
惹
愁
愈
意
愚
愛
感
愷
愿
慄
慈
態
慎
慕
慢
慣
慧
慬
慰
慶
慾
憂
憎
憐
憚
憧
憫
憲
憶
應
懷
戀
戈
戏
成
我
戒
或
战
戚
戟
戦
戯
戰
戲
戴
戸
房
所
扁
扇
扉
手
才
扎
打
扦
扬
扭
扮
扰
扶
批
找
承
技
抄
把
抑
投
抗
折
抚
択
报
披
抱
押
拉
拍
拐
拓
拔
拖
拙
招
拜
拝
拠
拡
拥
拯
拳
拼
拾
拿
持
指
挑
挙
挚
挪
振
挺
捉
捐
捕
捜
捧
捨
捷
掃
授
掌
排
掛
採
探
控
推
措
描
提
插
揖
揚
揮
援
揺
損
搜
搞
携
摂
摇
摘
摩
摯
摸
摺
撃
撒
撞
撫
播
撮
撰
撲
擂
擊
操
擱
支
收
改
攻
放
政
故
敎
敏
救
敖
敗
教
敛
敢
散
敦
敬
数
整
敵
敷
數
文
斉
斋
斌
斎
斐
斑
斗
料
斛
斜
斬
断
斯
新
斷
方
於
施
旅
旋
族
旗
旛
无
日
旦
旧
早
旬
旭
时
旺
旻
昀
昂
昆
昇
昊
昌
明
昏
易
昔
昕
星
映
春
昧
昭
是
昱
昴
昼
時
晃
晉
晋
晏
晓
晔
晖
晚
晟
晨
普
景
晴
晶
智
暁
暉
暎
暑
暖
暗
暢
暦
暨
暫
暮
暴
曄
曉
曙
曜
曦
曲
曳
更
書
曹
曺
曼
曽
曾
替
最
會
月
有
朋
服
朔
朗
望
朝
期
朦
木
未
末
本
札
术
朱
朴
朵
机
杀
杂
权
杄
杉
李
杏
材
村
杜
杞
束
条
来
杨
杭
杯
杰
東
杵
杻
松
板
极
构
析
枕
林
枚
果
枝
枢
枣
枥
枪
枫
枭
枯
架
枸
柄
柊
柏
柑
染
柔
柘
柚
柞
柠
查
柯
柱
柳
柴
査
柾
柿
栂
栃
栄
标
栋
栎
树
栖
栗
栘
栝
校
株
核
根
格
栾
桂
桃
案
桐
桑
桜
桢
档
桥
桦
桧
桶
梁
梅
梓
條
梠
梢
梦
梨
梭
梯
械
梶
棄
棉
棋
棍
棒
棕
棘
棟
棠
棣
森
棱
棲
棵
棺
椋
植
椎
椒
椙
検
椰
椴
椿
楂
楊
楓
楔
楚
楝
楠
楢
楨
業
極
楸
楼
楽
榈
榉
榊
榎
榕
榛
榜
榧
榮
榴
槇
構
槍
槐
様
槙
槟
槻
槽
樂
樅
樊
樋
樑
樒
樓
樗
標
樟
模
樣
樨
権
横
樫
樱
樵
樸
樹
樺
樽
橋
橘
橙
機
橫
橹
檀
檎
檔
檗
檜
檬
檳
檸
檻
櫃
櫓
櫛
櫟
櫸
櫻
欅
權
欒
次
欢
欣
欧
欲
欺
欽
歉
歌
歐
歡
止
正
步
武
歩
歯
歲
歳
歴
歷
死
歼
殊
残
殖
殘
殤
殭
殯
殲
段
殷
殺
殻
殿
毀
毅
母
毎
毒
毓
比
毕
毛
毫
毬
氏
民
气
気
氣
水
氷
永
汀
求
汇
汉
汐
汕
汗
汚
汝
江
池
汤
汪
汲
汶
決
汽
沂
沃
沈
沉
沒
沓
沖
沙
沛
沟
没
沢
河
沸
油
治
沼
泉
泊
泌
泓
法
泗
泛
泡
波
泣
泥
泪
泫
泰
泳
泸
泽
洁
洋
洗
洙
洛
洞
津
洪
洮
洱
洲
洹
活
洽
派
流
浄
浅
测
济
浑
浒
浙
浜
浣
浦
浩
浪
浮
浴
海
浸
涂
消
涉
涙
涛
润
涯
液
涵
涼
淀
淄
淇
淑
淘
淚
淞
淡
淫
淮
深
淳
淵
混
淸
淺
添
清
済
渉
渋
渓
渔
渕
渚
減
渝
渠
渡
渣
渤
渦
温
測
渭
港
游
湄
湖
湘
湛
湧
湯
湾
満
溇
源
準
溝
溥
溪
溫
溲
溺
滄
滅
滆
滇
滉
滋
滌
滑
滙
滚
滝
滢
滦
滨
滩
滬
滸
滿
漁
漂
漆
演
漠
漢
漣
漫
漱
漳
漸
潇
潍
潔
潘
潛
潜
潟
潢
潤
潭
潮
澀
澁
澄
澈
澍
澎
澗
澜
澤
澪
澱
澳
激
濂
濃
濟
濠
濡
濤
濮
濰
濱
濵
瀅
瀋
瀑
瀚
瀛
瀧
瀬
瀾
灃
灌
灘
灣
火
灯
灰
灵
灸
灼
災
灿
炎
炜
炫
炭
炮
炯
炳
炷
炸
点
為
烈
烏
烔
烟
烫
热
烽
焉
焕
焜
無
焦
焯
然
焼
煉
煊
煌
煒
煕
煙
煞
煤
煥
照
煩
熈
熊
熙
熟
熱
燃
燈
燊
燎
燒
燕
營
燦
燧
燮
燿
爀
爆
爪
爬
爭
爱
爲
爵
父
爸
爺
爽
爾
片
版
牌
牙
牛
牝
牟
牡
牧
物
特
犀
犖
犬
犯
状
犹
狀
狂
狄
狐
狗
狙
狛
狩
独
狭
狮
狱
狸
狼
猎
猛
猟
猥
猩
猪
猫
献
猷
猿
獄
獅
獎
獏
獣
獨
獲
獵
獸
獻
玄
率
玉
王
玎
玖
玛
玟
玥
玩
玫
玮
环
现
玲
玹
玺
玻
珀
珂
珅
珈
珉
珊
珍
珠
珩
珪
班
現
球
琅
理
琇
琉
琊
琚
琛
琢
琦
琨
琪
琬
琰
琲
琳
琴
琵
琶
琼
瑀
瑄
瑋
瑚
瑛
瑜
瑞
瑟
瑠
瑤
瑩
瑪
瑰
瑶
瑾
璀
璃
璉
璋
璐
璜
璠
璨
環
璽
璿
瓊
瓜
瓢
瓦
瓮
瓲
瓶
瓷
甄
甘
甚
甜
生
產
産
甦
用
甫
甯
田
由
甲
申
电
男
甸
町
画
畅
界
畏
畑
留
畜
畠
畢
略
番
畫
異
畳
當
畸
畿
疆
疊
疏
疑
疗
疯
疲
疾
病
痕
痛
痧
痴
瘋
療
癲
発
登
發
白
百
的
皇
皐
皓
皖
皮
盂
盆
盈
益
监
盒
盖
盗
盘
盛
盜
盟
盡
監
盤
盧
目
盲
直
相
盾
省
眉
看
県
眞
真
眠
眸
眼
眾
着
睡
督
睦
睫
睹
睿
瞬
瞰
瞳
瞻
瞿
矛
矢
矣
知
矧
矩
短
石
矽
矿
码
砂
砌
研
砥
砦
砲
破
砵
砻
硃
硕
硝
硫
硬
碁
碇
碌
碍
碎
碑
碓
碟
碧
碩
碰
碼
磁
磊
磐
磔
磨
磯
礁
礦
礫
示
礼
社
祇
祈
祉
祐
祖
祜
祝
神
祠
祥
祭
祯
祺
祿
禁
禄
禅
禎
福
禧
禮
禹
禽
禾
禿
秀
私
秉
秋
种
科
秒
秘
租
秤
秦
秩
积
称
移
稀
稅
程
税
稔
稗
稚
稠
種
稲
稻
稿
穀
穂
穆
積
穎
穗
穢
穣
穩
穴
究
空
突
窄
窈
窓
窖
窝
窩
竇
竊
立
站
竜
竞
竟
章
童
端
競
竹
竺
笃
笈
笏
笑
笔
笙
笛
笠
符
笨
第
笹
笼
筆
等
筋
筏
筑
策
筝
筧
筱
筲
简
箏
箒
箕
算
管
箭
箱
節
篁
範
篇
築
篠
篤
篮
簇
簡
簿
籃
籍
籟
籠
米
粉
粗
粟
粥
粧
粮
粵
精
糕
糖
糙
糞
糧
糬
糸
系
紀
約
紅
紋
納
紐
純
紗
紘
紙
級
紛
紜
素
索
紧
紫
紮
細
紳
紹
紺
終
絃
組
絆
経
結
絕
絞
絡
絢
給
統
絲
絵
絶
絹
綏
經
継
続
綜
綠
綫
維
綱
網
綸
綺
綽
綾
綿
緊
緋
総
緑
緒
線
緣
編
緯
練
縁
縄
縛
縣
縫
縱
總
繁
繆
織
繕
繚
繡
繪
繰
繼
續
纓
纜
红
约
级
纪
纱
纲
纳
纵
纶
线
织
终
绍
经
绑
绒
结
绘
给
络
绝
统
绣
绥
继
续
绮
维
绵
综
绿
缅
缘
缝
缨
缪
缺
罐
网
罕
罗
罘
罪
置
罰
署
罳
羅
羊
羌
美
羚
羣
群
義
羯
羲
羽
翁
翅
翊
習
翔
翠
翡
翰
翳
翻
翼
耀
老
考
者
耆
而
耐
耕
耳
耶
聂
聊
职
联
聖
聘
聚
聞
聡
聯
聰
聲
聴
聶
職
聽
聿
肃
肅
肇
肉
肋
肌
肖
肠
股
肢
肥
育
肺
胆
背
胎
胖
胜
胞
胡
胧
胸
能
脂
脇
脈
脉
脊
脑
脚
脫
脳
腕
腦
腩
腰
腳
腸
腹
腺
腾
腿
膀
膩
膳
膽
臂
臍
臓
臣
臧
臨
自
臭
至
致
臺
臻
臼
舂
與
興
舊
舌
舍
舎
舒
舗
舘
舛
舜
舞
舟
舩
航
舫
般
舰
船
舺
艇
艋
艦
艮
良
色
艳
艷
艺
艾
节
芃
芎
芒
芙
芝
芥
芦
芬
芭
花
芳
芷
芸
芹
芽
苋
苍
苏
苑
苓
苔
苕
苗
苞
苟
若
苦
英
苹
苺
茂
范
茄
茅
茉
茎
茗
茜
茨
茱
茵
茶
茹
荃
荆
草
荊
荒
荔
荘
荡
荣
荦
荫
药
荷
荻
莆
莉
莊
莎
莓
莖
莘
莞
莢
莧
莫
莱
莲
莸
莼
莽
菀
菁
菅
菊
菌
菎
菓
菘
菜
菠
菩
菫
華
菰
菱
菲
菴
菸
萃
萄
萊
萌
萍
营
萧
萨
萩
萬
萱
萸
萼
落
葆
葉
著
葛
葡
董
葦
葫
葬
葯
葵
蒂
蒋
蒔
蒙
蒟
蒲
蒸
蒻
蒼
蒿
蓀
蓄
蓉
蓝
蓬
蓮
蓼
蔗
蔚
蔡
蔣
蔥
蔦
蔬
蔭
蔴
蔵
蔷
蕉
蕗
蕙
蕨
蕩
蕭
蕾
薄
薇
薈
薊
薔
薙
薛
薤
薩
薫
薬
薮
薰
藍
藏
藝
藤
藥
藩
藪
藻
蘆
蘇
蘋
蘭
蘿
虎
虐
處
虚
虛
虞
號
虫
虹
蚀
蚁
蚊
蚌
蚺
蛇
蛉
蛋
蛍
蛙
蛛
蛟
蛮
蛺
蛾
蜀
蜂
蜆
蜘
蜜
蜥
蜷
蜻
蝉
蝕
蝦
蝪
蝴
蝶
螂
融
螢
螳
螺
蟇
蟲
蟷
蟹
蟻
蠡
蠻
血
衆
行
術
街
衛
衝
衞
衡
衣
表
衰
袁
袋
被
袴
裁
裂
装
裏
裔
裕
裘
補
裝
裡
裳
裵
裸
製
裾
複
褲
褻
襖
襟
襪
襲
西
要
覇
見
規
視
覚
覧
親
覲
観
覺
覽
觀
见
观
视
览
觉
觐
角
解
言
訂
計
訊
討
訓
訕
託
記
訪
設
許
訳
訴
訶
診
証
詒
評
詞
詠
試
詩
詮
話
該
詳
詹
誂
誌
誕
誘
語
誠
誡
誤
說
説
読
誰
課
調
談
諏
論
諫
諭
諸
諾
謀
謎
謙
講
謝
謨
證
譚
譜
警
譯
議
譲
護
讃
變
讐
讓
讚
计
让
训
议
讯
记
许
论
设
证
诃
评
识
词
诗
诚
话
该
语
说
诺
读
谊
谋
谢
谣
谦
谭
谱
谷
豆
豊
豐
豚
象
豪
豫
豬
豹
貓
貝
貞
負
財
貢
貧
貨
貫
責
貳
貴
買
費
貼
貽
貿
賀
資
賈
賊
賓
賜
賞
賡
賢
賣
質
賭
賴
購
賽
贊
贖
贛
贝
贞
贡
财
责
贤
货
质
购
贯
贵
贷
贸
费
贺
贻
贾
资
赌
赛
赞
赡
赣
赤
赫
走
赵
起
超
越
趙
趨
足
跃
跆
跑
跖
距
跟
跡
路
跳
践
踊
踏
踐
踪
踯
蹄
蹈
蹊
蹟
躁
躅
躍
身
車
軌
軍
軒
軟
転
軫
軽
軾
載
輌
輔
輕
輝
輩
輪
輯
輸
轉
轎
车
轨
轩
转
轮
软
轰
轻
载
轿
辅
辉
辑
辙
辛
辞
辣
辦
辭
辰
辱
農
辺
辻
込
辽
达
迁
迅
过
迎
运
近
返
还
这
进
远
连
迟
迦
迪
迫
述
迴
迷
追
退
送
逃
逆
选
透
逐
途
這
通
逝
速
造
逢
連
逮
週
進
逵
逸
逼
遁
遂
遇
遊
運
遍
過
遏
道
達
違
遗
遙
遜
遞
遠
遣
遥
遭
遮
遲
遵
選
遺
遼
還
邉
邊
邑
邓
邛
邢
那
邦
邨
邪
邮
邯
邰
邱
邵
邹
郁
郎
郑
郝
郞
郡
部
郭
郵
郷
郸
都
鄂
鄉
鄒
鄞
鄧
鄭
鄱
鄲
酉
配
酒
酔
酵
酷
酸
醇
醉
醒
醫
醸
采
釈
釋
里
重
野
量
金
釗
釜
針
釣
釧
鈊
鈕
鈞
鈴
鈺
鉄
鉛
鉤
鉬
鉱
鉴
銀
銃
銅
銓
銖
銘
銚
銭
銳
銶
銹
鋒
鋤
鋸
鋼
錄
錆
錘
錢
錦
錫
錬
録
鍊
鍋
鍔
鍙
鍛
鍵
鍼
鍾
鎌
鎔
鎖
鎗
鎧
鎬
鎭
鎮
鏇
鏗
鏘
鏞
鏡
鏵
鐘
鐵
鐶
鑄
鑌
鑑
鑒
鑓
鑫
针
钓
钝
钟
钢
钦
钧
钩
钱
钼
铁
铃
铜
铭
银
铸
锁
锅
锈
锋
锐
错
锡
锤
锥
锦
锷
锺
镇
镜
镞
镰
镶
長
长
門
閃
閆
閉
開
閎
閑
閒
間
閔
閘
関
閣
閥
閬
閻
闇
闊
闖
闘
關
门
闫
闳
间
闹
闽
阁
阆
阎
阔
阜
队
阡
阪
阮
防
阳
阴
阿
陀
附
际
陆
陈
陌
降
限
陕
陝
陞
院
陣
险
陪
陰
陳
陵
陶
陸
険
陽
隅
隆
隈
隊
隋
階
随
隐
隔
際
隠
隣
隧
險
隱
隶
隷
隸
隼
雀
雁
雄
雅
集
雉
雌
雍
雑
雕
雙
雜
雞
離
難
雨
雪
雫
雯
雰
雲
零
雷
電
霄
霆
震
霊
霍
霏
霖
霜
霞
霧
霰
露
霸
霹
靂
靄
靈
靑
青
靓
靖
静
靚
靜
非
靡
面
革
靳
靼
鞍
鞜
鞭
韃
韋
韑
韓
韜
韞
韦
韩
韫
韬
音
韶
響
頂
頃
項
順
須
頌
預
頑
頒
頓
領
頤
頭
頼
題
額
顏
顔
顕
願
類
顧
顯
顶
项
顺
须
顾
顿
颂
预
领
颐
频
颖
颗
题
颜
额
風
风
飛
飞
食
飯
飴
飼
飽
飾
餅
養
餐
餓
餘
館
饅
饒
饗
饭
饰
饶
馆
馒
首
馗
香
馥
馨
馬
馮
馳
駁
駄
駅
駆
駐
駒
駕
駟
駿
騎
騏
騒
験
騨
騫
騰
騷
驃
驅
驊
驗
驚
驤
驥
马
驰
驷
驹
驼
驿
骄
骆
验
骏
骑
骞
骨
骸
體
高
髪
鬥
鬧
鬪
鬱
鬼
魁
魂
魅
魍
魎
魏
魔
魚
魯
鮎
鮑
鮒
鮨
鮫
鮮
鯉
鯤
鯨
鰲
鱀
鱷
鱼
鲁
鲨
鲲
鳓
鳖
鳞
鳥
鳩
鳳
鳴
鴉
鴛
鴦
鴨
鴻
鵑
鵜
鵞
鵡
鵬
鵰
鵲
鶏
鶯
鶴
鷲
鷹
鷺
鸟
鸡
鸣
鸥
鸦
鸭
鸮
鸽
鸿
鹃
鹅
鹏
鹘
鹤
鹰
鹹
鹽
鹿
麋
麒
麓
麗
麟
麥
麦
麵
麻
麼
麿
黃
黄
黎
黑
黒
黔
默
黙
點
鼇
鼎
鼓
鼠
鼻
齊
齋
齐
齡
龄
龍
龐
龑
龔
龙
龚
龜
龟
龢
ꜜ
ꭹ
ꭿ
ꮃ
ꮄ
ꮎ
ꮕ
ꮚ
ꮜ
ꮟ
ꮤ
ꮳ
ꮷ
ꮹ
ꯂ
ꯇ
ꯛ
ꯣ
﨑
ﬁ
ﭕ
ﭙ
ﮈ
ﮌ
ﮔ
ﮕ
ﮨ
ﮭ
ﷲ
ﺁ
ﺍ
ﺎ
ﺐ
ﺑ
ﺒ
ﺓ
ﺕ
ﺘ
ﺝ
ﺟ
ﺠ
ﺤ
ﺩ
ﺪ
ﺭ
ﺮ
ﺱ
ﺳ
ﺴ
ﺸ
ﺻ
ﺿ
ﻌ
ﻏ
ﻐ
ﻓ
ﻖ
ﻗ
ﻛ
ﻞ
ﻟ
ﻤ
ﻥ
ﻧ
ﻨ
ﻩ
ﻫ
ﻬ
ﻭ
ﻮ
ﻲ
ﻳ
ﻴ
！
＃
＆
（
）
＋
，
－
．
／
０
１
２
３
４
５
６
７
８
９
：
；
＜
＝
＞
ａ
ｃ
ｄ
ｅ
ｆ
ｇ
ｉ
ｋ
ｎ
ｏ
ｐ
ｑ
ｒ
ｓ
ｔ
ｖ
ｘ
ｚ
｜
～
｢
｣
･
ｺ
ﾋ
ﾟ
￠
￥
𢄂
##y
##r
##k
##i
##a
##s
##e
##n
##c
##l
##o
##d
##b
##t
##h
##g
##u
##m
##f
##x
##ル
##フ
##ス
##と
##z
##v
##j
##q
##p
##ˈ
##ɲ
##а
##ј
##е
##в
##р
##м
##о
##ш
##ə
##ɪ
##ː
##ʊ
##w
##л
##и
##у
##с
##н
##д
##ћ
##9
##8
##ᅵ
##ᄋ
##ᅮ
##ᆺ
##ᄉ
##ᅡ
##ᄅ
##ᆷ
##0
##5
##2
##イ
##ム
##т
##ы
##ɔ
##ɨ
##ɕ
##ɐ
##ȷ
##ر
##ي
##ا
##د
##س
##ت
##ب
##ρ
##α
##σ
##τ
##η
##ι
##ο
##ω
##ν
##1
##ो
##ग
##3
##ß
##ъ
##ණ
##ඩ
##ා
##ර
##か
##ら
##ش
##ن
##و
##ز
##گ
##4
##6
##7
##ɡ
##ʲ
##ɛ
##°
##з
##ч
##к
##б
##خ
##ل
##ج
##ʂ
##ك
##ˌ
##ح
##ャ
##ी
##च
##ा
##ー
##ヘ
##ラ
##ל
##ו
##נ
##י
##א
##г
##х
##ｄ
##ဟ
##င
##း
##ਕ
##ਾ
##ਲ
##া
##দ
##র
##ি
##হ
##ট
##п
##ц
##ท
##ย
##เ
##จ
##ร
##ญ
##カ
##ه
##κ
##ε
##ட
##ம
##ப
##ு
##ɴ
##ʐ
##ᅥ
##ᅣ
##ᆼ
##ᄀ
##ᅩ
##ᆯ
##ᄃ
##ᅪ
##ᄌ
##م
##ʋ
##ŋ
##ʑ
##æ
##ᆫ
##ᆨ
##ಾ
##ಗ
##ಮ
##ಂ
##ಡ
##ಲ
##ف
##↑
##っ
##ल
##ی
##ع
##ਮ
##غ
##テ
##ニ
##ュ
##ク
##ン
##ト
##জ
##ৰ
##ী
##レ
##チ
##न
##ق
##ł
##ь
##♪
##♯
##வ
##ி
##க
##ய
##ல
##ಹ
##ನ
##ರ
##і
##я
##ד
##ר
##ɒ
##ʰ
##ª
##ظ
##น
##ธ
##พ
##า
##ล
##ค
##อ
##ง
##ม
##ذ
##प
##ज
##®
##र
##थ
##ɑ
##ב
##ط
##ø
##ッ
##ハ
##の
##ש
##ת
##ʿ
##ة
##ᄆ
##ळ
##ᅧ
##ก
##แ
##ʒ
##る
##ɾ
##ড
##গ
##ঙ
##ζ
##ς
##ヒ
##オ
##へ
##き
##ษ
##ภ
##ณ
##ா
##ே
##ர
##প
##タ
##ส
##ศ
##ด
##щ
##ও
##ক
##ত
##ミ
##ᅢ
##ᄍ
##ᄒ
##ण
##چ
##ᄎ
##လ
##ေ
##ာ
##ဘ
##ရ
##ద
##ర
##ం
##γ
##λ
##ж
##ю
##э
##ץ
##ф
##ネ
##キ
##リ
##চ
##য
##ե
##ն
##ր
##ի
##ք
##ɣ
##ʃ
##ʻ
##ð
##し
##व
##ন
##ঝ
##ল
##メ
##ウ
##ィ
##シ
##ョ
##ォ
##പ
##േ
##ാ
##ള
##ि
##श
##क
##ᄐ
##×
##ʼ
##を
##ে
##ナ
##જ
##ન
##દ
##ર
##མ
##ས
##ெ
##ᅦ
##ச
##υ
##δ
##ξ
##ᅰ
##コ
##ホ
##ı
##כ
##さ
##ゆ
##め
##み
##ص
##ట
##ব
##π
##ـ
##ワ
##お
##ろ
##म
##ख
##ס
##ফ
##پ
##ഗ
##ത
##ന
##ਬ
##ਸ
##ਰ
##ਤ
##మ
##హ
##ు
##క
##ృ
##ష
##ణ
##ट
##ല
##ം
##ア
##モ
##շ
##ա
##կ
##え
##ひ
##ᅳ
##ᄂ
##な
##そ
##ふ
##త
##ᅲ
##भ
##ま
##エ
##ک
##ロ
##ں
##ಳ
##ಪ
##ಜ
##ァ
##ү
##μ
##ھ
##ह
##ᅭ
##ತ
##ು
##గ
##డ
##θ
##¼
##は
##い
##న
##చ
##య
##њ
##բ
##ռ
##գ
##տ
##ո
##ւ
##թ
##ន
##ା
##ର
##େ
##հ
##ん
##こ
##た
##け
##त
##サ
##յ
##හ
##ව
##ැ
##ල
##て
##ป
##ะ
##ำ
##ห
##ว
##ต
##ถ
##ఖ
##ြ
##တ
##က
##ʔ
##ක
##ට
##ち
##せ
##ड
##ા
##ક
##ો
##द
##फ
##ɟ
##ਪ
##ੀ
##լ
##վ
##ɫ
##ˑ
##य
##വ
##ി
##ט
##ौ
##ల
##φ
##ম
##ప
##ה
##ょ
##వ
##ᄁ
##ᆶ
##³
##œ
##ಯ
##ದ
##జ
##ᆸ
##ʁ
##ہ
##ض
##ᄇ
##ソ
##ェ
##ս
##த
##™
##ა
##რ
##ც
##ვ
##ნ
##ი
##ਦ
##ק
##න
##ද
##ほ
##ʏ
##ళ
##บ
##ʕ
##ӕ
##ᅴ
##स
##ᅯ
##শ
##ಕ
##マ
##դ
##ｚ
##ヤ
##χ
##ষ
##উ
##β
##ʎ
##ғ
##ˀ
##れ
##ဉ
##ျ
##မ
##３
##đ
##ട
##ബ
##ക
##စ
##န
##ข
##ᅱ
##ゅ
##ツ
##ケ
##ং
##ᅬ
##ז
##ן
##ղ
##ன
##ם
##დ
##ს
##ɜ
##մ
##օ
##ই
##ɦ
##ழ
##ை
##ය
##ං
##ਹ
##ਿ
##ไ
##や
##つ
##り
##െ
##ര
##ൽ
##ゃ
##ণ
##あ
##ಣ
##વ
##ഹ
##മ
##ദ
##ى
##স
##ח
##く
##ฟ
##ە
##ஜ
##ね
##½
##љ
##ɵ
##す
##ʌ
##খ
##ಷ
##＞
##থ
##ண
##ɯ
##ᡠ
##ᡵ
##ᡤ
##ᠠ
##ᠴ
##ᡳ
##ಧ
##ೃ
##ұ
##қ
##ೕ
##ೂ
##ಟ
##よ
##☆
##ອ
##ງ
##ສ
##も
##ৱ
##ג
##ष
##ត
##ប
##ទ
##ម
##ђ
##ಬ
##う
##ഷ
##ײ
##ᄑ
##ब
##ე
##ტ
##џ
##ജ
##º
##उ
##ħ
##ˤ
##ई
##ყ
##ლ
##ధ
##శ
##ঠ
##స
##ช
##ฐ
##ਆ
##യ
##ନ
##ଗ
##ୀ
##ந
##ধ
##´
##ગ
##ત
##ವ
##ပ
##ထ
##є
##ঞ
##ᅨ
##ঘ
##ಶ
##ॉ
##ɬ
##ച
##セ
##ⲉ
##ⲙ
##ע
##ʉ
##ꯣ
##ꯛ
##ꯇ
##ළ
##ම
##ည
##သ
##わ
##ﬁ
##ఞ
##ూ
##ث
##ञ
##బ
##€
##∞
##ⲏ
##ⲑ
##ⲟ
##ⲩ
##ⲁ
##ⲃ
##ढ
##ך
##ஷ
##מ
##ஸ
##צ
##ལ
##ང
##ᇁ
##ო
##ஞ
##ூ
##უ
##ซ
##ܐ
##ܪ
##ܬ
##ɖ
##ᡴ
##ᠨ
##ﻤ
##ﭙ
##ﺮ
##ﺱ
##ꜜ
##פ
##⑧
##བ
##କ
##ध
##შ
##ბ
##ぃ
##ˠ
##ಥ
##に
##ஹ
##ள
##ീ
##ங
##²
##ൻ
##ശ
##ಸ
##ෑ
##ခ
##მ
##ា
##ក
##ល
##វ
##យ
##ស
##រ
##ខ
##ភ
##ङ
##ٹ
##इ
##ਡ
##ヨ
##ਨ
##ڈ
##¢
##～
##ჯ
##ძ
##ө
##ژ
##ฮ
##−
##ʝ
##ත
##ධ
##ണ
##★
##ថ
##ច
##េ
##ព
##ជ
##ց
##ဋ
##ဌ
##ဝ
##◆
##⁄
##ә
##റ
##ے
##ღ
##©
##झ
##გ
##ௗ
##ʷ
##ʈ
##ደ
##ስ
##ሰ
##ⲓ
##ⲣ
##ⲱ
##ග
##ଉ
##ତ
##ୟ
##თ
##۸
##۵
##ノ
##ێ
##ଷ
##٠
##ങ
##ഴ
##ฎ
##ਗ
##む
##ད
##ৗ
##ᠢ
##ᠪ
##ᠶ
##ᠷ
##ɸ
##ጀ
##ን
##ಚ
##ﻨ
##ﻌ
##ﺘ
##ﻲ
##ﺍ
##ﻳ
##ﻥ
##အ
##គ
##ណ
##ឌ
##ฑ
##ස
##බ
##ฒ
##⁶
##ң
##ぬ
##է
##ൾ
##ܡ
##ܝ
##և
##ජ
##छ
##ധ
##ㇰ
##ᄏ
##ভ
##ヌ
##ᆹ
##ਣ
##ᖏ
##ᕐ
##ᓱ
##ᐊ
##ᓗ
##ᔾ
##ᔪ
##ᖅ
##ۋ
##փ
##ʾ
##⅔
##ෙ
##ഞ
##խ
##ވ
##ރ
##ಞ
##ප
##લ
##પ
##મ
##ඨ
##භ
##ਟ
##ء
##ჩ
##ળ
##ય
##ଡ
##ଶ
##〇
##ታ
##ቸ
##ው
##ڌ
##ཀ
##ង
##โ
##ʧ
##ʹ
##ና
##ት
##→
##۳
##۲
##ർ
##ҵ
##ఠ
##ဖ
##˧
##˩
##ⅱ
##ሊ
##ڠ
##ୗ
##ଦ
##ற
##థ
##ʱ
##ﻭ
##ﻩ
##զ
##ฤ
##ґ
##ཏ
##ག
##ʀ
##ゥ
##ፍ
##ያ
##າ
##ວ
##ເ
##ດ
##ນ
##ກ
##ฬ
##ᓪ
##ᕈ
##ᑎ
##ᐅ
##ᑉ
##ユ
##ⁿ
##ဗ
##ဒ
##ဓ
##ठ
##¥
##պ
##ը
##ხ
##ぇ
##އ
##މ
##സ
##ɹ
##ਜ
##ሞ
##ክ
##ራ
##ሲ
##ମ
##ջ
##ﺪ
##ﻗ
##ﺎ
##ﺕ
##ဇ
##ҭ
##ծ
##¹
##এ
##ｉ
##ପ
##ዊ
##ڙ
##ဏ
##ဠ
##⅓
##♣
##ൗ
##ᕆ
##ᖓ
##ಘ
##ៀ
##♥
##ഭ
##ձ
##ᄊ
##ٽ
##ೖ
##ಫ
##ｓ
##ｐ
##ａ
##ｒ
##ｔ
##２
##ผ
##ⲇ
##ⲝ
##ⲥ
##ᅫ
##ᆭ
##ʦ
##ৈ
##ɥ
##ᇀ
##ｘ
##ڍ
##ါ
##ㄠ
##ˋ
##ए
##ഥ
##འ
##ଲ
##ଜ
##ზ
##ਈ
##ਵ
##კ
##ʥ
##ɽ
##װ
##ӏ
##ᶞ
##０
##ছ
##બ
##ਖ
##ꮃ
##ꭹ
##ｖ
##ﻟ
##ﻐ
##ﺭ
##ﺓ
##ქ
##ܟ
##ܠ
##સ
##થ
##ҳ
##ඟ
##ଏ
##ഫ
##ഡ
##ฯ
##អ
##ډ
##अ
##ఘ
##٤
##þ
##ଚ
##ଳ
##ବ
##ହ
##ಭ
##ਝ
##ɳ
##ཇ
##１
##ճ
##ယ
##ཚ
##ψ
##౦
##ڏ
##ڻ
##ብ
##ረ
##ፅ
##ዮ
##घ
##ච
##ฏ
##ҟ
##ऊ
##ɧ
##ڱ
##ਯ
##ଂ
##ඹ
##─
##ી
##ꮹ
##ꭿ
##ۃ
##ᓅ
##ᑦ
##ᐃ
##ᒃ
##ᓴ
##չ
##ན
##ʍ
##ៃ
##ဆ
##ⁱ
##７
##ఱ
##⎯
##ᆮ
##₵
##ሳ
##ለ
##ኝ
##ᐳ
##ᕇ
##ഠ
##ܒ
##ܘ
##♦
##ः
##ҷ
##ᇂ
##ૌ
##િ
##ੜ
##ކ
##ލ
##ᆰ
##ଣ
##ោ
##ဥ
##＝
##ᄄ
##ᓐ
##ބ
##ၿ
##ۇ
##ფ
##ܦ
##ડ
##ቱ
##ើ
##ᑕ
##ඳ
##൪
##ར
##ଟ
##ဂ
##ৎ
##ҹ
##ଫ
##ގ
##ይ
##ማ
##ሪ
##ም
##˚
##ਫ
##ਥ
##ཛ
##∀
##ር
##భ
##□
##ѣ
##ൈ
##ટ
##ଢ
##ଙ
##ഖ
##શ
##ҧ
##∏
##ڑ
##±
##የ
##ຳ
##ມ
##ະ
##ଥ
##ឡ
##ހ
##ދ
##£
##ǀ
##ֆ
##ભ
##ઈ
##ል
##ኤ
##ٱ
##ᠯ
##ଆ
##೦
##¨
##ཟ
##፻
##ែ
##ᖀ
##ᔩ
##ጊ
##ۆ
##ܢ
##ใ
##۱
##ᆾ
##ᠭ
##ᠤ
##⋅
##ﻬ
##ຊ
##ຍ
##۷
##ኢ
##ሱ
##ገ
##ǂ
##һ
##ҡ
##ނ
##ɤ
##ཙ
##ڵ
##ړ
##ˊ
##９
##ግ
##ላ
##ች
##♭
##ҙ
##٧
##ଧ
##ಖ
##ශ
##⁴
##ቡ
##ሻ
##ｋ
##आ
##ɓ
##წ
##ድ
##ሣ
##ⵉ
##ⵛ
##ⴽ
##ⴰ
##ސ
##ޓ
##ঃ
##ɝ
##ፈ
##ሄ
##ሴ
##ฉ
##ⲡ
##ⲛ
##ຫ
##ڤ
##ܚ
##ᡧ
##ᄈ
##ਠ
##ᠥ
##ᠰ
##ᠦ
##ף
##ዩ
##ಠ
##ធ
##♙
##ݣ
##ણ
##ｅ
##ཁ
##ɰ
##ដ
##ዝ
##●
##હ
##ﮭ
##ﻴ
##ﻞ
##ﺤ
##ﺩ
##ڪ
##ې
##ښ
##ધ
##ዲ
##ヶ
##ｆ
##ޙ
##¾
##ϕ
##⁵
##ဈ
##ລ
##ɻ
##ﷲ
##ጋ
##６
##ۏ
##ڭ
##ｃ
##ｏ
##ખ
##ບ
##㎡
##ｑ
##ସ
##ᕋ
##ᓂ
##○
##ঢ
##ൺ
##ଯ
##ޖ
##ఫ
##ኋ
##ڀ
##ຢ
##ঈ
##ዎ
##ሮ
##ɭ
##ሸ
##አ
##ਏ
##ଅ
##আ
##♂
##ቅ
##ሩ
##ܣ
##ባ
##ˮ
##པ
##ଇ
##ǃ
##ሓ
##♀
##ڛ
##ګ
##ଠ
##ⲅ
##ញ
##ᑐ
##ᔨ
##ᖃ
##ᒌ
##ゝ
##ሜ
##ហ
##ڨ
##ۍ
##ଭ
##ﮌ
##ㄨ
##ㄛ
##ᆻ
##ᠡ
##ᠩ
##♠
##ጉ
##ຄ
##ﺁ
##ﻧ
##ﺑ
##˨
##˥
##∃
##ᠺ
##ᕙ
##ஃ
##პ
##ⅳ
##ਛ
##ᓄ
##ਧ
##ᆽ
##ฝ
##ゑ
##ወ
##ቀ
##ሆ
##ޔ
##ҥ
##ఙ
##￠
##ޅ
##ފ
##ኪ
##ፕ
##ህ
##ઠ
##ቂ
##ᐋ
##ጌ
##ۈ
##ෂ
##ୱ
##ឋ
##ﮈ
##ﺳ
##ଞ
##ෟ
##˙
##ሁ
##ฆ
##ᓇ
##ᕗ
##ᒥ
##ኸ
##ⲕ
##ଝ
##８
##ꮄ
##ꮜ
##ꮕ
##ໄ
##ຕ
##ኩ
##٦
##ჟ
##ɘ
##በ
##ᠣ
##㈜
##ڊ
##ඞ
##ᐸ
##ሾ
##መ
##ཕ
##ཉ
##ஏ
##µ
##ឿ
##ៅ
##ɚ
##ཡ
##ܕ
##ሠ
##ଘ
##ᴇ
##ﺠ
##ﺐ
##ﻮ
##ષ
##ຽ
##৯
##০
##ƶ
##ᓕ
##ތ
##ժ
##ႏ
##ຮ
##ះ
##ቴ
##ﺴ
##ථ
##ઇ
##ⅴ
##ϯ
##ﺝ
##∙
##ჰ
##ﺸ
##ﻖ
##ټ
##ઢ
##ڇ
##ተ
##ᑫ
##ᐧ
##ᐣ
##ʤ
##ཆ
##ヲ
##ओ
##ພ
##≤
##১
##৩
##ˢ
##ഐ
##څ
##ڢ
##ڶ
##ሃ
##５
##ﾟ
##ｺ
##ᡥ
##ᡝ
##ᓲ
##ഛ
##ԥ
##ቶ
##ⲭ
##೯
##ಎ
##ჭ
##÷
##ᡡ
##ᠸ
##ሕ
##ﮕ
##ﺒ
##ꮎ
##ꮟ
##ޝ
##ኮ
##ぁ
##ⲧ
##ޒ
##ዕ
##ˇ
##㋮
##ҕ
##①
##ሀ
##ሙ
##৭
##২
##ゐ
##ʣ
##٢
##٩
##ሬ
##ሚ
##ካ
##ᑭ
##ᕝ
##ᕕ
##ጵ
##₤
##ඝ
##ኒ
##ቨ
##ቲ
##ﻫ
##ሉ
##ᡣ
##ᡞ
##ᓯ
##ᓛ
##＜
##ڬ
##ޢ
##⅝
##ⵣ
##ⲗ
##ਘ
##०
##℃
##ｎ
##ଵ
##¬
##ɮ
##ኖ
##ʸ
##ነ
##ਅ
##ǁ
##he
##er
the
##an
##in
##or
in
##on
##es
##ed
##ar
##at
##en
##al
##as
an
of
##ic
##is
is
##it
and
##il
##ou
##om
##ing
##el
##ol
##ion
##re
##am
19
was
##ec
it
##ent
##us
##ro
to
st
##ch
##et
##iv
##ur
##ist
by
##ad
##th
on
al
for
##st
##le
as
##ir
##id
##ig
##ac
##em
##ow
##ly
##oun
##ation
##and
##um
20
##ia
##ter
##ian
##ay
th
fr
##oc
##ag
##ers
com
##ies
##ot
ch
##ul
un
##ut
##un
re
##est
##im
he
##ber
##ith
##ub
##ce
##ov
at
pro
sp
##ct
with
##ill
##os
wh
pl
200
##op
##ab
##ap
from
##ain
##ric
##mer
##ated
ne
##ip
sch
##orn
##av
##all
##ak
##ool
##od
##ud
con
school
en
##her
##ount
ar
be
##ary
##ity
de
or
##igh
##ish
##ate
sh
##art
pr
se
##ge
tr
le
##ant
##ess
##ive
##ast
comp
dist
##if
##ort
##ard
##uc
##ound
fil
##own
##ased
##ine
18
ser
film
##ous
born
##amil
##ember
##ord
br
##ect
##ong
##age
##ust
##ich
sou
alb
##rict
##ell
##ele
##so
district
##ubl
loc
col
##ie
##ass
its
count
spec
famil
album
bo
##our
cl
gr
also
mar
bu
new
are
##ican
amer
kn
##ial
199
##ae
##ire
##hed
##any
fir
has
##ue
his
ap
buil
known
##ational
##land
##ib
198
rec
##ame
##ok
##tern
nor
ad
rele
first
play
species
family
##per
##og
publ
county
##ver
##ral
##ical
ind
american
wor
##ited
located
cent
201
##iz
##iver
sc
##00
that
##ear
##ates
##ra
pol
found
##ond
vill
##ore
##gh
##ld
south
gen
fe
comm
##man
serv
mo
village
she
197
##ack
##rit
##ens
released
who
car
##ang
##der
fl
river
af
ex
##ry
##duc
##res
part
ac
##ivers
##az
which
nov
##io
##ment
north
high
eng
##ey
rep
##wn
ro
##ru
one
inc
##qu
##ree
mus
##ace
us
united
##ished
##ight
ab
univers
record
##aw
##wo
##ince
##ory
##ug
##ative
reg
196
##ah
her
##end
##pt
##ail
##irect
stud
des
mi
direct
##ther
##ans
co
company
hist
par
##ough
el
##ign
can
##ina
##ice
##sh
states
##ock
##rop
194
##ide
##ater
##ure
##ional
university
fo
##ik
##ach
pop
##ouse
app
built
prov
sec
man
national
##ball
jo
##hn
bl
##out
195
sing
##we
##ake
##iss
##ton
##ely
te
west
##ts
su
sub
rom
per
war
this
two
writ
##lud
##ding
class
##ence
##amp
includ
year
##ep
histor
colle
##ern
popul
ir
house
##oll
world
cont
off
min
foot
##ank
genus
##ese
##ath
whe
based
##to
res
directed
##inal
east
##urr
##uring
##ural
##ft
##ere
##enn
ger
mount
##les
former
mon
dr
la
##idae
aust
music
ph
##ten
km
second
plant
##ork
star
roman
college
gre
##act
##anc
state
##mp
##ade
name
me
band
book
##ult
may
football
city
member
air
pre
central
##ents
##ier
lar
after
all
novel
published
##ite
ed
produc
##ome
bet
##te
2006
art
bro
193
but
not
dec
nav
up
historic
##yl
##iel
sm
##se
##ime
##aj
pe
polit
##gr
##urch
##ict
##ister
17
##son
##vel
med
po
##old
gu
##ions
population
jun
##ance
were
building
under
austral
12
##ward
met
cap
##ower
##ied
jan
lake
cal
end
thr
act
##esh
mountain
canad
design
192
am
brit
##ai
orig
191
during
public
nam
been
##ica
curr
##ized
ag
work
province
##ff
ass
##ick
current
church
ship
about
##omet
##sp
founded
##ual
song
oper
##ood
##ibut
##ob
##ile
navy
##au
##oup
##ics
feat
##are
cr
elect
prof
##ween
10
##olog
##ley
between
played
repres
##ician
est
cons
john
british
##ale
##ase
##one
##estern
##lish
ju
pers
##ave
only
##du
sy
##ix
original
##ital
##ations
##uary
four
through
##min
most
sw
york
##ring
ge
series
ear
##ons
char
##aceae
##isc
we
##ors
written
oct
##ious
##apan
january
11
##eral
##uss
##row
other
15
aug
16
politician
represent
japan
bar
their
##for
pres
over
sept
##ober
english
educ
group
three
august
nort
march
##air
september
october
rock
long
intern
##int
##iam
##enc
##ately
within
##ril
served
##way
had
##iet
##ind
main
##emic
profess
best
##ama
inst
##0s
bec
own
gl
april
june
##ann
##ys
story
op
into
##eng
november
cens
##ures
since
##inn
##ange
##ourn
will
census
records
july
bus
##xim
##let
##ane
##ose
##ition
common
mid
produced
##istr
##ph
form
appro
named
sci
##duct
rev
##ash
##ird
admin
##able
##ery
december
small
iran
lab
##ague
##fer
##hes
##ark
international
western
##att
##ury
##lin
13
##astern
cor
calif
californ
kil
rural
##ings
trans
##bru
currently
14
##ost
##port
##ench
near
out
febru
february
area
##raft
vo
california
ste
mag
administr
##ruct
bel
##gan
well
##up
poland
##ka
town
##ives
chr
german
french
mil
##ship
persian
##cr
2010
professional
##uth
gov
approxim
##yp
lead
##ior
league
##ket
##ros
##lo
har
stre
##ames
they
##til
##hen
singer
190
##velop
where
approximately
##inc
kilomet
##ull
head
mov
develop
govern
studio
##ild
##bert
##ision
russ
ev
time
years
ital
product
native
##yn
list
##urn
const
##abl
island
##bo
deb
##over
plac
##ific
ter
##ium
ret
so
port
2007
##ana
##fl
tit
2008
##pl
including
dep
##emb
journ
##ms
##ident
##por
##ins
##ission
sl
##ke
2009
##its
lies
acad
##ield
coll
eu
2011
cre
##oph
av
endemic
att
larg
no
sen
##hern
commun
geor
##oss
189
##itut
mal
old
##by
students
tec
families
india
have
qu
gm
##ology
kilometres
award
##ki
romanized
artist
##br
##ille
northern
##ices
indian
sn
##unc
souther
##ows
australia
##rat
acc
##und
later
25
##ek
southern
##ters
##ott
##ablished
##ropical
journal
established
moth
until
2012
##ania
##ster
dem
##fore
call
auth
short
val
soc
##abit
player
##ife
made
phil
debut
##uf
num
more
ep
wal
when
now
administrative
##ington
##af
##ont
republ
ii
##ened
label
register
maj
camp
##cc
before
##ene
law
care
##ham
england
foll
var
##ection
afric
mod
##eship
##ax
starring
mot
park
sim
institut
##iness
##ise
sal
##ne
gmina
techn
rel
##itt
habit
del
il
canadian
##ivod
service
30
voivod
priv
originally
eastern
voivodeship
author
red
sol
far
team
roy
inter
won
canada
str
##iew
sum
grow
bas
##ement
##ines
business
general
habitat
san
21
##red
ang
nat
##uck
##erv
street
christ
mas
william
add
kh
##ri
##ator
germ
##aper
2013
arch
forest
hel
##ipal
##eh
##ider
##ata
black
188
##form
my
pat
##rap
##yle
set
flower
down
king
go
22
designed
pet
sur
2005
##ony
education
rem
##ities
engine
europ
germany
##ains
australian
early
major
##ired
tribut
##omin
third
ele
japanese
america
six
##ribut
sea
mill
places
##epend
independ
##ville
##ival
24
europe
mer
##craft
range
grad
##ipp
que
che
ec
party
sil
both
leg
##bia
regional
plays
prev
fin
##ove
largest
dav
##ole
single
mich
capital
2004
many
footballer
listed
chin
magaz
##ived
sever
##ung
##ating
pa
##ular
arm
sk
bank
science
##ays
##ike
italian
aircraft
being
##ford
##ross
##ico
white
##ides
23
stor
mass
imp
##ert
##iation
royal
tex
special
there
recorded
russian
appear
used
vol
some
tur
home
progr
uk
mun
##mar
##cess
je
than
##edy
##imes
##bur
schools
##reek
cat
##vent
em
sup
hol
run
private
land
ann
several
called
vir
##ner
cour
fict
commission
##yc
tributary
bre
independent
26
follow
tw
##ve
chinese
career
ma
##stem
##ty
##gin
int
2002
top
owned
##que
previous
def
28
187
ext
2000
along
##ida
prim
lim
region
number
lond
hill
magazine
27
##uk
2003
##ufact
##crib
manufact
##che
london
penn
##emy
track
mont
enter
##ren
##000
##ara
construct
##go
##ress
lo
##idge
president
became
launc
suc
same
flowering
mex
186
do
wood
wing
##ron
##ris
pass
bal
minister
century
system
##itu
peop
child
es
title
mor
country
div
writer
assoc
launched
##azil
live
##osp
im
##ech
champ
##els
describ
##ee
start
mc
coast
features
##als
##ze
democ
people
bay
##shire
muse
manag
history
brazil
##writ
such
drama
road
##anish
songs
##ograp
rail
james
club
five
life
uss
##abad
##ues
center
##tain
29
##oung
##ylv
comedy
then
compos
lou
style
government
##ler
large
young
##led
just
democrat
##line
hig
##omot
ft
academy
museum
typ
rich
services
tele
around
2001
ber
##ject
pal
##ams
##yr
##ma
##na
water
great
cath
##wood
texas
seas
mat
compet
super
flor
lang
##olic
##tar
##ounc
##quar
last
##la
secondary
inv
fiction
##aint
##ston
##ya
peak
##elf
munic
municipal
##the
##writer
##ather
champion
kar
##ven
day
newsp
##bs
##ief
oly
gold
hot
natural
##ones
china
ent
green
bill
##aves
ren
how
##ured
back
##ha
##ially
disc
wash
formerly
ze
##ists
franc
##dle
##ex
cover
catholic
##ylvania
side
exp
union
offic
release
fac
colum
aut
##ily
occ
dis
##bor
stars
virgin
includes
1999
described
##ering
##west
penns
oh
##ii
185
net
##ats
##ink
##itar
li
##vision
local
line
bul
pennsylvania
##yer
tor
community
miss
late
##me
indust
corpor
mary
##ij
george
sold
tropical
##ength
complet
vers
headquar
son
thom
david
##aland
##field
##ified
##etts
cult
washington
##ota
ke
##iety
bur
development
##ful
resear
cam
##rick
mel
##achus
##atives
lit
vict
sa
base
paul
##ael
massachus
mad
massachusetts
1991
##ental
##ani
market
1998
wom
tall
success
##ago
length
campus
full
post
musician
operated
distribut
##ona
cast
production
snail
again
mac
##ett
gir
songwriter
rece
brown
office
doc
langu
robert
##aining
trad
id
romania
newspaper
##co
mountains
see
democratic
##nes
ever
hal
sign
31
research
valley
cit
elected
television
rad
hor
##ets
summer
africa
##uel
commonly
olymp
##ret
while
##ino
##ected
##ney
1996
##akes
rh
##eland
mart
1997
##yd
##ella
republic
##ling
##tered
##ais
louis
1992
##ograph
##ari
##itect
following
metres
ohio
architect
hosp
##ls
##gian
tre
representatives
lat
previously
guitar
arts
squ
##ries
hum
books
wil
##reg
director
hospital
##ada
review
children
depart
popular
hall
technology
zealand
du
emp
power
aff
mark
##ush
playing
##ould
grand
low
chart
1995
municipality
##ps
swed
like
##itor
##ces
##apt
1993
conn
##burg
you
1990
turk
marine
##iated
##sk
##ald
mexico
1988
virginia
mu
##ined
level
1989
don
##get
commer
di
include
tour
##ically
##hel
plants
non
sound
##zer
##ency
forests
##ano
##alth
##ences
##anch
spanish
##rol
iss
##amb
1994
##iving
leaves
1945
southe
100
##azz
gradu
middle
##unk
vide
albums
carol
mult
fre
##work
subt
sport
flow
rest
##eph
1986
arg
france
him
##iana
1985
##ually
##eded
began
##ger
1987
institute
winn
1984
florida
cop
##rew
##onom
miles
lu
victor
jack
##par
week
fed
organ
##ored
##ois
##era
##ta
1983
assemb
conc
##usk
movie
tree
stand
184
corporation
1982
dou
jos
hand
brother
##ula
1980
opened
light
language
producer
dest
ye
##ended
dif
##aking
##ola
refer
bi
angel
##dom
##aker
gar
##be
##wer
blue
feet
sar
##ador
shr
serves
association
right
##ize
added
commissioned
scott
tal
det
michael
##ison
consider
##cept
##ved
dut
##hest
moll
##ument
works
er
type
##gar
final
pur
governor
gast
##ble
tom
serving
1979
##ander
open
stories
fourth
win
prem
situ
hav
parish
thomas
der
grows
##gy
big
charles
broad
pit
hen
sam
##ently
games
centre
usa
frank
fif
kr
love
christian
board
contains
assembly
rac
ten
##antic
gun
order
##ning
##ges
##oth
kore
limited
site
1981
charac
championship
##ropod
hard
ob
40
project
mm
contin
##ius
death
los
cro
pos
ontar
##reen
metal
ontario
chief
pac
richard
bord
department
compil
##side
jazz
media
##isl
collection
subtropical
hon
place
##ping
sant
##bec
##ellow
columbia
started
fore
cle
##omer
##ala
##ado
railway
republican
##aus
##nam
seat
##ena
tem
division
times
african
50
ol
situated
##igan
game
deg
foc
orch
fest
civ
##aff
1978
ant
##yll
kingdom
cir
batt
gastropod
atl
mic
##ained
1976
sel
show
##oma
northe
video
##ism
often
mang
##hi
program
183
season
##berg
##itional
1972
counc
flows
nar
##oon
fer
spring
##ishing
commerc
bol
ham
carolina
##lands
##asc
ur
films
cm
princ
dan
motor
##board
##ora
prot
dev
##ody
creek
ha
##cher
construction
sand
##erson
rap
heav
mr
##ple
focus
free
considered
tracks
1977
##ible
brand
memb
perfor
festival
##ract
##ensis
##bu
1973
social
voc
received
somet
left
locomot
age
##ua
engineering
##ped
thre
exper
##ker
wales
orchid
ill
transport
members
saint
##onia
hop
##atus
spe
##ye
hms
##har
poet
among
##olk
##of
differ
field
##istan
publis
os
wat
1975
##elling
senate
##iod
use
##augh
litt
submar
shar
created
##omb
##asy
very
highest
##anth
report
men
hotel
##ively
##ume
version
sun
management
##ali
mollusk
##aur
##urer
##oles
##ockey
representing
##ita
chic
medical
electric
greek
##day
council
alth
color
##idi
1970
1974
fle
against
real
areas
philipp
arab
political
hy
various
baseball
##roll
circ
##iny
educational
oldest
loss
asia
retired
mur
although
argent
wide
civil
included
flowers
legisl
ul
pen
european
lt
##med
pict
commercial
feature
dar
corn
alex
1968
##inct
##eth
peter
rob
citation
pacific
soft
equ
##ware
conf
bor
1971
##ria
olympics
den
##ages
gro
fant
these
vess
##wan
threat
fam
##ots
health
##ette
joseph
1969
hit
pain
##ape
##ura
sat
dam
##ky
news
compilation
million
month
##ided
society
laid
##mark
##ient
acqu
##gia
ko
##eter
needed
fall
##ga
35
cd
##ady
represented
good
irish
mah
haw
mix
offers
##va
cross
steam
little
oce
crit
subs
1944
##ennial
quebec
illin
chicago
##western
headquartered
pan
role
cur
destro
editor
ver
period
repl
##ged
completed
cru
hockey
illinois
each
181
turn
dark
border
##ror
present
##hip
point
##oir
##ars
scot
##ban
intro
square
products
anim
##rain
academic
##de
ros
swedish
##arily
elev
ben
##osed
singles
##iidae
1943
across
names
support
press
mos
height
women
modern
ps
threatened
##ko
##ersey
reserv
federal
##oming
document
secret
##ments
adv
##itary
perform
seven
round
ins
fem
ho
shrub
##urs
them
syn
belong
##ca
hung
##ops
##overs
##awa
##ued
##acher
ly
tel
fort
cz
##iff
##ode
sometimes
michigan
##ipl
1942
edward
ku
##enue
moist
anth
actor
ice
##aster
##ks
vis
comic
##ense
1964
jud
182
liter
tot
##ecut
##cl
tower
##gl
different
struct
vi
dutch
##arian
##ami
medal
composer
ireland
held
van
1967
grass
way
hous
sem
crater
primarily
hong
kong
eight
##my
earl
chap
henry
##den
infl
adapt
partic
ut
election
famous
cric
accord
formed
network
##han
recording
##ini
##za
entertain
econom
rug
##itions
##ansas
##aka
consists
##ba
##iger
kent
islands
solo
arr
##ugu
##ches
##oor
ker
theat
parl
beg
father
da
cost
ships
##hood
1965
manga
32
mall
##tr
featuring
worked
##ils
edition
jersey
##jan
##adu
nep
##ios
##outh
tenn
##lex
##ogn
liber
primary
fly
##ature
performan
guitarist
fifth
perennial
ocean
##app
grade
submarine
init
##ym
##imet
due
constructed
##ude
proper
court
manufacturer
gard
angeles
##ally
stage
cab
##ached
##mit
##ization
wr
italy
lower
1962
dail
tar
yellow
1966
ltd
oreg
noted
fantasy
plat
##town
died
##inted
mem
##ells
oregon
invest
military
smith
front
##eder
sixth
wall
musical
georgia
moved
gh
ray
throughout
illust
##ask
jr
##no
tamil
##amed
station
exist
bir
growing
pu
provides
herb
grades
##water
rang
developed
having
bird
##iec
ca
gener
1960
transl
##ility
neigh
ra
township
##atic
surv
##ants
artists
model
night
compan
1963
cricket
##back
2014
though
screen
##uter
institution
half
##ati
trav
##anian
##wegian
altern
##ender
norwegian
chang
##rial
firm
parliam
event
leader
##ophyll
northwest
boat
senior
parliament
according
##uit
##ов
mayor
ak
leading
southeast
lib
##mon
competed
1959
##agon
rank
official
1956
farm
connect
daily
premier
1961
##ilar
stone
fri
parts
winning
ot
character
##ny
##mond
software
stock
stem
##enth
##icles
buildings
##50
resp
lie
acquired
contribut
ve
##bai
entertainment
##ique
180
##ja
##rated
bud
##ted
sports
box
revival
operates
##iro
##atory
minnes
wro
##iaceae
person
##iy
traditional
featured
abb
minnesota
hind
tv
inform
living
term
##well
tak
silver
section
cup
##aska
subsidi
##isco
tim
painter
dry
step
##iding
kal
command
##uz
glob
appeared
wid
dig
sir
##omp
promin
##ych
publishing
1957
turkey
above
historical
##vin
draft
documentary
active
##rum
albert
ground
pak
lee
##eds
actress
castle
paris
##ises
1958
brick
##ological
##buil
##ites
referred
1953
drum
bass
radio
##pr
martin
indones
rugby
aud
comb
related
##ves
bat
fire
##olut
##oy
1955
ukrain
much
hun
roles
##iller
ecu
##itte
introduc
few
wild
##ends
brook
army
1941
fair
bridge
successful
mainly
prior
##ting
sour
ah
degree
girls
total
60
##adesh
action
ecuador
financ
chair
affil
36
wind
still
industry
##gress
emplo
##icle
1917
sus
1948
junior
teacher
norway
vessel
##other
1946
1952
southwest
33
##ications
##ised
fish
phot
advent
companies
bab
sov
elevation
ken
peer
##cer
pron
ram
scient
##ان
electron
##ielder
hu
covers
##gs
##hem
scottish
bulb
##ophyllum
lost
training
similar
##yan
bon
##da
raj
##ered
aer
renamed
philippines
would
##itz
##adel
centimet
took
1954
##anda
upper
##owa
##vers
##ply
shop
jon
##olf
carl
##ming
##hens
ran
les
##aria
committe
czech
##airs
glac
pomer
##ien
nomin
malays
rout
##mad
avenue
alt
1950
##och
##wor
constitu
iv
ss
##aching
subur
bac
polish
russia
secretary
heart
principal
ok
##ried
##abor
complex
beet
1940
avail
##fielder
northeast
##lor
finn
howe
##wa
##bury
import
online
##ause
bow
hills
##ness
bang
##str
francisco
return
##ective
1947
sav
##ocese
##bian
boys
fact
appo
ref
##ste
1949
expl
student
passeng
legislative
fab
pap
store
##ias
recogn
##ublin
ball
##aut
##ores
card
##arp
human
fig
##nd
boston
179
##ila
chain
mater
higher
distributed
##اد
45
##wide
replac
introduced
maryland
host
available
##ima
##spec
cas
##zy
novels
awards
sab
congress
dre
##aly
horror
##edited
colorado
what
publisher
reviewed
beh
1951
##olia
restaur
fc
##famil
##vd
close
studies
body
did
subsidiary
queens
fur
conserv
heavy
gal
less
1939
better
execut
##istry
billboard
came
making
##onto
vocal
bh
spain
soviet
bad
become
atlantic
nick
##rect
##olution
bell
cert
victoria
jim
##iate
34
neighbor
surr
butter
mostly
headquarters
cin
##ising
cer
##erous
##ck
esc
##une
notable
##sc
##omm
##ivid
battle
mir
sevent
wel
structure
key
snails
##inet
ath
##ox
maz
##ably
korean
wars
countries
appl
paper
airline
##phia
arct
feed
founder
ell
master
phys
went
gil
comics
wisc
##family
god
whose
##span
lawyer
committee
lives
silent
wrote
bulbophyllum
##fly
##onsin
nepal
##anz
reported
colon
dor
wisconsin
tai
paint
##men
bern
influ
##ounced
ta
ven
santa
##ought
##head
working
spons
##ography
##oe
greater
philadel
ariz
##ership
##iple
toronto
undergr
##aph
hits
##eman
##aya
girl
37
die
prominent
adm
medium
##ram
##rug
events
weekly
retail
charl
brothers
however
sciences
oak
philadelphia
enc
basket
##ute
sri
toget
representative
peru
##play
resident
together
individ
destroyer
self
eff
ash
fresh
mob
##ids
activ
insp
separ
food
cla
arizona
et
hom
##gen
veh
habitats
piny
sequ
affiliated
louisiana
rivers
wingspan
##burgh
##most
1936
##osa
signed
gram
mcc
##ucky
systems
enroll
jeff
annual
38
hip
##acy
beng
wife
material
jul
##imb
##aries
##icated
##illa
liberal
any
moths
42
##eg
##onym
##yard
andrew
##porary
prime
pinyin
##ects
joined
pod
##aki
financial
##uten
copies
prop
autom
##ensive
programs
pian
woman
read
##wings
boy
##olds
information
placed
##tic
##ults
because
graduate
female
fleet
surround
##rey
hungarian
##cast
roof
larv
captain
queen
position
dvd
patrol
nev
19th
variety
##ava
##akh
bron
##rich
space
contract
plan
azer
1918
fun
property
mean
individual
crime
ru
ce
libr
basketball
##idence
pictures
contem
mexican
reached
gall
##oul
##estan
operating
reservoir
branch
bob
naval
scotland
today
cultiv
##oo
jac
downtown
daniel
inf
##ales
summit
composed
fa
##tor
purch
minor
cant
##bridge
jer
led
azerbai
od
niger
medic
matt
##win
roll
rod
##inea
stores
serbian
1919
senator
brazilian
39
cape
som
offices
malaysia
tenness
luc
ox
seasons
amb
folk
ach
deep
80
##vir
##oms
##je
tennessee
fern
1938
rain
sax
foundation
appointed
##iven
digital
larvae
inn
attended
##ea
others
collabor
test
##dy
arabic
syd
theatre
psych
glacier
cand
jackson
locomotive
past
quar
industrial
nine
##ji
every
lived
1937
##ycle
##odz
##hib
##asht
##ining
staff
surf
sponsored
swit
##imed
block
mixed
operations
moon
bos
dom
##ux
1928
jean
##orpor
cra
indonesia
entered
##ouri
ast
ark
worldwide
midfielder
performance
foreign
territ
another
ba
##hs
##kee
##jo
standard
##ned
1980s
distribution
##tu
##tim
airport
anton
pred
pot
specializ
ess
southeastern
addition
lieuten
view
##rd
1930
pup
neighborhood
##ez
publication
lieutenant
##house
iron
dub
kir
saw
##xt
chile
diam
mother
##ances
1934
frame
##ump
web
promot
access
##val
technical
70
pract
fro
contemporary
fund
lear
##ourne
waters
cargo
##don
##lywood
korea
sydney
oil
##mont
executive
athlet
##rian
jones
##eli
taiwan
trade
1935
leaf
steel
lin
##arm
##ken
consist
invol
rose
##otyp
origin
alternative
via
usually
##wick
##aped
element
##icut
dipl
##ira
arth
1920
sister
dj
golden
blues
##ui
train
counties
dun
lank
cut
winter
##0000
global
1929
latin
passenger
colom
41
race
##nia
maine
volume
designated
##real
force
ded
##ending
grey
important
queensland
kerman
isra
20th
nevada
##mas
iowa
viet
1970s
missouri
kentucky
mission
clos
studied
##kh
basin
##iter
kenn
##itan
location
##iat
organization
##ɔˈ
mile
##ema
forward
pun
stan
log
upon
##nan
##agh
mrs
##ote
##ika
shel
##cent
never
follows
rog
##bus
constituency
##enez
pakistan
##iser
study
##ector
cust
clark
professor
pse
locomotives
subfamily
make
journalist
##باد
volc
##ighter
houses
administration
rud
recordings
ic
ny
##road
connecticut
studios
slov
##ela
attack
nominated
domin
##sequ
##nat
coastal
ts
1912
championships
double
##ti
pil
computer
scientific
mand
initially
tro
43
##iga
meet
agric
44
1931
##opter
mach
##hl
##mouth
chairman
##ato
az
seventh
##cz
performed
ll
sz
pseud
lew
carr
prepar
lor
##ан
envir
marc
1960s
source
vietnam
cub
##asan
butterfly
aster
kur
let
rub
diocese
prize
generally
jose
issue
daugh
southwestern
dw
bear
guinea
indiana
williams
existence
anc
##eck
##ips
word
agricult
environ
twent
lakes
sail
earlier
shopping
era
##bourne
##uch
##erto
tay
chann
##yed
##ran
##hedral
jew
qual
na
meaning
runs
thir
fal
imper
graduated
##ns
1927
argentina
##stone
1924
##bi
architecture
elementary
1914
##ич
##inder
##arch
thriller
kansas
por
fut
once
opp
merc
1916
cathedral
##omat
days
croat
route
bed
danish
vent
beach
##aches
malay
barb
##lam
racing
restaurant
pul
webs
stephen
##vo
1915
beginn
kill
##ione
##orial
progress
running
library
venez
1900
##aga
extinct
48
shot
gol
##uy
facult
adapted
culture
stra
pier
adults
##kins
1925
noc
##igned
poss
1932
##band
turkish
mit
burn
holding
puerto
earth
vocalist
altit
##lar
łodz
gab
coach
##iang
1923
##gest
toky
lord
anne
dra
sier
alexander
status
covered
laur
##worth
eth
1933
writing
monthly
nether
##ience
##ipt
##building
flight
orange
chen
##oper
examp
agency
trib
illustrated
##apore
1926
mobile
goal
1921
##ni
##read
##alam
##aran
shah
kam
exc
transfer
twin
52
assist
arthur
ful
colleges
wheel
experim
generation
sr
personal
issues
##car
sex
lic
##net
ener
date
sac
titled
47
shaped
##ades
##opher
romantic
venezuel
ga
hamp
##rev
joe
myst
49
wa
ukrainian
sweden
alab
justice
bulgar
##kin
alps
##yt
buck
compris
##attle
dead
arrang
sher
simply
ford
pc
containing
judge
hindi
##athan
colombia
tank
##oz
prince
prison
next
1922
defender
##uguese
dedicated
singapore
177
owner
portuguese
ka
meth
punk
dance
spent
accr
montane
trust
##chester
guard
khor
scr
even
ton
adult
##anic
ridge
dean
##aged
leon
imperial
netherlands
##less
500
rais
##ogy
lind
##orney
capt
widely
##oud
print
unit
electronic
finnish
using
penins
las
speed
lowland
alabama
flo
johnson
ped
purchased
estate
awarded
corner
harris
conver
##ateg
46
##tle
##osh
pink
##لي
medicine
##ction
##oln
hawai
si
##onic
subsequ
revolution
mans
greatest
marsh
montreal
##ero
provinc
178
1913
quarter
affairs
pomeranian
surface
##aduate
appearance
bil
##wards
alf
mississ
tokyo
##bc
##pton
ministry
om
ron
attorney
particular
beetle
lady
secur
beginning
##una
numerous
##olis
literature
kit
serial
##here
rare
banks
75
##ses
##anta
youth
environment
gas
##right
##ules
##unciation
viol
##li
##eller
##ovian
particip
##lyn
azerbaijan
whit
argentine
##istic
hay
married
##oke
multi
##track
frig
##iki
##teen
nic
compre
##rov
northeastern
hyd
ban
##odes
naz
profit
selected
charter
dur
fast
size
berlin
comprehens
##aware
vin
##sa
##use
imm
cricketer
arctiidae
lanka
soundtrack
belonging
##hol
almost
concept
interest
##owo
grant
sequel
selling
##ases
1911
##ift
1990s
exch
55
##kn
sho
90
##pe
followed
1908
put
##kie
bah
##ova
masovian
comprehensive
novelist
male
##avi
trail
forms
pronunciation
northwestern
##lane
##elled
travel
camer
take
##wing
produces
instrum
##ippi
terr
##di
##het
mines
lanc
##view
delaware
daughter
wy
ال
##iers
tu
distinct
mine
##ho
##itage
##amin
pitts
aqu
vice
##iant
sund
replaced
founding
##anna
emer
1910
swiss
rapper
##ighth
bot
pradesh
covering
incorpor
here
##inth
##ilities
rio
occup
multiple
##inae
styl
##umb
##orm
lyn
classical
website
51
tax
##itted
literary
strong
philos
gul
hou
rocky
officer
hur
steve
recently
highway
heritage
contributing
honor
centimeters
jam
relig
sed
##rad
those
serbia
bound
##zow
chris
melbourne
##pa
true
maxim
##ections
lewis
##uous
francis
method
pyr
competition
residential
taylor
drummer
sales
linc
larger
obs
##uty
wilson
figure
mississippi
##ope
##hew
##ificant
1930s
businessman
kel
##mann
nfl
gor
expand
energy
without
##abeth
manufacturing
temple
##inary
##fect
##boat
empire
##ridae
charts
channel
##asa
significant
educated
manufactured
takes
dies
means
tells
##lah
process
friend
##sen
maria
regular
switzer
hull
##bell
54
rough
##sex
britain
freder
regard
dougl
eliz
##bl
##osl
##ques
ali
tril
##tuidae
switzerland
unc
exchange
fruit
##iest
meters
##used
lincoln
##stein
bands
##ential
hem
##greg
garden
alberta
joint
publishes
spir
##aku
floor
##mph
##bon
handed
subject
purp
jas
kaz
##agu
erect
screenplay
lam
rim
##ators
##ols
abbrev
yard
##bour
65
##aps
outside
sierra
brad
dog
nord
metrop
arkansas
harv
achie
goth
warsaw
##ев
##unch
result
##fish
##ication
deliver
merch
branc
##urance
stems
sug
##self
##lines
##hu
soul
control
boliv
look
marit
express
given
mike
further
suppl
eric
pad
rand
adj
##ogue
acres
kat
tail
partn
howard
khan
falls
raised
##olitan
##opal
cars
finished
anthony
dal
##roit
56
53
##rane
edge
zone
faculty
railroad
##enced
shipbuilding
movement
recognized
motorc
equip
freshwater
aver
##ways
tol
commander
schol
starred
##gypt
noctuidae
edited
pick
exhib
deal
1950s
nearby
harry
ident
kim
vale
thor
##aver
characters
lyric
iii
pack
deputy
lux
bapt
except
fighter
agent
##dale
convent
dak
cooper
fox
break
victorian
taken
##uts
detail
##ingu
##ifolia
associated
sess
##weight
nearly
1904
und
geomet
trees
utah
300
##ev
##10
colour
colonial
wrest
trin
##ito
appearances
occurs
douglas
borough
hampshire
mystery
reach
##ci
voice
fine
bachel
alaska
plann
andre
flag
productions
pitcher
represents
##enia
congo
suburb
egypt
##20
##ateur
your
inte
articles
1909
if
##eston
pione
stream
pir
##alo
##ار
moham
surrounding
sin
##alia
narrow
reviews
##lan
alp
##ither
lublin
cred
twenty
pittsburgh
##po
detroit
1905
cele
dick
mars
soccer
malayalam
oklah
row
##empt
cha
classic
venezuela
concert
courses
peninsula
jay
##ili
suff
##ław
cultural
nation
##bar
brun
picture
gang
kum
oklahoma
hair
labor
cyc
desert
rear
landmark
equipment
##ories
interior
closed
doctor
kon
lif
changed
vehicle
overall
hart
polic
##roph
chem
##ying
##ims
costa
focuses
learning
max
montana
mol
police
elizabeth
64
cond
1000
robin
##uki
privately
conservative
bush
wet
##oto
coed
swe
davis
come
##ailand
patrick
security
simon
powered
diesel
internet
fred
admir
serve
khorasan
1906
##rot
accredited
hus
##bach
barn
thailand
platform
bronze
cow
pay
##cha
##burn
##ention
pale
##elia
##aho
km2
fis
brian
amateur
myr
fash
rises
lub
acre
cart
experimental
catal
candid
##rom
versions
##itive
seen
nova
##ascar
##rees
raz
##yg
intended
enrollment
57
future
houston
regions
automob
preparatory
greg
ple
tun
hang
##rid
himself
sud
##gu
asp
course
pond
oxford
66
eag
eighth
spl
itself
hamil
##cot
terms
discover
belongs
mosc
hamilton
cyr
tas
##ification
##brid
olympic
##reme
##ece
clin
##rupt
##ulation
##ographer
pupils
dais
cham
requ
horn
nag
##onian
shore
undergraduate
espec
producing
##anced
announced
peaked
gothic
fail
entire
broadcast
baptist
##rus
palm
rot
inspired
pianist
altitude
fu
railways
towns
ott
saf
##ocarp
##jord
cities
##chi
cry
rat
jes
our
##acent
coup
ross
beaut
bru
providing
walter
especially
tanz
##off
##bed
1st
ow
##iab
account
##mal
##ream
orth
belgian
brist
drive
angl
transferred
##ouver
snow
##ems
comes
##ello
roc
##pson
solut
locations
geometridae
mam
coeduc
400
maur
forewings
ranges
occas
custom
tallest
##zeg
urban
blood
##rin
keral
tam
##ista
provider
communications
coeducational
lov
vanc
##ination
facility
maritime
اباد
shipyard
1907
karnat
progressive
##ateau
flying
##hr
salv
##inger
##uther
officially
##rint
prob
courth
lawr
welsh
fame
han
1903
micro
fashion
kerala
karnataka
provide
##iker
premiered
fight
lun
##war
fel
moscow
##andra
apart
titles
telugu
adjacent
adventure
residence
nob
##ipe
chapel
##agen
##cester
##ographic
cabinet
vancouver
factory
becoming
##ori
warner
separate
##more
seattle
prec
bachelor
dol
gord
baltim
58
nap
stat
rome
baltimore
fictional
animated
buff
converted
##uan
smaller
scul
portland
nigeria
##ched
canton
sent
diego
ug
majority
preserv
wooden
gi
##wich
##atively
example
metropolitan
##mo
degrees
1898
##rod
filmed
franklin
jur
mak
ranked
abd
manchester
complete
##ao
antonio
wolf
##heim
hond
jama
ward
obl
74
kos
cho
attempt
kl
##usc
gray
cass
nebr
lines
anti
##vert
##ophy
fabaceae
alan
poetry
involved
ay
months
investment
lawrence
sad
frigate
kan
swim
##iders
finland
defe
duo
dakota
rico
##zyn
##isa
##ishop
crew
samuel
##yst
lp
##ranean
pas
allen
bright
austin
dall
twel
trilogy
##veland
morris
tort
kw
romanian
1901
escort
integr
hour
##itors
managed
christopher
dock
austria
hero
memorial
bangl
universities
got
##uri
##estone
depth
um
hud
lac
##wright
##asing
gran
carry
operation
miller
maximum
cook
1902
##30
62
##vɔ
succe
adaptation
territory
##oba
bangladesh
##kan
aviation
##isters
##borough
murder
courthouse
cyp
cleveland
gym
provided
starting
##leg
##ills
##issance
##sky
twelve
greece
bernard
ib
friends
von
plot
eventually
data
impact
hans
rober
150
shir
##ancy
##kow
cos
celebr
sor
sid
##oa
carp
behind
##iot
intell
##jɛ
brief
admiral
lob
nich
##bro
could
christmas
dream
##wart
hybrid
asteraceae
##cul
politics
ancient
must
daisy
publications
manager
beat
remix
critic
fields
pine
uses
mp
designer
communities
transportation
sculpt
moore
insurance
bolivia
##ll
asian
pow
vern
##cia
##aceous
diameter
og
pin
chron
madag
mediter
ig
kap
consult
59
consum
branches
cum
mare
ky
##mes
get
liver
lev
##aha
jane
cem
kol
##pool
ahmad
bengali
kann
romance
##inum
conv
grew
industries
performances
frog
distance
universal
176
cc
##ер
##itch
teaching
abbreviated
bia
##opes
guest
respons
kab
units
prototyp
categ
teen
ern
clear
pear
shan
tony
chah
##isha
wings
gon
gib
##ih
flat
cambridge
away
##uled
shows
bomb
cher
dublin
room
relation
##ef
##apolis
confl
gay
##oko
genera
ordered
atlanta
reaching
idaho
israel
dc
sized
##iph
sched
canal
episc
telec
##elle
entry
rights
highly
expanded
merchant
markets
performing
whom
score
earned
barr
issued
provincial
yam
springs
##oli
1895
##list
##ule
indie
economic
mediterranean
ninth
##ин
##igr
advanced
jewish
##tt
##green
nebraska
subsequently
fav
remains
sap
resour
monop
1890
gam
va
##qi
purple
tang
miami
centimetres
episcopal
##iri
##avia
classes
till
campuses
holy
##40
##iance
1896
survey
ring
##gart
dh
##alis
lok
##van
truck
12th
derived
cel
##ands
##ayan
holds
util
##aine
facilities
67
##umes
estonia
lith
additional
chester
leav
##rys
rules
1899
motorcycle
bart
##ор
gable
forces
frederick
nel
61
ard
##clus
opt
tab
##ен
prefect
##enian
solutions
skys
assistant
madagascar
case
subspec
install
salt
winner
particularly
##illic
##ahan
meas
ferry
hug
collected
volcano
nash
portion
jord
m2
conduct
175
##ead
1897
vel
##ellidae
dragon
##zh
estab
birth
cy
1920s
drafted
ja
##aro
warm
68
72
##chen
debuted
bou
rise
##ashi
brooklyn
bats
##ements
##berry
filip
divers
engineer
mes
##ovina
donald
meeting
skyscr
subspecies
##rig
##zo
sha
offering
aged
##ifer
blo
partner
strip
##unt
##ologist
##book
explor
find
shad
##ologies
evergreen
congreg
guy
stands
din
adam
rena
ax
unkn
lot
##rice
temper
comed
brew
exclus
mort
##iva
policy
probably
ms
deh
bristol
piec
mind
pharm
##aja
##lets
bosnia
jar
nik
oppos
automobile
establish
##oted
##estyle
##iplane
orche
glass
biggest
occurr
##prise
podl
islam
alfred
tet
##olas
confer
##ras
phill
juan
boarding
gordon
85
joh
belie
ukraine
instrumental
cord
##lu
kenya
average
philip
unknown
sul
##mi
##uma
##elli
incorporated
##abil
epis
bey
page
##yth
neg
yorkshire
thai
amaz
##ompass
gymn
km²
motors
simpl
##een
merged
richmond
hold
##isk
orle
cemet
scen
hawaii
desp
developer
finance
cemetery
##ints
63
##ians
71
##opsis
cyrillic
anderson
berk
scotia
##iti
encompass
biał
mord
##yo
##ties
recent
door
translated
##pur
##rem
##eper
grown
##hra
religious
semi
rate
##gae
helic
landing
cruiser
candidate
##vens
specific
scor
valea
advert
matthew
botan
##sch
##oda
slight
content
closely
internationally
##aught
amp
tan
legume
orleans
lay
theater
classified
specializing
sang
##oen
teams
gulf
scholar
visual
##stra
carib
text
mineswe
carrier
link
##king
##hatt
vik
##utt
accla
domest
anime
walker
horse
consisting
tanzania
##arus
cole
1892
map
##enny
18th
musicians
returned
##zi
kevin
discovered
vinc
veter
##look
billion
dyn
##را
pronounced
specializes
fellow
herzeg
##لا
##ante
licens
relationship
engines
##ович
rhode
tow
bom
##ipped
anglican
##avian
squad
1893
eg
##gium
##ectively
adams
##obi
vic
##gow
dram
match
herzegovina
##stream
##aza
austrian
sq
scar
help
dallas
1889
commerce
##core
##agan
twice
##oka
bruce
carn
cameroon
##jab
legend
##yees
know
employees
##keeper
slopes
latter
cinema
##aign
##itation
##itled
##adi
certified
##ving
##ла
treat
##ced
recon
gill
either
kg
##ecess
ira
##iction
metro
1894
1885
bath
##iting
##ido
poz
1891
remained
dd
ost
rab
##gas
##oni
marketing
fus
##bird
russell
architectural
bollywood
##isp
##eta
unl
##ophor
mascot
saxoph
76
mouth
##ии
labour
sky
2nd
aka
##aux
hell
operator
opening
anthology
##utes
build
##eding
economics
tasman
bishop
##jar
##12
releases
delhi
##stand
playwright
##rac
does
marie
magn
prototype
skyscraper
gary
##met
##icult
genre
institutions
scene
vinyl
##cel
borne
wright
venture
##ging
ens
##ennis
mathem
vessels
ghana
cultivar
agricultural
methodist
##kar
##avan
##flower
said
nurs
##atra
##atche
##mingham
jacob
regarded
cu
##zen
registered
biplane
acting
##riage
cad
wine
nadu
zh
##dam
happ
unique
##named
coun
practice
##ube
monte
##encer
##fla
brom
ey
gene
husband
accept
69
sons
##esse
diplomat
bann
##mus
graph
##duce
legal
crown
slovak
sabha
cyl
mum
inh
mathemat
##ansk
##iko
spirit
credit
##orous
peters
weeks
sle
spread
nature
1887
entir
120
eug
nak
concern
birmingham
kings
##ifically
supporting
tennis
##rance
73
##lington
##esian
focused
entirely
aur
cinc
nas
launch
furn
glas
##udi
sofla
nelson
78
continued
refers
##urian
overlook
##loyd
panama
croatian
prefecture
##yers
##echn
margar
credited
corporate
##cy
##icul
trip
below
eld
kid
article
assigned
sweet
##nik
##gi
##ige
grammy
82
rather
wes
##orne
longest
speaker
zam
##ray
##ingham
adventures
mt
wayne
dim
sain
##zt
##eni
##ground
sale
##nel
##agar
capac
defense
lloyd
yug
##aca
olya
comprises
monoplane
rib
bassist
##vis
##aters
sett
##bean
ord
##ographical
denmark
pomerania
bag
##cs
##estrial
search
##enna
anal
##iah
airlines
treas
captured
lunar
98
sask
##ament
distingu
palace
heights
inside
dave
fisher
vocals
##apers
volumes
underground
alpine
mack
simplified
##hattan
bes
unr
##odge
##angel
striker
##eley
##bre
##atum
##thing
##idents
coal
clay
dwelling
##lad
##uro
##ando
wyoming
say
##ski
arn
engined
jefferson
quality
##iper
heavily
core
taking
clar
scheduled
##oman
##ardo
strat
knight
punjab
bulgarian
matches
reserve
bonus
ry
share
designs
1880
possib
kannada
##ск
warren
##oria
centers
manhattan
confused
pierre
split
filipino
direction
manit
reiss
offered
projects
mess
##con
##ager
torped
1888
oz
##hor
incre
##eks
enterprise
##iday
##rator
literal
contest
older
hund
despite
##ghan
collaboration
cool
vac
toy
##ension
tortric
##ør
##idad
moving
bengal
purpose
baron
frequ
grammar
nom
ols
rav
seg
owns
luis
reference
responsible
bic
overs
##hat
thompson
##vi
broadway
applied
lem
sisters
hollywood
##nie
##light
##omes
##leton
appears
##ented
househ
occasional
authority
critical
quarterly
pel
##lie
compar
mead
1886
lad
##onist
##istics
scored
independence
##echan
cinem
tribe
cincinn
hos
haj
##lev
format
torpedo
cot
##enh
experience
confeder
poznan
face
##ар
spider
teachers
category
esp
lyc
porn
##gom
##ور
##isation
disney
slightly
arc
##shah
##char
fars
libert
feder
danc
sah
##ku
##sel
hat
##ients
##maker
77
##olly
glen
##cript
len
##ulu
campaign
investig
roberts
sunk
##gers
##orts
terrestrial
roughly
eh
chall
##load
streets
chi
elements
caribbean
cincinnati
gained
97
##forest
sole
fully
##anger
types
##tan
1883
##nica
##uct
prom
banking
participated
rid
##yne
curt
beetles
activities
wiel
bull
lav
wick
##olo
murr
##11
##inus
coc
vid
franch
writers
alongside
derby
agriculture
gd
##mat
chur
singh
##lins
shortly
1884
catch
##chell
goalkeeper
change
hudson
##wal
##ين
##built
attract
ult
##lear
campbell
specialized
audio
baker
##iles
specifically
mahar
herbaceous
susp
bav
##ugal
johnny
vehicles
excell
luxury
##astic
euph
motion
##tained
##weed
stewart
belgium
roger
details
##len
least
supply
##anthus
domestic
##var
##hester
##orph
carter
opera
technologies
liverpool
##60
should
males
jonathan
uganda
bene
##ovic
tales
bod
iz
##ously
##cus
250
marshall
andhra
armed
hir
norman
merger
lane
parents
meg
jordan
bm
##din
allies
broken
silesian
coming
presby
goals
landsc
morgan
mut
morn
##fa
lyrics
kor
somers
floors
trinity
buffalo
sides
wool
##ampton
shipping
crow
rated
##bank
##rical
bala
presbyter
hyp
##aman
michel
capacity
##su
georgian
changes
81
nuc
174
interview
ambass
79
khuz
hundred
mis
14th
gallery
stanley
croatia
88
rica
##anes
brig
barry
continental
hungary
3rd
rick
mining
mosque
makes
towards
relatively
hend
tenth
##eless
reform
plain
shape
turned
kiel
##rast
hunt
bbc
##die
##oust
produce
lock
sao
kumar
ian
ski
##folk
citiz
pair
rig
stu
##allow
yugosl
khuzestan
##illo
leban
cloud
trading
cav
roots
sym
##dal
cold
detective
gate
crim
##askie
hunter
kelly
groups
minesweeper
kath
anch
soon
sandy
gross
##com
##iform
bog
buc
tortricidae
gaz
phoen
cell
jet
##iya
##sm
##aces
160
philosophy
communist
magazines
##unct
##iji
ghost
sites
1875
activist
luther
##wall
abs
doub
oliver
hope
peace
pic
tou
israeli
heb
climb
parent
renown
environmental
pioneer
ambassador
sony
experi
conference
literally
##uta
##tha
forming
bott
gur
##uda
pruss
norfolk
##alf
##asia
players
midd
possibly
##roc
longer
mohammad
customers
batsman
93
pav
prest
##oker
portugal
eye
slo
tale
##rh
freed
lud
mini
money
##ovich
1882
carlos
##bers
tod
cruise
presbyterian
##low
blu
remaining
loan
glasgow
mig
notably
steven
animation
##meh
languages
vine
ended
formation
##sin
##dr
##izard
poor
guide
beij
transit
1881
anna
ryan
want
yu
##iop
colors
##ruction
machine
sage
monk
montgom
hydro
montgomery
wer
##bul
##apes
models
kinder
##stad
shin
newspapers
madison
95
mey
satell
##ichi
divided
nations
tul
sty
unus
##ishi
##ommun
keyboard
lil
##aled
orient
grac
drag
##teenth
limestone
combined
piano
bulgaria
nazi
rah
##eenth
##ˈt
autobi
theme
uns
1870
thorn
plans
translation
billy
planned
churches
84
99
create
connected
chan
singing
1867
battles
##uation
##حم
grah
##ideae
journey
karl
##fo
stop
13th
circulation
vincent
gent
##iere
110
nashville
bond
dia
##can
recre
farmer
1874
1863
beijing
##lon
##ws
kilometers
##gle
##otte
minute
largely
##aul
supreme
wol
600
entre
lag
ports
margaret
##aser
##iful
brid
metre
##ariidae
murray
##nic
##edonia
resemb
##rah
diff
rainforest
jesus
temperate
800
caus
mail
##gate
fried
cann
remake
eleven
ches
ov
##gie
inner
jason
dates
gear
ric
essex
peaks
urdu
initial
mitchell
fill
##aging
marvel
epic
latv
fix
sank
wed
##uster
reaches
tug
locally
##zes
alum
elections
##anne
marked
influential
cave
hors
##udes
mong
##under
endang
commissioner
1872
4th
fat
wre
encompasses
somerset
##oga
critics
platinum
papua
manitoba
##uv
consumer
fan
##hing
##owice
griff
academ
younger
##othy
painting
predecess
bought
ty
uc
seb
##aea
##standing
phoenix
baby
jamaica
##pers
instead
##zew
mansion
##garten
##zys
defensive
1876
honour
intellig
beth
diamond
orchestra
endangered
pant
##owiec
170
130
1861
87
lan
nhl
tyr
##ju
compact
robinson
defeated
##ss
epit
armenian
1860
razavi
bomber
holl
rene
##enton
1871
15th
corp
snake
achieved
##umi
movies
cany
dip
gian
86
need
##iba
1500
specialist
organiz
benj
ced
ech
##hist
harbor
wilder
gardens
bak
lip
duke
eagle
fi
##eton
paperback
formally
grande
succeeded
##ик
newport
##oresc
telecommun
##amo
corps
authors
creative
rect
##atchewan
saskatchewan
cul
##eas
legislature
##usa
drain
driver
indonesian
92
mast
andy
allow
decor
##aleh
photographer
jimmy
bure
##do
trains
stevens
immed
benn
##uca
hisp
iranian
licensed
kind
##fr
spin
basis
1873
thorough
ki
mv
mul
##fort
##ovo
historian
entrance
guns
ceo
##asi
##ifl
contain
83
rush
declar
extensive
alger
trio
coff
##achi
mills
imprint
thought
iceland
sunday
nuclear
dob
cannes
capit
ultim
honda
podlaskie
##zan
perry
##grass
defence
##esc
##onder
loch
renowned
lion
proble
birds
lithu
unlike
##80
##anny
nicknamed
##star
chrys
##ulum
properties
##ле
directly
cob
infloresc
mumbai
eb
vert
##has
##ifol
flood
##ilis
supported
congregation
benjamin
91
ni
herbert
ranging
mant
tech
grove
hm
raf
##mers
##erts
##ache
thick
17th
going
1864
innov
hairy
resources
##riel
too
keith
bj
cock
foss
##eb
ghar
##acht
partnership
chilean
settle
raymond
flagship
##marine
kindergarten
ninet
lept
bros
##boy
quest
beyond
##room
describes
##zcz
somew
1878
1850
princess
applications
revolutionary
##ˈn
growth
craig
lance
boats
commonwe
associate
electronics
johann
##uits
isa
acoust
morning
##swick
##stan
chos
perman
interact
planet
graham
note
##roke
1862
lesser
volcanic
partners
commonwealth
cott
vas
##care
##boro
kaw
##enge
##atsu
athletic
5th
riding
##oral
trained
philippine
cultivated
amazon
hebrew
89
bit
zimb
elm
curric
saxophonist
##vet
clim
1865
denver
##icus
kuy
respectively
##iac
plc
1940s
joining
##athi
wrestling
drop
##orf
funded
watershed
##master
##berland
##odox
commune
wo
medals
suburban
##reh
beautiful
##iabad
comedian
##sw
grape
budd
dir
##grad
hamburg
path
price
##bh
plus
else
index
simple
##icts
soils
snout
myth
editions
businesses
archdi
flowing
done
fell
1800
junction
voy
hub
strug
continues
trial
masurian
videos
surviving
holdings
##aug
bears
evans
moroc
submarines
##rant
standing
advertising
hob
tag
taught
bark
cuba
pool
##bane
##inia
##oned
extended
prussia
dennis
##si
##acon
##abwe
swamp
##на
##eda
refl
collins
aquatic
doll
jenn
##mund
##ɔvɔ
##inidae
##eyn
ottawa
nicholas
zimbabwe
##irement
villages
##ст
carried
freedom
fitz
##aen
##stown
chand
afghan
cream
1879
nut
urug
##apur
offer
sources
warmian
##alus
##eld
frag
barbara
bavaria
piz
marg
contro
budget
urugu
96
fishing
kun
unified
prix
##bn
lep
physical
sessions
acclaimed
plateau
adop
mann
harold
##iyeh
cardinal
rice
sean
1869
##utical
belarus
portions
brunswick
euphor
##aru
worcester
accomp
mercury
taxonom
archdiocese
##ht
##urt
ornam
glider
clubs
mechan
##coming
flies
param
soldier
chemical
wag
navig
quick
giant
##ال
##igo
##ocer
##ampa
evangel
rhine
szcz
serialized
satellite
controvers
wir
tob
##ivan
##iden
controll
16th
shrubs
ivan
##ads
##enne
169
physician
##eleased
cloth
alliance
milan
bald
wides
plaza
##aukee
##prene
observ
inters
improv
charlie
##lass
portra
gabriel
entreprene
##bit
##ader
##azi
autonom
shrubl
subc
delta
1877
thirty
##ztyn
nan
freight
pep
revol
attend
chamber
briefly
kay
tir
##wyn
##olor
magic
constitut
veget
code
kash
narr
egyptian
##anga
breath
manufactures
sussex
episode
styles
##ghai
commons
monotyp
operate
screenwriter
kermanshah
##iflora
sard
##ester
shown
pilot
towers
canyon
ng
aspects
##ophoridae
cact
och
##ression
target
distinguished
rut
windows
##ento
guat
##duction
pyram
liberty
housing
hi
margin
mits
blanc
boxer
llc
immigr
cartoon
isle
scrap
##itsɛ
alexand
##ashtra
lack
moss
##uge
##overy
##osc
flights
craft
sak
##zel
##ysis
victory
mollusks
kennedy
pseudonym
conflu
aj
math
reb
mason
delivered
outer
##pread
stations
##izes
milw
monotypic
7th
##ocene
developing
cabin
materials
predecessor
widespread
pter
##roe
points
keel
jerry
shanghai
cylinder
bin
ji
##name
holland
graphic
kle
##fe
decid
ernest
brewery
households
unusual
ras
##اه
paras
foster
cec
##70
##eri
illustr
kah
tig
tip
##aco
develops
begins
helicopter
ral
##zie
##ability
trunk
##holm
3000
##oh
##ير
neil
brands
terminal
deanery
pleas
aar
rou
fork
nee
loos
josh
vermont
earliest
##19
##eline
communication
hindwings
restaurants
##ʂɛ
##arn
##omon
##rose
deciduous
rar
nigerian
straight
##ds
##bred
females
structures
ranking
kirk
liner
lak
##igur
##phy
##box
drug
hp
ori
martial
advis
acoustic
confluence
##aris
spelled
corv
invas
##etta
ceram
painted
eyes
au
haz
kand
raw
##bow
##iner
##otes
minutes
za
touring
boundary
wave
sens
##ль
##arf
##iano
##antly
woody
##alypt
influenced
hil
173
columbus
krie
##onymous
exclusively
guatem
milwaukee
dors
mend
##mel
##ares
##olid
auto
##strong
6th
bert
fans
hed
tong
hotels
##inking
parker
islamic
tasmania
hut
kin
##dish
##25
##15
descent
wells
##castle
federation
kuyavian
##rie
basil
1866
diss
brought
cler
flank
saints
seminary
killed
maharashtra
##حمد
lis
sector
##bol
spect
meter
##ontin
##aba
typically
steamer
replace
charlotte
8th
mud
##eno
joy
subst
edin
circuit
paintings
pall
rust
##andaran
1859
housed
funk
tib
yun
##fast
stay
##oder
colony
inches
historically
poem
administrator
modified
marketed
illustrator
mazandaran
##onen
##ety
140
magnet
themes
##gio
ages
terry
helped
woods
believed
rising
levels
gilan
thoroughbred
##odore
suz
caps
rogers
stuart
##ska
hangul
tat
##tery
distinctive
bureau
invent
aleks
basal
##rett
##donald
integrated
borneo
cov
hes
sarah
oblast
leaving
##fjord
##oku
professionally
renaissance
eas
designation
10th
11th
programme
trainer
orthodox
reissued
shrubland
lst
medie
disp
synag
tri
armstrong
battleship
ted
##time
##rove
##away
##idea
swimmer
overlooking
prair
sche
apple
##itting
hardy
essays
vfl
##etic
butler
owners
powerful
krish
drainage
medieval
##rik
##orter
chal
heath
wholly
residents
125
numbers
conventional
establishment
dele
##mill
1868
shares
presented
publishers
##ystok
##horse
pyramid
tav
##arth
trump
orchidaceae
reports
nickname
ip
athens
scre
manor
drains
consecut
##plane
collections
memoir
capitol
9th
woodland
1855
certific
hort
nad
vlad
bever
##rington
faith
dubai
failed
mond
notting
turner
behalf
harrison
białystok
olsztyn
nig
sag
wit
parad
aired
sugar
suggest
cosm
alice
thous
utility
1⁄
pont
##mission
##acts
serge
steep
proposed
##fit
ranch
##kop
##ет
##rete
reed
districts
##ashire
automot
wreck
euc
cliff
circle
reading
clothing
94
aber
cable
##rob
bris
newly
educator
focusing
neighbour
alternate
##ahu
desc
administer
finally
lancashire
telecommunications
lik
##hill
andes
wilderness
py
##ici
attached
download
purs
sharp
epithet
somewhat
permanent
pon
resc
childhood
animal
##кс
shaw
exped
fighting
casc
rican
##horn
theory
words
curriculum
bid
sections
tourn
asc
scand
universe
contained
1857
routes
declared
dial
pros
specim
harbour
athlete
session
occasionally
confederate
samp
##gil
compon
berg
1⁄2
gave
zar
##يد
guang
address
congressional
gdansk
##anmar
spot
##arts
phyll
1200
pent
sik
##ام
producers
oliv
devil
##lic
cruz
harvard
##yal
grace
larry
goes
oakland
franchise
kriegs
marks
kas
kra
tap
zag
##urg
perth
##евич
##usion
chosen
automotive
dod
##kes
successor
##vor
##wort
honey
mathematics
kriegsmarine
dang
vul
##gn
dominican
arranged
##uj
##им
cris
papers
bhar
hid
ply
##ooth
##uka
##esco
decades
1854
evening
das
##lers
##igen
nottingham
soph
triple
ago
myanmar
remember
koh
arctic
##nell
##inist
##edo
##iman
idol
botanist
comment
highlands
actually
freestyle
conservation
symph
intelligence
edinburgh
mist
newcastle
101
sect
keep
socialist
scenes
entrepreneur
administered
sell
##gon
newton
worth
##intend
comprising
sculptor
hin
##mir
poaceae
##aneh
empt
aw
bach
gosp
##oi
##ит
upcoming
actors
assets
basic
turb
szczec
sib
sells
vision
##ctic
remov
hugh
bun
kick
kais
nem
##jee
analy
##unes
##ogon
acts
breathing
creation
chev
uttar
script
wrestler
eur
##cover
##др
inj
##enos
reun
##oshi
##awi
walls
gael
nba
##icas
##endra
colleg
weather
grassland
todd
loosely
joins
monument
demon
chel
favor
unreleased
##fin
##ason
storm
extra
leslie
catchment
##ei
thin
weight
tradition
##xi
##atha
masters
archae
helen
destroyers
combat
##ommission
lum
rebuilt
madh
certain
swiet
retirement
creating
annivers
paulo
susan
supplied
tillands
wur
##ubi
spann
entitled
burma
ralph
synagogue
jak
##olate
##uries
experiences
anniversary
nathan
##ند
##ʂɨ
deuts
shell
leonard
eugene
analysis
lago
##isions
thus
prol
gra
edgar
namib
milk
multin
destroyed
constituent
riv
##zz
whole
plantation
##ierz
taluk
##hestan
aux
golf
kiss
##35
leadership
kazakh
planning
##iar
##aced
plum
##actyl
##asha
walk
rodrig
nymph
##rud
##fc
stal
perh
bests
opole
quad
krak
shared
brisbane
mom
sylv
##rell
##oides
##bod
##jani
##chan
pri
printed
rooms
chartered
pornographic
##vich
deals
##aceutical
runner
lutheran
jag
##aton
lau
petr
virt
grounds
ober
vick
##ilia
decade
garcia
rapid
lynn
mull
wonder
thunder
sword
##ledge
1858
1856
himal
oscar
jacques
tillandsia
jum
lon
##pp
##elin
##urst
cancer
renov
missile
kielce
##night
##ifax
edwards
mazowiec
chronicles
collegiate
bib
dru
dating
mick
wake
yet
##lock
##ulated
spa
bedford
safety
hers
nu
##ayer
musl
krist
passengers
marshes
iraq
kad
yang
##istani
lorestan
700
ci
dix
rol
sut
##dan
##ˈk
ethiop
shadow
perhaps
vamp
##umn
presidential
goods
retailer
preserved
rum
tac
chateau
allan
hands
gc
lap
tub
vit
##icz
##geon
accident
background
##ettes
oslo
murphy
fiji
lah
saga
##ees
##okr
paragu
selection
isaac
gospel
multinational
##where
##14
scale
##ahl
rhiz
protection
pulmon
veteran
ornamental
fear
##oj
##idium
beauty
nun
sv
##usz
hein
capable
melod
halifax
oval
rey
appar
slow
youngest
employs
oc
pound
appe
glou
headed
##naissance
races
subjects
mow
chim
resort
cather
topics
kuh
drums
reconnaissance
immedi
##whe
##eca
minne
poems
typical
discip
healthcare
gloucester
burr
##gus
##ching
statesman
consolid
salem
hardcore
critically
1812
consulting
##olph
attention
tribute
object
immediately
##22
chick
saudi
saxony
clarke
grav
##anni
kenneth
subsequent
gand
nest
vij
relations
organisation
vocational
##brook
autonomous
cly
slender
##uckland
concrete
occupied
lycaen
portsmouth
##ening
lex
##inee
flav
##endron
massif
racer
banksia
gav
tiger
##ир
##ready
##uez
winger
facade
guatemala
##set
trou
poly
genres
moz
monroe
wealth
emi
bays
muk
rams
##cat
##enter
advoc
auckland
ek
sits
166
##phone
twelf
astron
twelfth
900
piet
tons
##wald
##ieg
sheff
1840
ronald
problems
tut
##uing
encl
##angular
warship
correct
streams
superior
settlement
rus
##acle
manila
charleston
homes
athletics
treatment
petersburg
plymouth
bam
##rise
albania
artwork
##ructure
creator
natal
1852
steamship
fjord
jor
##pi
##leh
spok
##ogen
ahmed
gy
##essed
adela
emir
1853
obtained
lodge
##orp
leeds
stockholm
letters
hours
pieces
citizens
prairie
seats
servant
emb
istan
##stock
providence
alleg
##ulus
needs
##ipper
filmmaker
colomb
decided
starts
occur
1848
civilian
wallace
counter
kaiser
istanbul
maker
rival
job
105
estim
stret
protagon
instruments
caf
ˈk
##16
##enberg
##agues
spar
##ureate
revenue
emerg
clinton
pearl
daw
liv
##hard
##18
monaster
completely
networks
surrounded
racehorse
til
##kov
##wig
##sted
shallow
reput
porch
afghanistan
bund
pinn
engaged
amar
outstanding
labels
##onse
##alan
apoc
extends
devon
##gor
##isch
string
seed
traff
highland
##atham
euro
walt
satur
schoon
bring
afl
rhyth
individuals
arnold
ultral
hok
wu
##nut
##ић
##lee
fruits
harper
introduction
harvey
bagh
gel
tok
##iring
##arta
leone
novella
editors
intermed
##cription
cun
yuk
##rix
carab
##issa
percent
image
discuss
sharqi
enrolled
examples
frequently
lb
##fahan
##emen
##ularia
architects
predomin
fuel
##inity
join
smooth
mainland
sebast
lily
علي
diverse
dancer
baja
dum
task
zur
##inian
##ario
##entine
##ete
already
chanc
165
##ophora
tributaries
talent
economist
##col
##lɛ
##oque
##fts
##esia
interp
italianate
rochester
pulmonate
dent
fasc
ster
##thus
timber
##imon
edmon
setting
kot
##sey
##akr
distributor
durham
bloom
##ommissioned
##pris
##łow
##ecz
indies
collect
essay
broadcasting
cedar
adelaide
##arin
##omy
##chin
brooks
winds
azerbaijani
##oid
amster
mcg
abbey
sacred
pedro
danny
algae
chass
##shore
mold
sull
##aling
influence
shoot
##okrzys
##zon
clif
anchor
adopted
swietokrzys
ultralight
ace
fought
ruth
ti
##ridge
##fan
##iled
alone
rein
plains
shark
display
sheffield
cort
##mand
ing
boyer
approved
##ucker
doors
##antha
##umbent
gregory
opposite
difficult
coffee
##life
##iza
moh
carroll
rao
##uyeh
dockyard
expedition
dise
ruf
##fall
ale
ferr
lancaster
bend
##mu
storage
graduating
springfield
psychology
originates
rectangular
edmonton
sung
vil
##ayette
americas
users
aband
wellington
aub
##waters
##quin
resigned
aires
##areh
protected
wroc
rolling
priory
amsterdam
##isition
##oca
##berger
##osaur
clients
richardson
heaven
mau
tick
##kt
seeds
joan
westph
##sea
kingston
bobby
banner
mim
##cidae
biography
crossing
phillips
jav
mate
qal
##ului
terror
concent
occurring
lebanon
wrocław
dat
qesh
##он
##21
publicly
tomas
gilbert
craw
paramount
##kal
##iment
##encies
emphas
positive
pharmaceutical
landscape
catherine
cater
isfahan
##odor
normal
animals
pakistani
drawn
minneapolis
##mitt
##asaki
things
##hers
prep
surrey
traded
##market
sailing
interactive
lions
rca
marion
shen
cox
meh
quer
imag
scoring
inhabit
hispanic
dual
mg
##ption
expans
continuous
pand
rag
##nai
inaug
##zyce
bc
antar
##isers
alph
buenos
assam
##phis
sexual
crypt
bates
lig
##berto
##odont
florence
##laq
venice
bennett
jen
##iques
parall
effects
toyota
java
evolution
tender
elevations
photography
krakow
kod
nur
##ithe
##urers
##stal
##umed
shield
indianapolis
completion
jonubi
sudan
westphalia
gap
hann
wang
##omo
##emon
##ieth
ble
dow
##agi
workers
168
strateg
mixt
cherry
berkeley
sleep
##лекс
bard
yacht
##ked
##24
polyt
gerald
palest
separated
challeng
##heh
screw
perc
rocks
rocket
1851
dy
hood
##90
##omi
teh
mandal
cyclist
fixed
##aq
ending
quart
medalist
infrast
interviews
pi
tampa
villa
##tooth
1846
speaking
##levard
giants
lycaenidae
pus
##aud
##lop
khal
column
configur
gau
hiro
##nus
##opod
##abi
##incorpor
departments
performer
cauc
amphib
##vik
##ilus
##uccess
hasan
blind
##lete
move
giov
monkey
gif
##oux
##alli
shonen
crab
kabush
miguel
schooner
##uccessful
##ders
ones
always
able
reggae
entering
haven
vegas
malaysian
boulevard
##incorporated
dasht
##23
##uru
##acular
##umar
##uments
spy
##opus
weed
baden
maurice
unsuccessful
monastery
swietokrzyskie
trop
##pro
heat
115
heads
autumn
luke
nomination
criminal
gharbi
yak
prote
jed
sit
inch
##athe
stick
roth
angels
myster
patri
appearing
1849
dup
wis
##aven
notes
##grade
##owski
dreams
piece
nursing
##ulata
priest
manuel
eddie
167
melan
1845
devoted
hyper
rosa
physics
controlled
bail
kate
francois
##ija
winnip
##ente
##igious
unincorporated
span
cone
##ensen
##ieties
displ
arrangement
provinces
##ري
##iston
chat
##akers
albanian
164
extreme
cash
##anus
##edes
##icate
ready
brass
remain
burg
charted
##works
audi
employed
kitchen
maurit
dipter
colombian
gig
kau
mik
crist
palmer
darreh
figures
promote
carrying
organizations
rider
##iates
barcel
chapter
ceased
yugoslavia
nymphal
##hal
##arina
canc
##ylla
gunboat
suburbs
give
triang
paraly
angola
audience
oriented
kang
albany
baroque
portray
##otted
equity
accepted
elder
excellence
rescue
dame
hass
zen
##13
spencer
##auer
108
mck
olive
1830
infrastructure
mog
##ра
##edonian
##olved
##iable
marin
##ɔˈv
couple
##gary
reel
neo
seek
gujar
cambod
sig
sara
##alore
##cht
neu
root
independently
aerosp
curtis
5000
duck
gust
##nɔ
##26
##ود
##lem
bry
founders
territorial
diploma
dangerous
lizard
##28
isbn
##thorn
21st
reality
noble
cinemat
giving
ˈɡ
##acia
arb
##oki
releasing
feel
##ikes
teach
tommy
positions
arabia
views
dab
drew
##zb
##enburg
103
350
generations
chassis
ces
eup
calder
artistic
hugo
nominee
winnipeg
gn
gan
hesse
viv
footh
calgary
winged
altitudes
##oslov
nass
niss
##alu
##icum
##than
##enson
daig
salvador
screened
auxili
cork
hab
ore
sł
##esque
##ivorous
##state
concord
eagles
dragons
cs
dil
might
zan
columns
00
bent
##hall
wilm
1847
miche
consisted
prestigious
szczecin
comput
poll
electricity
hoseyn
muslim
##found
##isia
##itude
##ellor
warwick
solomon
biology
replacing
letter
thirteen
worship
##azar
supplies
suffolk
scrapped
##ʲɛ
centuries
abra
##place
organized
##glomer
ivory
##ommod
styled
gain
nancy
pip
##vement
##abe
moor
export
ecl
munich
##joy
##ол
##ка
##imp
sep
##bycidae
duty
theatrical
clinical
voyage
sistan
##iology
##thum
conce
monitor
accommod
employ
aleksand
bis
yar
try
crest
eponymous
mats
discovery
vienna
narrative
sullivan
lup
bras
kras
fortune
chennai
nac
##27
stern
assass
listing
topped
hawk
economy
kc
lec
##iced
tools
leo
teph
greene
caledonia
headwaters
extrem
psychological
promotion
omaha
lifestyle
choice
cotton
namibia
polytechn
auxiliary
jaw
##iw
preston
tra
demol
madrid
amongst
watson
sacram
uruguay
rhythm
fencer
##ovol
becomes
##uchi
maple
fid
tah
itunes
abc
##yler
holiday
bromeli
gw
lect
panch
##rim
laf
edmund
106
163
noir
##ehouse
elevent
friedrich
tigers
barcelona
cb
tin
##gard
##uchestan
belle
baluchestan
existing
possible
##rophy
recreation
vladim
ml
##ил
throw
104
electrical
euphorb
pom
fraser
sey
##anche
pattern
hemisp
squadron
cod
hack
mention
table
##esi
##idan
##idaceae
bee
milton
extens
restrict
sloop
##eing
##elt
bra
opport
depict
##mea
paralymp
jess
##yeh
##uman
##ogan
moder
specialty
##helm
kem
##jun
##icidae
roads
hospitals
circular
griffith
eleventh
cous
dag
kom
therap
##olin
##amer
##imo
conglomer
##emberg
rost
glenn
gmbh
watch
standards
doubles
##iso
##icester
factor
abdul
protagonist
peng
##gal
examin
##airo
willow
photograph
ethnic
powell
touch
dad
dart
gone
sd
yo
ana
##roy
competing
trinidad
swimming
hughes
ensemb
##enhagen
dul
ves
##pm
stol
##iago
seoul
##ifera
managing
contributed
application
riverside
opportun
##rel
##nt
carne
incumbent
artific
presents
135
transform
##uku
ethiopia
##san
##adh
##ieu
mario
##izz
footage
decommissioned
hardcover
pirates
hondur
certificate
kabushiki
bromeliad
eel
wear
##itic
##quer
107
1844
czechoslov
caused
chess
nineteenth
hick
rak
sult
алекс
buses
coral
burm
1835
response
colonel
intersection
consecutive
popularly
##sko
pitched
posthum
explores
claimed
porter
installment
eucalypt
qeshlaq
czechoslovak
dens
hak
##aire
##17
anat
orn
leicester
indigen
solar
fabric
lithuania
nit
##ires
beer
##aze
prevent
editorial
ellis
##hero
why
##ipur
scales
109
leaders
solid
manufacturers
passing
horiz
globe
cuban
false
happy
oriental
ˈv
resides
##oster
dwarf
sailed
knowledge
enclosed
jump
tell
##mant
##ος
##لو
##iev
##uga
departure
readers
##iatric
myrt
slovakia
spreading
aaron
yunnan
tournament
remembered
aerospace
aimed
heter
kyr
killer
pig
##fol
##alp
calc
origins
belfast
shahr
delivery
instrumentalist
saturday
ya
mollusc
recognised
stafford
morocco
##now
##ал
isol
taiwanese
philosopher
gonz
paradise
configuration
##pet
##etime
##adan
##asty
clus
stein
holmes
1837
kurt
apartment
predominantly
bour
kut
##bra
##fri
##oro
spr
directors
blake
tea
electro
rubiaceae
ottoman
gem
pub
##born
chad
repair
syria
restored
memphis
minority
fernando
hemisphere
lop
spelling
reloc
copenhagen
trucks
tian
##illy
##urus
quite
passed
andrews
granite
compared
parallel
bible
fitted
sind
##andez
##otic
leagues
fifteen
carpenter
dynam
chancellor
euphorbiaceae
##agua
##avar
brack
knox
meets
sets
defunct
horm
cornwall
evangelical
cactus
giovanni
lut
ris
sf
##mm
choc
convers
orland
engineers
##world
bowl
uncle
accompan
controversial
pleasant
abandoned
nymphalidae
bast
##fare
forb
resign
edwin
114
depot
millimet
1841
claude
religion
cumberland
conducted
paraguay
ment
##cala
##اب
##andro
ability
swan
tourist
synd
sic
save
##itzer
##adal
abu
herald
persp
patric
liqu
sporting
devices
chemistry
lamb
liga
inland
##atch
professionals
remote
existed
subsidiaries
deleg
##giluyeh
kohgiluyeh
emergency
dill
fiat
lal
tiny
##onica
arms
timothy
tibet
prolific
##itable
reh
##oses
##onda
disapp
1843
prominence
combination
julian
convention
fuj
baldwin
revolves
clyde
indigenous
##elves
sprint
beaver
tract
##izer
depicts
satir
finned
##ocarpaceae
johannes
mitsub
traffic
ole
##omys
##izing
malawi
berry
talk
protect
ix
jol
visc
proc
universite
##ahr
idea
copper
clean
temp
portrait
vampire
artificial
duc
tand
##lement
hep
##resp
##sha
guer
journals
popularity
tanker
celebrated
##ttemberg
wurttemberg
burmese
cn
kul
##down
##ayat
airways
muham
tourism
equipped
funct
kurd
processing
climbing
shores
##essa
allied
reve
louise
peruv
mitsubishi
##iott
##manuel
strange
remixes
emirates
tephrit
boss
lava
##ify
##acks
protest
owen
chevrol
kok
##nant
##thr
gren
##pert
usc
laura
agre
duties
koz
##ocarpus
overseas
##له
##edia
forced
scout
##shan
evil
nowy
hawaiian
##ault
alco
ends
##forms
beck
anglo
surg
franco
receiving
kapoor
measures
dramatic
invasion
kob
##cock
beau
brain
kilometre
superfamily
zambia
##prises
##oric
##ables
brach
##loid
seneg
premiere
inhab
components
sacramento
gob
##ilst
##leaf
brent
newfound
##liner
funds
scrub
thousand
vijay
##eco
presence
collective
1842
1839
efforts
activity
claims
fit
hr
hairs
jin
jal
pend
##hey
##abel
##odendron
write
abbas
appoint
brighton
exploration
##father
thems
##ener
trag
##iking
romanesque
demand
##atorial
flew
effort
mozamb
kolk
kids
lamp
pages
##div
theological
##asium
ish
##aji
populations
baltic
1838
raul
jeffrey
concerns
vickers
estimated
themselves
dz
dust
gora
##rent
##jiang
##29
deer
10000
expert
dawn
function
gabon
sedge
nissan
miz
##kara
##lain
##door
##wear
shom
marriage
bergen
something
etc
sawtooth
linda
cerambycidae
aim
##cano
anders
forty
##antine
deck
santiago
territories
twentieth
bicycle
fossil
gaelic
abraham
ae
diet
stad
##minster
charge
avant
passes
looking
cyprus
gymnast
autobiographical
hesper
sebastian
##iu
##asu
estonian
ecole
identified
henderson
##zeszow
daigaku
tric
trophy
##lehem
##iae
##iao
##oche
leuc
instr
therefore
telephone
scientist
latvia
ou
yank
##sburg
##oleum
volley
brownish
sounds
compiled
replacement
settled
meadows
benef
intermediate
newfoundland
##idal
##stead
cutter
falcon
##zhou
exclusive
mowt
bened
rip
##sl
##reb
##amar
colin
warr
##adeh
pete
##etti
dubbed
promoted
siber
inflorescence
jennifer
instrument
hod
##aks
bryan
marqu
instruct
##lett
##ycles
strait
laurel
bethlehem
wilmington
fol
ich
piper
ria
tl
told
rever
shut
mounted
breast
taxonomy
foothills
ner
td
##ın
truth
##olla
henri
synonym
arranger
gives
##haw
chamb
##ulate
orb
acid
ownership
intellect
mouse
ud
wł
##terior
spark
shim
buy
##anca
caters
emper
enterprises
camden
rounded
viking
##graded
quercus
kee
##bal
##enz
prosp
whilst
##aken
enough
minim
##aje
belgrade
sumatra
skater
bangalore
admitted
bradford
opposition
3d
4000
dend
dome
gamb
mental
##furt
##zno
upd
compositions
##anthaceae
denomin
humanities
##ifolium
dunc
dense
yale
##rock
stated
chlor
##opp
##odon
adrian
exam
smok
operational
mainstream
##ephal
hulled
wesley
keyboardist
illustrations
conglomerate
wend
##aise
##mor
##36
##asp
flash
coch
paraul
smart
connects
quickly
rodriguez
reputation
bone
dale
pill
sust
stood
##ovan
##hera
abst
herman
##atti
guyana
gros
mash
rit
##icia
serious
##soft
canter
singers
teaches
geoff
divide
teenage
gracill
polytechnic
extensively
dong
ˈm
##yu
##mg
##anum
##esa
##atar
sten
spots
shops
##ourt
americans
##ieri
156
slug
lucas
cameron
tailed
dramat
suzuki
deutsche
expansion
ensemble
cay
##rill
##nu
##ко
##عه
steph
##oszcz
leather
indoor
##shi
monten
cramb
finishing
##regular
hyder
lyon
personality
cbs
qaleh
arrow
perfect
approach
arrived
carlton
bradley
sidney
resource
tehran
gujarat
##jer
##pit
reef
supple
humans
erie
bowler
##point
geneva
tack
##dock
##ipes
irregular
bankrupt
1836
1810
bmw
rarely
orlando
cros
dro
easy
rw
vib
##liga
stakes
chil
chatham
155
quinc
reddish
extension
consolidated
aq
##icial
##rea
prague
leop
##anton
##ikh
commercially
1820
carabidae
gum
##ɛˈ
flesh
##enda
##going
municipalities
hook
utric
parliamentary
laboratory
catalog
kurdistan
lisa
##uters
##feld
##iture
reyn
shank
firms
##ylum
##see
weap
117
skills
reporting
damaged
insects
janeiro
##respond
peruvian
pull
##aski
boeing
##ears
154
##inda
##anthrop
1825
napole
##скии
easily
volleyball
dhar
hast
trich
##bot
##gol
##38
##icide
##illes
##ourg
shep
flown
outdoor
louisville
civic
##rahim
eucalyptus
cou
##ɨˈ
##ره
##alem
enjoy
joel
wilhelm
wireless
corvette
vall
##nian
##had
classification
justin
chaud
mechanical
abstract
ses
##pat
##øy
##osper
arist
##uced
centres
salam
crosses
translator
gymnasium
kolkata
dos
ery
pab
محمد
##auc
##wise
##ilion
##iane
##anti
writes
fourteen
parks
manufacture
hardware
hopkins
cruisers
chapters
hunting
huge
hosts
jewel
gaisha
conditions
windsor
carnegie
mozambique
mys
##rae
##kir
##ishes
flot
correspond
##undant
selective
widow
vernon
extremely
restricted
hyderabad
hag
vig
##adem
friday
##acea
perm
prefer
worker
sox
noise
motto
robb
rangers
rule
odd
vietnamese
crystal
leaved
mordell
derbyshire
myrtaceae
eat
##sy
chor
##imov
dee
compound
##rops
transmission
lima
postgr
1831
baccala
cecil
tavern
kazakhstan
hormoz
senegal
agr
cary
pied
##rag
##put
partially
northampton
mainten
basement
##ambig
1814
memory
sedan
stratovol
cycle
##oideae
##iag
serp
recru
driven
notre
1600
##linary
##kaido
##itsa
breaking
woodlands
rhin
conflict
reunion
cyn
eul
##borne
##organ
bohem
journalism
continuing
rajas
nursery
counsel
excellent
sultan
hormozgan
##fi
##onne
##elage
stages
2000s
##ogl
offensive
slope
concerts
santo
hammer
cooperative
explorer
legendary
crawford
utricularia
pitt
ways
yaz
yosh
##dar
think
118
barrow
maiden
influences
foods
accessories
studying
autobiography
cafe
chevrolet
canterbury
stratovolcano
##bin
flet
monter
compete
troy
basilica
gracillariidae
crambidae
ik
nes
pach
tuc
##lay
theor
##emor
##ahn
##athian
prehist
outfielder
extending
##ukan
disambig
storey
violet
dund
fk
hail
sop
wins
alto
##ako
collo
marina
newark
value
volks
receive
1834
insect
emperor
quincy
maintenance
disambiguation
cory
ket
ride
sj
taj
##ede
##araj
thames
resist
chesh
cheshire
ide
losing
ferries
aero
ri
wong
##ون
##esty
##apest
leh
broke
termin
numbered
divisions
returning
crafts
regularly
##uin
##mia
##face
##ecraft
alle
partly
acr
universidad
electoral
157
soil
##flow
depos
indians
torun
width
exhibition
strugg
navigation
lomb
pł
##isz
franz
trim
worksh
demo
simpson
associates
backing
latest
fifa
programmes
mahm
coupe
cartoonist
ming
pam
##rinted
##اي
enemy
mohan
##heny
##borg
linear
borders
rodent
printing
exhibits
renault
spiritual
icelandic
intellectual
cey
dud
##sville
stur
internal
superintend
referring
spanning
muhammad
rif
wan
##lav
##vat
##aram
frontman
auditor
everything
attempts
cottage
aquar
##ben
##heed
boom
bug
124
##atta
1832
accred
ign
cardinals
duncan
pike
##نگ
##وي
para
119
intermitt
cardiff
apartments
ultimate
07
colored
clara
reprinted
116
recognition
##imedia
##андр
gibson
##sinki
quartet
appointment
gos
vista
##ат
##akk
moj
miy
159
##bria
##erville
helsinki
annually
soldiers
anthrop
begun
depths
shed
items
chase
##geh
connor
garage
confir
purchase
leaflets
diplom
jamaican
ardabil
baccalaureate
##rist
##law
##ivity
##tham
trium
102
doug
siem
berkshire
symbol
bailey
honduras
fletcher
dere
viz
حس
##gins
##ав
##agin
subsp
##flies
escape
yan
##iol
##wagen
##emark
fring
##apa
pras
swing
flora
fairy
1772
gentle
torn
ˈp
##hin
##elly
chu
portfol
philanthrop
contributions
cycl
cambodia
superintendent
erupt
hect
linn
##اس
spell
edible
explo
erik
bottom
latvian
colloqu
neck
##hurst
##elo
##aye
arena
bred
##anya
swans
1300
attending
relay
lasted
rhod
hokkaido
hs
sie
ˈd
##tz
##adz
iris
##inner
davies
burton
1833
originated
mordellidae
bridges
flotilla
postgraduate
cree
eis
ˈb
اب
##ean
##eka
##jin
hear
brien
aerona
aech
bij
##des
##lean
##axy
toured
wildlife
mercedes
vernacular
furniture
crisis
computing
sis
ston
##order
eps
faced
mahal
budapest
##listed
fusion
hollow
hmcs
bout
wyn
##dorf
##inas
##amas
##entially
amount
norton
formula
depending
silva
specialises
officers
valleys
batted
theaters
encoun
##ɔˈvitsɛ
pure
sør
tues
seap
smallest
##abled
sof
buddhist
pepper
aberde
herself
resignation
hul
nid
paw
vs
vest
##bone
##اباد
##icola
forum
elong
cald
##boys
##zewo
osaka
liberia
cheng
luxemb
middl
elsewhere
jorge
hence
rr
##uh
##far
##jav
##church
##thal
##ibility
southampton
##ylon
112
centered
directorial
##ception
elliott
rainbow
unders
mordellist
aa
bore
vii
ther
##urai
##uba
##ango
parana
amy
nothing
salmon
specialising
ulmus
##appa
erected
preceded
wanted
algeria
##fjorden
pyramidellidae
delegates
nipp
vary
zero
##رد
##elong
##entry
##iste
##oco
##issions
instruction
##haus
coverage
tours
performs
favour
cascade
advocate
isolated
aechmea
dover
sire
sau
tend
##caster
##astered
##rets
nept
shak
marathi
##aeus
##esex
allows
edu
poison
skin
##fields
macdonald
forever
hoff
##ecklen
nationwide
rajasthan
rhe
##hold
##uke
stere
feather
harm
emil
inspir
horticult
percuss
md
##zman
##ingen
##amy
##roft
##chool
##igi
commemor
##eyer
edges
midland
macedonian
acquisition
turning
hosted
increased
lopez
gt
##bad
##jn
##omorph
##rog
stam
trent
##ards
mint
malta
passion
jackie
1815
heavyweight
troops
##ecklenburg
astr
banc
iber
jesse
kak
##emed
##uli
guadal
leads
quint
bullet
claud
golfer
pyrams
disease
homet
nud
##gam
##ست
##oughton
results
113
glam
massive
holly
dayton
hampton
travers
interests
carnivorous
inflorescences
oy
##mates
theodore
arlington
##ibr
incomp
sings
gloss
variant
baseman
eleg
sixteen
museums
circa
frigates
lifetime
molec
felix
vegetation
shooting
lans
##cery
##atu
depression
technological
composition
croc
sandstone
boxing
360
casual
accessible
kenny
kosc
vladimir
middlesex
ww
##alach
##ulaceae
##uni
marx
barnes
derives
jurist
##break
interpret
gett
##alin
##ilo
##chus
##opy
enlar
carbon
acacia
220
supp
deter
initi
virtual
millimetres
witch
##فلي
##onte
##isle
stag
alien
##uls
127
humor
clem
machines
bodies
cousin
kɔˈ
##esp
toot
shing
##ische
identity
cassette
fuselage
hidden
ling
sense
##zig
##ordin
exterior
##anks
1100
atlas
1829
effect
venezuelan
stylized
##foot
shomali
triumph
pace
##bler
##inery
##osus
##abar
##alla
trap
126
barker
georges
competes
documents
##amba
destination
winery
characterized
bronx
##vier
clock
##annah
interstate
passage
frankfurt
cruises
faculties
cannon
chimney
mordellistena
aid
lug
zomb
##icon
##rec
stones
##adn
reign
reason
shog
shakes
marian
canary
nationally
monster
relief
peterson
rhodes
handled
lying
aerial
license
conductor
demolished
prehistoric
cheshmeh
sich
tone
##bold
##mid
##elect
##idency
aphan
regul
subgen
classics
158
glad
revised
volun
thomson
branded
julia
logan
mongolia
krishna
##gc
##inson
##ested
trig
grt
##unda
surin
botanical
zhang
emphasis
hispanicized
gauge
##racy
##ков
##atin
alc
shrew
1700
equal
farmhouse
buddle
testing
granted
acclaim
hometown
08
dic
gates
turr
##dra
##еи
##од
aliabad
offshore
grandson
visitors
ranks
window
collaborated
caucas
06
font
lia
rzeszow
##eur
##mine
##ʐɛ
##irts
##umin
##apo
tries
johnston
##inski
chef
burke
premi
fifty
legislator
benz
1827
lebanese
lexington
jub
##uff
##45
ans
alder
##othe
##utan
universit
##ylan
##rafted
remastered
images
expected
macedonia
princeton
gardner
undrafted
reconst
belarusian
inhabitants
strategic
09
wizard
##tains
##hus
##ˈb
##esti
prz
crash
institutes
bihar
motorboat
potter
celtic
chrysler
intermittent
sas
##lia
##mc
##pop
##pear
##iler
chuck
chung
builder
##quel
charity
authored
brev
brewing
wiley
santos
##iece
##strom
dorothy
ancest
occupies
##wheel
percussion
pag
##come
alv
##imi
spotted
##ifying
parv
mineral
surviv
tests
bearing
wielkop
tacoma
photographs
gets
kre
piv
yemen
##range
##48
##esis
##urb
apoll
recip
driving
123
petroleum
mentioned
patricia
volkswagen
tach
vries
##cos
##ɲa
sting
##ayas
blog
swift
maintained
##osta
matter
1813
chapar
survived
otto
combines
random
robertson
wrecked
wealthy
bundes
luck
##chy
##istle
##arya
seal
ley
bruss
phone
guild
roofed
morrison
dynasty
wielkopols
cuc
hc
jail
bean
##assic
##urex
irving
amir
blackburn
julie
frost
05
mecklenburg
sob
tyler
##ˈd
##iley
##aste
##ibe
commenced
agencies
midnight
coron
145
##riers
armenia
receiver
martine
1826
tuber
andrea
nikol
treasurer
removed
relocated
ao
cres
lover
rend
ub
##vine
##100
alias
consp
##geons
##erner
monica
actual
##arez
##heng
investments
pulitzer
shirley
alexandria
hoseynabad
pug
##hou
##mons
threw
chop
##ogne
polyg
exce
calle
finish
davidson
ideas
panel
funding
gibral
accompanied
buddleja
premiership
ero
mph
##py
##pin
spart
##wned
sunny
1816
buckingham
hartford
amphibious
beds
diana
##iber
anto
##imer
spans
##osia
sham
##ght
##eps
##enger
harmon
##laus
restor
nicar
chronicle
750
bash
jab
zel
با
##ook
##iton
##oven
##osis
grid
airliner
variable
sanct
catfish
biographical
successfully
customer
juris
gibraltar
hipp
qar
##yon
thro
##utta
reid
neal
flam
gerard
profession
clement
struggle
roland
posthumously
dodge
rovers
##zar
byd
##immer
##illing
##osi
plane
##gram
1400
reduced
boris
1824
##arpathian
jeremy
jacksonville
hmas
nc
toul
##nr
##mail
##ос
##inations
atm
spur
##abh
compl
##ioides
guil
##ifications
techniques
karen
visible
daim
holden
treasury
challenge
rouge
shakespear
pt
##iors
##wana
##ɛk
##esville
##thly
metall
##annon
revenge
caroline
fergus
traditionally
automaker
##ooter
ratio
salvia
ceylon
dining
hain
qaz
##bush
rex
##avier
##qua
##tse
##athy
monmouth
##iscip
outlet
evidence
ave
210
travels
savanna
subcarpathian
appeals
bolog
ler
nin
pf
tyne
##she
##fil
dear
clap
pope
convoy
meadow
lombard
volunte
03
gift
laz
wah
wade
##kok
##caceae
##pc
##sters
boot
retro
caud
companion
sherman
jamie
scholarship
bluff
gather
hipped
pum
##iations
##mith
##ом
enfor
128
2500
##etsu
markazi
hamlet
##chers
##ombeh
1817
##optera
tolombeh
credits
echo
joshua
mauritius
reynolds
kru
tup
wen
##rav
##gir
##rooms
alam
##mere
##avo
sek
marco
##ahar
westminster
peuge
competitive
webb
confirmed
tuesday
molecular
pist
themed
##andi
atom
##encia
##rosc
archde
patron
shojo
episodes
aurora
innovative
supplement
orph
##velt
quech
treated
##imonthly
enlarged
peugeot
archdeacon
xanth
##bel
alberto
dew
leigh
leave
##ouses
marl
carlo
##ryn
##quet
abroad
blast
guiana
maintains
##phin
149
chest
expos
##ipei
ladies
swamps
bharati
perspective
ai
bakh
lenn
mla
tum
##33
chir
elite
##atty
legacy
finest
winston
garde
survive
ellen
telecom
advisor
archaeological
sichuan
chaparral
ecc
عب
##ser
onto
##odactyl
norm
##week
defenc
howmeh
councill
1823
chapman
jerus
lankan
supplier
knights
lithuanian
specimens
incomplete
kav
##idia
##terson
##aying
ree
conan
##izu
##oreg
shortened
martins
slovenia
pierce
lynch
mazowiecki
quechua
xavier
##aded
##thy
rox
warehouse
pea
##kett
epiph
##iffe
burns
zanjan
brussels
bio
kis
lingu
rul
inver
ist
##ogo
##angu
operators
harr
defined
hawthorn
1806
taipei
ostro
likely
symphony
cancelled
portfolio
baj
pasc
ramp
worn
##eto
##acco
##otaceae
quant
230
robot
domain
abbreviation
ultimately
cephal
##eries
##alon
alive
##leen
slav
georg
walsh
strike
240
1828
lisbon
coventry
specimen
александр
benedict
gly
soko
##ded
##pass
##oney
tox
chance
##bery
songwrit
crus
laws
##fordshire
impress
doing
composite
missing
federally
adventist
neighboring
venom
webster
citizen
laguna
colloquially
luxembourg
##isciplinary
##ienne
##tty
##ading
spac
111
reddy
emu
##amiaceae
liberation
tarn
1798
branching
yugoslav
hindu
cym
hanc
pv
pairs
rup
##ər
##اج
##atics
##asis
toward
boyd
clan
suicide
##athon
varieties
superhero
1819
visited
violence
hayes
heroes
naked
punjabi
##front
concentr
jerusalem
bimonthly
une
prak
newman
##villea
##backer
enrolls
bosnian
shipyards
sculpture
aberdeen
defenceman
pest
rating
tud
##rika
##ου
indo
operative
slave
societ
showc
slovenian
drawing
nobel
sapotaceae
kashmir
450
aus
hole
pec
##bard
##etes
neot
schne
appalach
##rata
epid
petals
1805
satirical
nippon
gow
zo
##oons
##øre
##oline
##osum
trout
reporter
paid
batman
importance
coloured
admiralty
linked
clarence
toothed
gle
jap
##fax
##igrated
seh
computers
##ternal
induct
laos
phant
##iscus
##lined
duff
ferdin
1811
psyc
obsc
empties
auburn
inaugur
nrh
winc
xi
##rina
##46
blade
wheat
undercar
consort
139
##brush
honors
frontier
ranger
behav
marcus
falc
fastest
lyricist
condition
oblong
wedding
correctional
derek
nrhp
dove
ˈt
##lal
##oidea
##atur
##eme
##iferous
decision
johns
mał
loose
peaking
predatory
exception
mohammed
##kowice
dated
dash
fen
jagu
semic
##ης
##inte
beard
midlands
137
##boo
walking
personnel
##isticus
dealing
neighbourhood
słup
vriesea
dair
luk
ned
poker
##tail
stroke
spiders
schl
##ateh
sears
worm
warfare
educates
valais
signif
flem
yellowish
conservatory
guardian
occurred
increasing
rafael
riaa
undercarriage
dental
kane
lj
rover
tier
tape
asimov
sphing
serie
##raw
carson
janata
amal
terra
berm
trek
1822
whitish
gaming
##kuh
vertical
trials
mysterious
aphanisticus
shakespeare
##kel
##kowo
##iast
##iata
##fire
##fiction
heard
spiny
roose
pere
greens
121
146
##unden
turbo
catcher
bremen
talking
synt
connecting
blocks
emerging
romeo
mtv
ludwig
allowed
substant
bike
dams
nant
##orh
beast
boz
hert
worlds
guided
craters
138
crazy
peninsular
immigrants
liquid
ges
siv
uav
##rest
##hand
##oran
##ayam
hey
##oso
##ighters
tracy
##derland
perez
loud
signing
fairfield
raja
##kinson
erod
ff
murex
yoko
choir
commodore
silv
impro
limits
mcdonald
frances
denis
strongly
required
celebrity
scandin
chambers
aquarium
##ɛn
##stroke
##endon
multimedia
mercy
powers
##escens
nacional
bian
kend
naut
zab
##cup
##bat
feeds
committed
129
asset
opin
stefan
relative
naturally
backed
tenure
oceans
pupil
roberto
renovated
cinematography
conceived
archdeaconry
roosevelt
agh
bant
bae
gland
##orrow
tosh
##ipa
clade
reclass
##mans
dress
valer
bases
succul
##itarian
photo
mccl
loren
motorcycles
convict
phillip
scenic
##راباد
bub
biz
fisc
hog
hank
hale
nir
wart
##otus
##ession
cret
williamson
mcl
burlington
nonfiction
garner
gunn
narrated
bangkok
encyc
qualified
identical
pharmacy
negro
reformed
##friend
warrior
tackle
##iagara
nec
rc
vand
##onna
thing
##gee
repro
income
##eping
sms
belt
mali
holder
graduates
1818
darker
boundaries
scorp
trumpeter
hesperiidae
accreditation
hancock
behavior
sphingidae
bare
dana
risk
##ɔr
##asters
arbor
shur
##iflor
knock
profile
grandfather
rachel
congressman
##liche
essayist
tandem
philanthropist
qazvin
ain
fm
lung
pg
yas
##rang
##woman
##ayed
shor
scat
abo
apprent
##yla
syrian
longtime
georget
patterson
remade
connection
copy
##beck
sharing
platforms
savannah
capture
philosoph
gong
qing
##ingual
##etto
unp
pratt
brune
##ibus
##ultane
terti
simultane
linebacker
handball
sparrow
bess
baz
mb
voted
##sson
##sta
outlets
modest
emma
extant
programming
##yeong
1801
stanford
monday
recipient
councillor
tertiary
bb
kola
sok
##rze
##ел
##37
##لم
##adia
##otechn
##alls
filming
elk
brock
glory
willie
circus
besides
fitzg
yukon
clusters
dell
##kers
##lings
##qan
##omia
##elag
##olan
##igs
##agawa
##opa
cohen
mayer
jungle
presidency
nato
billed
faces
nonpro
##strate
cases
cultivation
##natural
purposes
clayton
algerian
bydg
eroded
##lus
##went
anac
ankara
##amon
##graph
passer
mature
madras
tomorrow
lesbian
claire
mgm
tight
wagon
##run
##ew
##39
strict
conus
betty
147
malcol
lands
260
ussr
jerome
occupation
jointly
lubusz
zhong
dorset
gandhi
disappear
shankar
cause
niagara
vish
##cott
##alt
##elic
shun
shorter
##quest
##alez
136
148
outsk
headwater
emot
##chet
morph
affair
diary
mirror
homest
julius
jesuit
naples
##лад
cylind
sectors
continuously
bydgoszcz
gat
wider
##uve
##ingrad
stap
bea
##icance
carey
##ahi
proved
decker
churchill
##erald
redes
interc
engineered
twist
democracy
refuge
failure
biel
gull
tusc
##ønd
##ʻi
##icaceae
##omed
##add
##abo
coordin
parson
syrac
slate
##undi
continue
brandon
periods
farmers
randy
catalogue
succeeding
michelle
nonprofit
outskirts
syracuse
folia
jets
kub
vote
ده
##yi
##amoto
##leigh
##otal
##odel
peel
##aleigh
134
browns
citrus
radical
inspector
cooperation
alumni
allegheny
martinez
dairy
significance
dai
seller
##hop
inlet
##ono
##ourse
parrot
eden
cran
cruc
banker
facing
caes
killing
nicolas
distinction
friendly
exhibited
ting
##days
theology
##isan
##olian
##ulidae
commuter
thrash
persons
##loo
motown
22nd
eleph
changing
daughters
occasions
axle
##racts
ultra
woolly
##stadt
decorative
viscount
cus
henn
kai
##inen
##rost
##chu
##ellers
competitions
##build
damage
1809
logistics
lincolnshire
dhaka
descend
laugh
jenkins
lafayette
malcolm
homestead
benson
sach
votes
##lap
##hai
wholes
coleman
##anski
grevillea
helena
goose
daven
mca
guitars
humph
livingston
learn
troop
violinist
yards
zagreb
disciplines
gonzalez
##electric
dae
vie
zak
##then
##ło
carries
mountainous
glab
##brand
25th
varian
champions
muricidae
giles
claim
propag
styling
toledo
preservation
egg
climate
jumping
gloucestershire
seyyed
ferdinand
succulent
bould
cited
cors
hap
lone
mock
##lif
##ия
##child
##illera
trying
##uckle
homebuilt
brewer
##yrus
disco
sonny
donated
urs
collaborations
essentially
resulted
suffered
favorite
moderate
jian
nish
vast
##sar
##lat
##34
##ան
sto
stir
##chs
beech
suv
jung
deplo
noel
peoples
haiti
1807
##heads
ostrow
tobacco
klein
sustain
inspiration
04
emin
lom
pd
raleigh
wish
ziel
##dong
##vic
##oly
ald
buk
carriage
##epp
meant
##yna
dischar
bolton
kerry
##daq
bernardino
yamaha
palestinian
siberia
bologna
dylan
sinking
uzb
zu
ан
stamp
##ollis
crass
legs
missions
distributes
atlant
microm
advance
1802
bowled
1793
bhutan
potential
hajj
dirty
nicaragua
encyclop
cac
##sb
##say
##ис
##ур
react
pride
##ucco
suite
evolved
defin
limb
cds
1804
draw
tabloid
cordillera
##iculata
segment
bucc
recreational
dropped
clifton
penguin
fitzgerald
diab
jp
vhs
##ас
##ɑː
##root
##ipel
leis
##onds
parody
warri
##anka
juven
outs
christchurch
turtle
rapids
thirteenth
joyce
chelsea
lahore
davenport
uzbek
hyl
pud
shif
##antin
exists
highlight
roch
writings
otherwise
calls
##yca
bulk
kept
lightweight
targ
pastor
straw
relationships
investigation
moroccan
##ontinental
graub
bankruptcy
mojave
bharatiya
foliage
caught
cairo
mec
rn
سر
##yar
##rano
##acre
##ornis
##awan
regina
monarch
belga
##ularis
turin
1821
hearts
floyd
harvest
measuring
portraits
nottinghamshire
bestseller
calcutta
acronym
atmosp
improved
hd
kami
##rand
##jet
##ны
##atures
arid
manner
wheels
transition
patients
francesco
obama
orchids
saturn
1794
sheriff
statist
preserve
##smith
denominational
hastings
reclassified
belgaum
gut
gorn
hired
mers
rs
##riz
##czy
reich
shi
carriers
##group
institutional
strate
posts
kuwa
finds
##odontidae
sofia
graubunden
6000
pune
venue
wak
##kim
##alom
tool
sta
##ovac
##onduct
##ocket
contrast
drac
select
crossover
patrols
channels
segments
dancing
phen
vend
##xual
##elyn
##eppe
voices
collector
tenor
philippe
equatorial
walled
godd
venus
essential
experiment
randolph
leningrad
rainforests
jh
kow
yt
##lake
##gah
##hee
##atl
##chat
plastic
brush
grange
seconds
earning
octagon
presently
approximate
##plant
malv
salle
lowell
finals
##aughter
ferns
bounded
saddle
eurovision
dax
##erc
##rep
martha
providers
phase
##iera
amm
crane
100000
jules
pyrene
beatles
ribbon
hectares
caucasus
dl
ely
mell
nr
##won
##arat
##iaz
##ibu
undert
122
locality
charting
biological
crook
falling
viic
affiliate
cards
kamal
katowice
morton
gazette
wednes
dipterocarpaceae
stadium
piedmont
strategy
اس
##lɔ
##32
##onaceae
##itter
##ommer
brod
deco
acted
##ophone
emd
trademark
lights
destinations
festivals
lester
dreadn
reader
mandarin
bruno
catalan
require
microsoft
clerk
lagoon
bestselling
hassan
##vatnet
psyched
cich
doming
push
vad
сер
##eler
thur
neoc
conifer
traces
clare
graf
##anao
archive
hooker
galaxy
burning
fisheries
mixtape
kv
sinc
vaugh
##bles
##alum
chow
conrad
publish
##shine
upstream
assumed
blackwell
patch
markings
##ushi
haun
networking
committees
1790
khorram
securities
uncom
consultant
lotus
textile
advisory
beverly
wakefield
surgery
bohemian
enforc
warriors
aims
khe
##ог
inception
##enstein
chakr
##uto
##aby
lease
##usta
drake
drink
quiet
##raph
waterways
venk
battleships
panchayat
czechoslovakia
inhabits
subgenus
flemish
qas
wound
##yx
##las
##ˈv
##orz
##agers
arecaceae
##oughs
pref
avon
campan
reds
limit
competitor
supernatural
pitch
springer
periodical
1803
somalia
logo
mustard
measure
coleophora
hydroelectric
analyt
zurich
gale
jiang
mae
wight
##wɔ
##word
##arabad
##asian
##urbed
chip
begin
ort
marathon
apa
##urea
foaled
wald
armour
graduation
hamadan
verde
tribune
resulting
statistics
huntington
kawasaki
rwanda
ips
jah
pric
##ив
##يه
anand
##ados
onc
spru
neh
truss
poets
symp
peti
manages
lineup
signature
visit
##glu
semin
fernandez
accounting
congregational
coleophoridae
orders
wicket
prestige
vineyard
eurasia
gelech
agreement
apollo
simultaneously
cf
jing
kara
mai
ska
##iska
grim
joa
estuary
maintain
willis
corrupt
##kiy
delux
breeding
supermarket
karachi
richards
informally
innoc
missionary
hyde
landscapes
mutual
diagn
stephan
restoration
kern
lill
osh
welf
##eed
ongoing
##tera
chit
##bern
##illon
tran
mono
capped
formal
valle
christie
emily
doyle
disaster
posht
1808
1799
hosting
innings
methods
bmg
##имир
fog
fold
mok
zah
##hm
##ława
##otis
enh
##anto
flint
##qucha
##pta
opercul
authorized
volvo
occident
camera
radom
destruction
finalist
membership
##omataceae
dinosaur
vicinity
jakarta
chocolate
prospect
pivotal
variants
bots
mural
tc
vr
##bil
##mate
##иц
##44
##enberger
##icolor
##leader
##akan
##herd
brat
apost
incident
upright
##gren
##ologically
bars
##ullah
##itty
summ
radar
bluegrass
supports
baba
savings
encour
pilgr
buckley
exhibitions
pioneering
ernst
meyer
flooded
chicken
عليا
deluxe
pens
rt
tart
tapp
##aic
##oan
##isbury
forg
##idian
shab
##ardi
sheep
exact
classroom
outbreak
##itute
careers
turns
320
dungeons
##iseries
laurent
mohamed
mamm
ibrahim
##ина
nasdaq
griffin
nathaniel
pablo
inaugurated
synthes
cretaceous
pyrenees
01
cic
jockey
kart
pell
wander
##ед
##orum
##enues
##sten
tram
lea
##ansha
##obr
formats
##ophila
skier
##fully
everett
nights
##egro
colombo
wait
kandi
dixon
venomous
georgetown
faw
gius
hib
nasa
clad
clover
##onde
blair
##uala
nearest
225
twins
buried
feminist
velvet
macken
tyrol
mickey
##ithecia
chaudoir
getting
aston
diver
pue
##cair
##ayev
enters
apex
carm
usns
miniseries
resid
cornel
nephew
battery
330
closing
quarterback
filled
immigrant
trumpet
bamboo
tropics
eupithecia
ferguson
cattle
dala
fow
fare
kush
nbc
sod
taz
tucker
##jeh
##isi
##ayi
arsen
retained
portico
quinn
authorities
armored
##chel
humorous
##yevich
darwin
darkness
judy
fairfax
ruins
viewed
floating
nordland
margins
spawned
caldera
functions
resistance
wielkopolski
erotic
phantom
riga
tad
vitt
##fred
##ем
##enko
anarch
shey
##acker
deserts
notor
templ
hitch
whitney
cyprin
mesa
iraqi
constitution
trouble
schneider
welfare
##nis
##hang
##pan
##osy
shock
scop
carmel
meat
##teacher
##otti
##rique
sharon
flex
dominated
opposed
tanzanian
criticism
bombard
concerning
crimson
staffordshire
weapons
mahalleh
eri
fount
jug
mund
tube
##65
##arine
chore
propr
spines
##opop
firuz
hern
amc
archipel
trevor
ulster
belonged
1795
retailers
warships
seaplane
initiative
uncommon
ez
goss
gould
naj
yuan
##rase
##tɕ
##omidae
alm
##station
##acion
neoreg
##ifa
suk
artem
agu
retiring
##erve
melast
duet
##yev
parishes
explos
digitally
significantly
cypress
stevenson
giuseppe
neoregelia
lod
##ʐɨ
##org
##icient
##itas
stucco
alg
##owr
##asta
disturbed
buchan
##rita
##hne
weston
janet
##pha
##otta
##afa
parking
interd
##ijan
haul
rosen
involving
attacking
machinery
hatch
montenegro
benton
none
tic
zap
ام
##igar
degraded
cluster
##raf
##ikawa
minel
augusta
##itsu
solely
23rd
doom
pitcair
forewing
equival
grasses
eighteen
wrong
investors
carlisle
medicinal
draws
maxwell
cowboys
furness
chestnut
psychedelic
amph
bist
fayette
lump
sided
tb
uil
##jay
waste
stable
heyd
##ichth
booth
sworn
oph
archb
skyl
annie
hawks
veterans
wester
bitter
mythology
lumber
kodansha
kop
nw
raff
سفلي
##bill
##gg
##zu
isles
##itia
##ovsky
prost
marble
##ondo
afrika
weird
preschool
diving
babu
ambient
sundance
shawn
blooms
##iformis
renew
improvement
heinrich
yazd
inducted
consortium
archipelago
omar
pasha
влад
##cens
##wara
##ær
schw
trance
feeder
rook
eve
khv
24th
receives
greyish
omn
tunnel
biała
clifford
teachta
examination
forbes
prakash
dot
huss
yek
##tus
##hart
##jø
##زر
##oram
##ombe
##iak
neill
seater
trønd
##onga
##ellus
polo
juniper
barber
titan
dozen
greenwich
koch
travis
wheeler
mansfield
umbr
lemon
brunei
propriet
trøndelag
ef
##fishes
asylum
withdra
salisbury
maid
naturalized
sarat
haute
##class
translates
##ова
##اني
mammal
installation
pterophoridae
semiconduct
##otechnology
mackenzie
bt
ipa
jy
liz
lucky
##uce
##55
##200
##asons
toad
alter
##utnant
prod
whip
marque
greenland
fuller
ellip
oaks
promotional
lineman
closest
automobiles
defeating
birthday
increase
injury
cesar
##boldt
riz
vag
##omen
##acles
nationalist
mayo
wei
##ysz
additions
surgeon
##hiro
cornell
kalateh
scientists
ivy
bowling
collaborative
ovate
container
crescent
calleida
серг
melastomataceae
bung
dres
mian
nue
pok
pover
##rak
##kam
##lies
##tel
##erick
neb
##ifr
usual
phac
144
portal
freeman
subtitled
organist
darling
dunn
icon
golestan
doctoral
household
chandler
##apuram
##arthy
datab
antarct
columnist
glossy
winchester
boulder
02
pyg
rode
چاه
##31
anthe
##isons
##andan
##imar
shoe
airplane
##ressed
kei
continents
savo
ashley
practices
fragrant
ticket
auditorium
supposed
000
bury
bax
nab
oman
poc
paz
sight
wies
##lid
aria
prin
sergio
abor
weigh
developments
##gyz
sami
##verse
1797
accounts
observation
sutton
workshop
dudley
prasad
aeronaut
statistical
fib
nice
##lair
##mare
##zn
anj
grab
adolf
subdiv
khar
presenter
hoch
kirke
expression
lockheed
innovation
guangdong
kyrgyz
bundesliga
archbishop
kung
obe
pemb
ved
yes
##rɔ
##cin
##يم
##شت
##orio
grain
maru
##raj
##tenham
##obon
##force
gloria
##after
masonic
elekt
mercer
governments
turkmen
honol
returns
ironcl
dogs
lobed
uruguayan
antarctic
assassin
horticultural
philosophical
cbe
nis
pou
riley
##sd
archer
##ogie
northum
guzman
geographic
belize
creates
redirect
holt
humboldt
ulidi
##apeake
photos
scholars
chesapeake
wagner
melodic
tephritidae
appalachian
equivalent
honolulu
dit
fok
kost
ˈnɔ
##hit
##رك
##66
##aler
##leutnant
##acio
hew
schwar
schmid
consequ
##endale
##encing
mild
techno
maori
##beat
characteristic
promoting
involves
fulton
trails
achievement
orthogon
magnolia
euphorbia
paralympics
enjoyed
orphan
enforcement
jans
lough
pang
ст
##cing
##fs
##vey
##به
##oula
als
rebec
hex
lever
polyn
mikh
elvis
irvine
finch
departement
cerro
incorporates
friendship
catalonia
pharmac
pursue
gelechiidae
orthogonius
cove
caves
ftse
vital
xin
yus
##wind
##oning
##onso
##eness
stoke
shiv
norwich
regime
##ahal
strang
references
chiefs
advice
infant
blockade
lindsay
nicol
##books
believe
carnival
coalition
sterling
eryth
sanctuary
kall
suther
##fid
isab
##ulam
conven
##herst
##asse
adding
##ogs
contact
minas
##auk
midwest
colling
collier
aerop
rotor
owl
##music
reflect
##yalaya
commentary
burroughs
##ogloss
amalgam
ahead
cv
niel
nintend
wire
zamb
##rays
##estown
spike
buchar
exile
herbs
##enders
laud
barrett
saloon
technique
improve
emmanuel
princip
pointed
commanded
glacial
mazra
hurric
links
michelin
depicting
opportunities
protestant
theoret
nintendo
kł
lund
nou
qc
sick
##mount
##zia
##itis
whor
##opol
##erne
guam
interim
petro
sands
alexandra
assistance
dickson
##banks
ricardo
bibl
cunning
conversion
daxue
dio
dug
kather
ping
tide
trick
xen
##mb
##igm
unnamed
##imate
brill
##eport
##tender
prequel
valent
specialised
loop
discontin
shells
burned
lauraceae
bilingual
interested
paddle
nagar
rotter
saxophone
overlooks
##ико
cliffs
himalayas
pounds
dundee
leisure
sutherland
bucharest
eury
mish
sue
sanche
wich
##icing
sev
##iku
bandleader
labr
evan
strand
downstream
loy
karim
sharma
fleming
casa
casey
welter
bernese
resembles
fossils
nunav
apparently
epiphy
pueb
antarctica
hai
mk
##ван
##их
##وس
##agn
heather
shri
brah
clive
user
##atern
##ikan
phd
developers
armament
sunset
steamboat
subscrib
1796
candy
rudbar
marcel
sailor
alfa
payne
consumers
mathematical
mantis
dollar
suggests
displays
aboard
dreadnought
poverty
della
fool
fuk
vat
wax
##kill
##eaux
##lı
##haven
##aras
##itus
##recht
##amura
troms
brenn
description
##issur
lawn
##rating
redsk
mcm
bulld
macc
##hell
handling
sunderland
fairly
gods
hanover
shadows
dialogue
apocyn
triangle
updated
botswana
catt
møre
rash
##lov
##وه
##eti
thistle
##agne
chains
chiba
rebell
##ipennis
brut
starr
earn
transact
chronic
##ophylla
walnut
##arius
##asca
casino
slovene
ruby
promo
attraction
horsep
kaiserliche
mersin
cote
hust
iw
mersey
penc
tau
vor
##bun
##hun
##mum
##emony
##uben
prose
##ucn
##uey
musc
majors
silk
fremont
##bergia
##caa
structural
nepent
baton
##ocha
didn
consistently
scrip
branched
toler
scarlet
suriname
tudor
redskins
horsepower
aided
cair
mba
niz
tips
vy
zd
##aa
##body
##jow
##بي
##edon
##omac
##igma
unic
##ounding
grun
pars
##ikk
##tsville
afterwards
harp
cheł
280
##exp
saund
urb
contractor
practical
violent
##chaft
pearson
banned
rahman
scheme
therapy
bermuda
##eria
##emann
##emont
shade
bran
polyp
acanth
minsk
##aveh
##ipps
considerable
sunshine
baum
involvement
websites
laurence
immac
lambert
ordinary
laval
werk
ˈvjɛ
hertfordshire
micromoll
sanchez
bisc
eyed
gore
kale
piot
##iː
##gb
toys
tooth
byr
##thor
albion
##eys
amherst
consc
swallow
##undai
angust
finding
colonies
cinemas
lecturer
braun
rehabil
scattered
malvaceae
collingwood
diz
dros
ein
gior
hide
tyn
yen
##rama
##sbury
##bas
##tis
chant
dept
abdom
desire
##shu
broker
dece
senators
##axton
waterloo
assembled
deriv
birch
glaciers
bahrain
teenager
wolver
pizza
lepid
dawson
shepherd
normally
operculum
bum
mw
rach
sied
sket
##rub
##از
##iling
stall
##emar
##lys
fres
unt
reasons
shu
seating
##ectic
sought
playstation
pole
underwent
##riot
mcd
angelo
hyundai
rosaceae
savage
certification
welcome
tankobon
lobes
scandal
jessica
revealed
aborig
apocynaceae
fighters
pipe
ramb
wola
stout
##este
##abilities
##ishment
attribut
1890s
strength
archives
flowered
28th
francisc
postal
temporary
batting
grocery
ceremony
falk
frederic
yankees
zielona
rebecca
katherine
fusc
maf
nect
##oise
##dad
##58
##iche
##ivo
proce
##illery
schu
conway
conjun
deemed
shannon
edith
actions
aggress
##insky
farms
remark
divine
circum
farming
seventeen
llp
looks
packers
wolfe
viktor
qarah
cunningham
fag
kus
kear
prick
ragh
tent
wik
zach
##ια
##ول
##orus
##omus
chandra
##ulia
beacon
maril
scores
##rup
##shaw
manus
##ennes
butte
chrom
myers
legion
moral
hospitality
racem
arabian
groß
tribal
##bourg
randall
sidd
sainte
hundreds
lanceolate
controversy
leicestershire
puget
lamiaceae
nil
nay
tann
tidal
##yam
##hot
##59
chay
20000
seym
##ucci
##angi
##ilee
rede
christine
skating
higgins
naturalist
exposed
liu
castro
theatres
nordic
hajji
question
moment
sicily
geoffrey
zombie
bantam
theoretical
labrador
nepenthes
dys
fate
pige
qatar
##nap
##hara
inher
##atis
##acc
thurs
##imeter
##illed
plate
trond
grants
indic
aftern
repe
##ropri
tep
warbler
augustine
soap
seth
legends
skate
skull
##yck
27th
premium
##builder
lucy
##anskrit
frequent
stayed
drugs
عبد
passerine
bunk
dion
gom
hild
hector
kuala
nah
nana
##yder
##bie
##atore
##isher
##inga
byron
##stre
##ande
##imin
whale
araceae
beam
##ibo
##ruz
lax
strzel
helm
26th
29th
talbot
##garh
rankings
pulp
detailed
safe
teton
uscgc
ranc
sanskrit
vod
##وت
forrest
##igidae
deaf
alba
##ellation
adel
##eye
canoe
edmond
##ulla
struck
disband
showing
raiders
faboideae
saxon
ventures
sioux
hydra
achieve
andreas
phillies
treasure
invasive
##ˈkɔvɔ
mahmud
harmony
elephant
danger
iucn
wines
##nn
##nier
##gun
##53
##heart
ingr
##akukan
polar
mete
##ologists
corb
output
collects
sociology
sally
lightning
raced
narayan
akadem
environments
ethn
assisted
buckwhe
tunisia
arcade
doubled
experienced
thornton
olivier
residences
seymour
crop
dap
gyp
kish
oro
says
##iens
byrd
##idel
##umont
comdr
##unus
schul
shand
##arton
bram
teeth
discs
antal
effective
cumbria
guests
eggs
suspended
academically
prosecut
alpha
juvenile
aids
dict
ravi
tact
##turn
##ˈɡ
##رم
##hesh
##enta
unoff
##oping
##apse
hask
registr
austro
##letown
belmont
nowa
relating
waterway
macy
traditions
sometime
defeat
remixed
##millan
neighbouring
inaugural
mowtowr
baku
mou
sai
zion
##math
##alm
##elet
stell
##itha
roach
coinc
##outs
britt
namely
senec
forestry
1880s
greenwood
burial
signal
wilt
middleweight
broadband
speech
feeding
comprised
bombay
rabbit
meyrick
resemble
bringing
warwickshire
buckwheat
duk
jc
jake
jury
necess
pes
ratt
sow
tears
##rous
##jon
##ecko
unman
##unton
enthus
prais
schen
##acha
##isse
guine
assess
snc
southernmost
implement
##mara
breed
electronica
owens
mindanao
sulaw
rhododendron
eduardo
semiconductor
nunavut
conjunction
bold
bones
db
hiking
werner
##mac
##lea
##aev
##ibald
adri
foundry
genoa
excess
percy
mons
poster
outflow
basque
courts
superv
continuation
olt
ballet
deeply
learned
arrangements
gasoline
huron
attracted
suspense
tobago
sindh
dramatist
harriet
joaquin
interdisciplinary
rotterdam
aeg
nim
vl
##yf
##key
##iella
##gang
##piece
##omatic
aless
tha
##rica
buzz
##iales
elach
monoc
broom
weaver
opel
values
emigrated
discount
weekend
angela
tomb
namesake
automatic
possess
singaporean
pioneers
ghanaian
ochre
palestine
eclip
leopold
shogakukan
stirling
##ныи
владимир
cull
kyle
nhs
send
wise
##ɔv
##42
##علي
chub
brady
##ieve
flu
##epis
majesty
coasts
garland
generated
galway
cameo
attacks
kimber
negative
matthews
hilton
spectrum
dabrow
##aginaceae
spruce
siedl
unmanned
sulawesi
benth
gaku
lift
nascar
sg
wig
##rzyn
##hama
##part
##ingly
##idus
sprin
manning
joey
blades
agnes
##ilever
131
walton
helping
millenn
massacre
loyal
copel
hammond
fantastic
ramon
cinder
goaltender
picked
dealer
fuji
parasitic
underside
societe
sinclair
baxter
northumberland
ct
gop
hn
kiev
vet
vog
##lag
##lusion
##vale
##যা
##olus
##ididae
schwe
org
tru
##assa
newest
##ioch
perkins
fourteenth
corolla
##upe
valentine
abbott
##buster
optim
bjp
thousands
appeal
eclectic
toxic
fountain
afrikaans
welterweight
550
80s
kamp
misc
mech
nils
pty
rama
tata
vorp
vangu
احمد
##uo
##wh
##شم
##umber
##esta
##ricon
filmm
recomm
##endrum
##ansh
##boats
palo
##skie
organic
projecting
##scale
closure
prisoners
nazar
bahia
bahamas
tunis
scarborough
##akrish
portrayed
opportunity
keeper
swansea
lorenzo
##ommern
vorpommern
dahl
ginger
gyeong
maps
ncaa
rector
zhe
##phe
##ات
##49
##erd
##onn
##arum
##atidae
##aso
##cea
spo
##aston
##ucc
recount
exeter
roz
##awar
johan
resorts
headmaster
placement
sno
30th
unionist
garrett
satire
crossed
eighteenth
buddy
oppland
participation
terrace
processes
barton
diversified
beneath
allowing
leptodactyl
taxonomic
constitutional
rebel
commentator
mcgill
nassau
bentley
reefs
alleged
wednesday
damp
gp
lovers
nos
nina
nose
oglu
ties
xa
##vant
##77
##arium
chatt
unve
spending
##itya
gender
abundant
manage
booker
artif
lists
retre
thereafter
obenberger
##baum
kerr
nepali
cubs
installed
orchest
keyboards
hepburn
summits
aic
bival
cp
diane
mith
sogn
tere
##kha
##sdal
##oire
##arak
fritz
##ieh
elis
understanding
portrays
quin
illeg
chet
supervis
goldwyn
samoa
##iosa
reportedly
rolls
lucia
frozen
ponds
fellowship
elsevier
alej
catering
redirects
fokker
mikhail
wichita
saunders
micromollusk
deptford
boul
hare
nix
rok
##pen
##əˈ
##56
##lying
comfort
spind
##aked
prat
##anthera
clair
americana
acm
usnr
perf
peac
assault
##lox
sixty
tops
##thel
##ext
bordered
##olute
jacqu
srin
konst
lovecraft
integration
inventor
recruited
ipswich
pilgrim
principles
marilyn
dah
jad
mound
sams
zimmer
قل
##iq
##fold
anita
##rokee
stub
##umps
##uti
grup
##sham
planted
plantations
bandar
malt
cherokee
290
paler
greenville
##coe
darren
famed
surrender
putnam
preceding
levi
birthplace
diversity
diaz
rapidly
objects
proteaceae
employment
serpentine
jaguar
glandular
peck
rue
##nagar
##ам
##ayana
chis
una
orbit
praise
##orty
hash
##sho
edison
##porter
demos
squir
device
drydock
1780
shoes
hurling
bangladeshi
kolonia
settlers
spanned
bing
biss
gim
kell
nod
riders
##lance
##dasht
##tal
iso
##ianna
marvin
foil
blenny
wein
##ietta
valencia
parkway
waterc
luigi
visiting
respected
globally
admission
dominant
rubber
lamar
packaging
ccm
##abilis
pavilion
component
buckinghamshire
opinion
arsenal
dans
eels
finger
pis
rita
siah
yout
##yre
##erver
##oniaceae
ants
##aments
##ecrated
forks
##ianum
##oten
chaser
aren
albu
acute
blank
blessed
edo
1750
surreal
micha
emmy
bread
brett
burt
horace
broadcaster
taft
cowboy
##untary
ridges
immediate
cobb
hubbard
##hardt
syndicate
chakrab
wiltshire
7000
aman
caj
nd
rms
tus
##sis
##zin
##يل
##47
##stick
##owe
prel
##elles
##ours
##aebus
##ibal
##ylus
weber
132
outlaw
royce
##onyms
##ippers
armory
jeann
##rison
continent
differences
##aurus
rugged
##ophyllaceae
contribution
##worm
shelby
condomin
townsend
consultancy
##schild
stretches
ferrari
maui
johannesburg
reverend
##ibranch
antoine
biblical
##икола
vanguard
kens
##lord
##jana
##wen
##99
##anor
##emi
##emia
##ayama
chong
enrique
braves
whether
##inald
allah
amanda
##obium
presidents
movements
varied
##itta
downs
wooded
telegraph
reno
macau
lowe
verd
array
mccarthy
##voys
gorge
detailing
scholarly
mongolian
triangular
monterey
atomic
lc
poul
pocket
rd
wai
##tors
##mod
##ły
##icher
##roen
##etics
asa
##utidae
seab
bride
##okan
##okes
phyl
pretty
aftermath
##sein
medley
##credited
eva
supers
##ushu
replica
characteristics
##prest
potato
customs
nyse
annex
paso
curtiss
panther
targeted
mlb
sheykh
ayd
dand
gad
łecz
##fu
##jak
##onent
alma
##opian
convoys
prints
graz
scream
fee
canon
##achal
appropri
##sport
augustus
porto
northernmost
solic
impression
verse
fullback
garfield
raise
shelter
lobby
reissue
horses
flanked
moldova
unsuccessfully
accommodate
nudibranch
jurisd
encyclopedia
buchanan
chełm
youtube
kral
lid
patt
zav
##court
##bing
##وز
##anas
unable
atop
sear
##ellas
graves
normand
este
133
listen
merit
##unga
270
biotechnology
originating
bromel
sharks
assamese
gifted
instructor
piotr
650
cag
lv
luna
pamp
v8
##kɔ
##iad
##nick
##57
##ecker
##cho
chun
##uted
##uno
##oped
##ods
ars
traw
##uco
nationale
resur
residing
lark
##ajo
slim
relatives
torres
devils
roses
1792
regarding
landmarks
hansen
##birds
decorated
bjør
cockpit
kuwait
ironclad
1a
8000
gug
hier
nair
vive
ма
##уд
##500
##asco
ofsted
##eche
stake
##etum
coniferous
seaw
moines
herr
##tsɛ
navar
rockies
##loe
simmons
check
bills
batch
switched
practiced
package
doctorate
##ocarpa
##walk
kathleen
guru
tulsa
##ifolius
audiences
seeking
##ajevo
napoleonic
antalya
sprinter
bish
ding
dying
lighth
mott
vander
##vas
##qa
##ад
##ła
##atan
##teria
##oceph
unity
##ellia
cola
genesis
##awak
##obe
charitable
##atories
silence
emile
mcdon
humming
sanders
hymen
murders
translit
bhag
libraries
earthqu
suspension
worcestershire
kahn
rhizomat
dynamics
kɔˈlɔ
bakhti
requirements
subscribers
aboriginal
millennium
dok
fung
gour
migr
nsw
ske
tate
xyl
شه
##yph
##vie
##jack
##ilian
##etown
##thia
##akar
familiar
buprest
##ireann
scler
##ioideae
roster
##epers
amber
##oupe
crust
geelong
accom
##atorium
sarajevo
olig
entertainer
generic
##arpa
butterflies
الم
jasper
##iculidae
panthers
climates
employee
rifle
dresden
discontinued
ayr
bly
easter
gs
ks
kes
lighter
tied
##bir
##bage
##bee
##ilidae
##amental
seine
coleg
##ogh
##oreal
acer
mush
reginald
##ahua
prey
outc
delayed
2300
voluntary
meliaceae
1775
roche
loves
kyoto
gibb
contested
yokohama
lumpur
schmidt
condominium
rhizomatous
jod
rai
toll
vint
yi
yad
##iensis
##cu
##bag
##top
##mis
##ən
##88
##elated
reject
whites
claus
parties
abel
tek
irrig
gerais
avoid
christina
emam
annonaceae
expensive
dism
ida
darlington
##gaon
rosette
viola
combining
breakthr
lubels
causes
fitness
afternoon
aest
bain
cis
dmit
diction
jensen
ked
kag
kuk
klam
pomp
rer
sitting
taste
wrap
##tʂ
##41
##43
##69
##enes
##amus
##opters
fever
elabor
##overed
mcn
macro
ssr
rodney
1900s
violin
surveyor
problem
pursuit
mixture
napoleon
salamander
elongated
stereo
volunteer
rookie
aik
cess
naw
ун
##rar
##aqu
##eer
##bau
##anj
togo
##oway
##ulatus
heir
##avand
bees
##ende
secrets
##omez
coraebus
terrain
avi
surve
emerson
balkan
divor
performers
separates
licence
convert
fishes
oxfordshire
nichol
attractive
ligue
ornith
tephritid
substantial
hitchcock
polynesia
kɔˈlɔɲa
nih
rpm
tabl
zaw
##pets
##hev
##ilor
stutt
##idis
##igua
##iani
chab
##ulf
##illac
shane
seag
grave
apg
poe
assum
midway
magical
noth
oldham
catarina
1860s
entity
citroen
##uela
biennial
psychiat
freddie
encompassing
consecutively
pietro
bulletin
lombardy
falcons
withdrawn
immaculate
ˈs
##51
andres
stro
ala
spear
##iek
aden
##anea
solitary
karls
##islav
ultr
pressure
puff
sponsor
captained
neighborhoods
punct
preparation
marcos
shahid
mordella
raven
witness
##ʂɨn
khorramabad
artifacts
kott
sans
ural
wey
##like
##ˈx
##icollis
exerc
##awk
uppers
cron
geological
stranger
forested
cats
lowest
winners
benin
stephens
ballad
sequence
cantilever
observer
sudden
solution
staten
levy
cyber
jacobs
distinguish
werft
lagos
spoken
soprano
determin
wholesale
oricon
rower
xx
##lec
##dz
##with
##edd
##enbach
##omical
wasp
##idays
fronds
##herty
braced
drinking
norte
##oste
archie
suresh
##uko
##usky
showed
sandra
grasslands
stockton
takah
mazrae
practition
amazing
cooled
hobart
accompany
rutaceae
lonely
collecting
nurse
fischer
##ichthys
praised
mazraeh
aichi
kits
klaus
msc
خان
chose
chitt
proxim
spor
recovery
herz
glauc
mids
##hampton
paolo
jewell
doz
madonna
sarab
obtain
danube
peterborough
subscription
fortress
memor
huang
sabre
girlfriend
propos
broncos
odisha
pilots
beside
ricky
honours
lionel
dorsal
suggested
rothschild
pitcairnia
hurricane
meteor
leptodactylidae
unveiled
cure
fy
koll
seng
zw
łuk
##rz
##los
##tc
##gel
##gill
##uil
##52
##وش
##chia
fled
##ionally
westfield
subway
classrooms
midtown
transverse
remodel
##chem
bals
torre
corporations
##affe
financed
aerod
fundamental
aziz
hampson
1776
cycling
request
cosmet
barrister
##iformes
masted
sardasht
nigel
citizenship
ideal
pigeon
surveill
rath
##nor
##hy
##gage
##ри
##inis
##arc
##eted
altered
##idion
reagan
pra
colts
boone
##iost
coaches
romsdal
allison
upscale
ammon
steele
calling
shortlisted
ecm
silicon
primera
sonic
tallinn
310
organis
##worthy
sheridan
linden
nicole
traveling
myrtle
##лав
cuis
unrelated
reflects
apocalypt
chatter
struggles
www
##ulsion
phacelia
gwyn
ion
kaf
vaz
woll
zł
##ners
##ˈl
##ˈm
##еевич
##62
##atoon
alley
fries
chia
triv
rivera
affl
subrange
underg
agents
##bye
societies
redundant
talented
accessed
speedway
tunes
optical
##orpha
hazel
molluscs
caldwell
reconstruction
parsons
bai
bunch
cement
dn
hov
lent
pors
wad
wille
##vide
##67
##ʲɪ
##ाल
inmates
##elope
##aban
newc
apiaceae
2015
carac
musa
laird
smoke
2200
superman
completing
donna
pursu
kenyan
principally
llan
helicopters
guangzhou
pusher
horizon
minimal
examines
hoffman
iberian
database
abdomen
klamath
eireann
hark
jang
mug
pile
sb
sark
مزر
##rs
##raceae
##hua
##gent
##zburg
##alen
##itious
##etz
##thorne
thanks
##ochem
spaces
enrol
##orte
##assy
##ogues
flour
flug
flats
laureate
amor
consecrated
corrid
##riya
oss
really
fallen
drummond
ballads
drawings
emerald
lookout
hanja
kidnap
izvor
skiing
##oceras
removing
##ocaust
vaughan
accompl
breakthrough
boc
eros
jel
jenny
kɔ
mbe
nz
sork
sink
##hia
##zek
##person
theres
inqu
grig
knot
sheikh
guar
holocaust
mato
greenish
litre
31st
lessons
mazda
blockbuster
mystic
trilob
dickinson
hairless
chemicals
gustav
mighty
crosby
conspir
scorpion
goddess
nebula
lighthouse
dm
dorn
gomez
lime
nk
rental
tie
ust
wand
yong
zool
##αν
##hei
##inos
##etus
##stop
##ayne
##oves
compton
bres
souls
manual
joao
underst
aggreg
rockets
belief
burd
501
goodman
hawkins
stationed
libya
expanding
dalton
celeb
occurrences
veterinary
##لام
jennings
nemat
difficulties
alcohol
shoreline
domingo
hernandez
upperside
cogn
nh
tung
wain
##htar
##vac
##ул
##łki
##ів
##oru
##empl
##otten
##rically
seah
brend
albat
mari
polyd
external
ministers
wex
barns
##ysa
##istress
kilda
harlem
headteacher
woodstock
moses
insight
nominations
bacon
keys
propeller
josef
sailplane
alexandre
haunted
chakraborty
surveillance
ds
mia
nand
nail
uci
##rans
##sall
##nar
##bay
##łka
##ilan
##ilit
stony
##ceph
##opia
aromatic
beaux
tromb
##quito
##achys
calend
governed
collectively
interrupt
emm
##cribed
countryside
mclean
matters
sonora
burundi
distributors
sunflower
similarly
dwight
kamen
1789
merchand
middletown
typh
cosmopter
ponce
hasanabad
paralympic
dartmouth
robbins
tucson
deposits
##film
retrosp
tappeh
rebellion
rehabilitation
alejandro
stuttgart
lass
rings
tough
tern
wink
xii
##ragon
##uer
208
uniform
trac
##anthes
##ogram
engag
##grave
##eshire
revers
quaker
extend
render
luz
antwer
painters
rosem
##cliffe
bowie
rupert
collaborator
substitute
##javur
leroy
андр
jurisdiction
cinn
lined
##rome
##xa
##zhen
##alle
##asant
chill
##imus
seaf
##antan
brave
clipper
marse
##izo
exit
irwin
allmusic
slam
nowe
strath
thanjavur
supervision
mueller
freel
orchard
difference
townships
survival
akron
1791
lords
malek
tamar
cyril
caval
tulip
mysteries
kcmg
creeping
bivalve
مزرعه
mf
tina
##aid
##wy
##erun
dex
prab
complement
##ectives
herm
drill
endurance
thrissur
crom
151
storyline
waltham
motive
salix
technicolor
farn
ecoz
breton
primrose
pennine
lighting
icebre
respect
aerob
miracle
inspection
galleries
daniels
banana
dolph
jurassic
kosovo
additionally
volcanoes
scarab
saskatoon
rigged
##امع
bryant
tajik
umbrella
conscious
bakhtiari
nicholson
cw
gus
hary
jill
nell
tes
##loc
##bled
##uis
##zadeh
##ро
ink
##atri
##enic
##elu
##ethe
fors
##oti
##osoma
arun
comprise
##ograd
##rach
abe
blow
context
butt
##ajar
juno
##yss
terence
crete
angus
sixteenth
bremer
##aldo
premises
micron
hym
variously
reservation
hubert
420
contracted
ronnie
ensign
dimens
climbed
nutrit
hiatus
extraord
burgess
densely
jolgeh
dendrob
drosera
fing
hik
hbo
lich
nast
sinn
ump
yon
##rado
##jas
##enza
##isto
asked
unde
spik
##arte
seems
##uche
engr
##ylis
endow
jup
primitive
pennant
##echt
reception
##cox
sarawak
arrival
jonas
exploring
vacation
gateway
gentian
sophie
spokane
embark
knoxville
clemson
redesign
قلعه
aks
bip
bony
esh
pinc
##lis
##hwa
##grove
##mec
##vand
##edge
alain
shooter
grist
playback
centennial
herc
parry
##shmi
editing
peg
guid
calvin
##rows
valve
intercept
basile
mask
merrill
gradually
penny
woodward
esper
eslam
governmental
luft
shrine
somali
industrialist
##opterus
soundtracks
emerged
teenagers
chaharm
pools
mechanics
cascades
sikkim
##итет
wendy
fleshy
preferred
clapboard
doubleday
senecio
50000
dani
het
oj
phel
xia
##rish
##kk
##vs
##olen
stiff
##berra
##illion
shik
roh
abol
miocene
canberra
suites
sukh
142
constant
depend
republished
petit
cheung
greatly
havana
memories
cerc
380
psychiatric
eldest
nineteen
olivia
vulner
aleksandr
sprague
tragedy
percussionist
songwriting
neoclass
##video
cuck
gł
hover
kinn
pump
rin
##km
##но
##aring
##lew
schoolhouse
client
carmen
novi
directing
coached
##issima
##athlete
draining
phlox
##ajan
##orsky
153
titular
solanum
goat
eleanor
announc
bally
brandenburg
presentation
judith
wildflower
explore
juliet
automation
closer
deadly
conception
pinus
hazard
challenger
functional
##aspis
nepticulidae
stamford
survivors
scandinavia
aggressive
accomplished
chaharmahal
hof
kats
lach
pau
ys
##rip
##ng
##base
##tur
##ɔl
##ικ
##79
##orah
##adar
##adena
##umen
##ianus
thi
spine
##opl
arund
##quist
abuse
##lesia
designers
##owska
ilam
1870s
##yday
narrator
watts
nickel
sequels
potomac
tonight
##rovich
##evich
##ławek
loved
yamag
graphics
message
corvettes
prosper
empty
analyst
madhya
minimum
chimneys
octagonal
corruption
duss
dunk
nal
pga
rother
tash
yuc
##zna
##ес
##86
strick
ask
##agiri
##cee
shrop
seem
parade
suitable
##luding
drained
mehr
##grin
amos
moves
evelyn
epoch
surpass
##ertain
democrats
backup
menon
synth
taunton
chaet
laboratories
splend
makers
launching
chihu
benefit
echin
diseases
hannah
benefice
anthropology
حسين
boutique
elegans
sustainable
lauder
thursday
shropshire
bs
eating
homer
oec
wav
иван
##gau
##mell
##vy
##olt
##aden
##ulic
prostrate
##mani
blend
subm
##ysl
141
saline
goa
2400
superstar
keen
camel
melville
destiny
fifteenth
survives
kalining
340
julio
funeral
odys
jews
hawaiʻi
participate
dynamo
dirt
assassination
daimler
wartime
analytics
kaliningrad
eaton
fianna
piston
rent
vu
wattle
بن
##kenny
##ır
##esan
##atae
##roid
##emouth
beats
praying
##ongo
##athlon
stark
mez
##icker
weak
barack
teresa
valu
fargo
2100
twil
composers
##ledon
berber
##hao
melody
seasonal
groton
float
##ска
poorly
muller
tomaszow
##querque
hatchback
turkmenistan
guzmania
haryana
70s
erit
jiro
kro
kaj
oster
tene
никола
##oft
##jor
##54
##anium
##anagan
##arctic
##asso
shat
sefid
##anthe
grind
adjo
sheld
coat
crisp
magdal
##rosse
malp
lawson
skel
sonoma
muz
bordeaux
oilers
mitch
sinatra
sudbury
##efa
option
laying
dimit
##ˈtɕ
tugboat
fitzroy
delegate
tubular
javier
kauai
guerr
##osperma
jubilee
prickly
vintage
polydor
engraver
hello
io
nug
nath
pard
rfc
watt
##daughter
##jaw
##will
##illand
whitt
shap
seized
serra
sco
regiment
manned
irene
swid
##brian
moran
everyday
governorate
compilations
antenn
thread
transliter
doris
roller
qualifying
nocturn
sherlock
cornerback
delivering
pickup
integ
sculptures
cadillac
ravens
mohammadabad
amazonas
krai
turbine
rhizomes
shahrak
włoc
grosso
deployed
prefers
ochreous
albuquerque
apocalyptic
cush
kt
mab
mav
taf
wigan
در
##cell
##inium
##atile
alta
202
##ocrat
reza
athen
##abody
shady
specul
pollin
##ereign
maya
peabody
australasia
metals
##ffen
olds
striking
intent
extract
startup
mckin
##ographed
antic
3500
ghaz
astounding
steelers
stanis
packet
please
cooking
nichols
saleh
torpedoed
apparel
astronomical
eminent
zhejiang
ecozone
lus
sack
yms
حاج
##yz
##ioc
##mother
##was
##89
##omel
##idy
##igon
##orno
##udo
deuve
##azer
parap
##icea
tehs
ware
seneca
penned
mori
describe
mcint
berger
saul
doctors
##markets
curved
32nd
mallow
vega
sovereign
ashland
switch
dominic
tonnes
minefields
mustang
##ерс
options
stopped
tirana
##athea
mentor
northamptonshire
siemens
stinging
reeves
earthquake
antwerp
bench
custer
mous
tae
##rab
##nin
##ɔm
##igible
ching
##ulis
unfin
##utz
##estro
##allo
shine
trach
trends
##ibi
polk
flame
engel
elias
mega
##esha
##link
##ijk
winters
50th
transporting
pressed
cuts
1781
hurd
kanagawa
dragonfly
rabbi
culmin
wonderful
sagaing
rostam
##mantle
craftsman
favourite
##builders
solicitor
włocławek
unfinished
fang
gott
mama
rous
yer
##wsky
##71
##enidae
thief
##rico
##odina
arali
seyc
tried
##okawa
##azu
mied
##shrub
westchester
airship
##ylie
crad
revenues
transatl
##ophidae
epee
patent
impacts
privateer
olympia
marty
illness
judicial
sabah
cultivars
baft
azad
##holder
trailer
542
pirate
konin
felt
giul
##zyna
powder
convicts
anchored
absor
needle
dodgers
##catcher
discusses
monitoring
siedlce
nixon
tehsil
bif
koc
pim
rond
surn
##يان
##75
##igu
sper
##uddin
leased
suit
notice
##space
##engthen
willam
bela
welles
ecology
##ydon
freighter
harding
microph
panam
birken
otter
##uzu
fairbanks
ballantine
elliot
ashton
candidates
schedule
striped
montevideo
physicians
natalie
kutno
dillon
elliptic
savoie
disbanded
enthusiast
bromeliaceae
bau
bella
hau
maw
ostr
yah
##yas
##bis
##mings
##ɛr
##øya
##amu
ascent
thal
##agus
##ovi
neither
abh
abad
hermann
coy
coaching
##inness
143
aviv
noah
snap
shorts
helps
##ije
rapha
confess
rosario
fathers
##iyan
seventeenth
venues
arkham
iconic
1782
bachelors
##metrical
campaigns
wolff
##ˈnitsa
vegetable
tatar
displayed
cortic
displac
daddy
horizont
leopard
ninja
epidendrum
propaganda
piotrkow
aunt
bust
cine
cage
gost
rfa
uw
##kumar
##jell
##ية
##ック
##isen
itv
stint
##stable
##leod
##emer
##aghan
distant
clav
newbery
moody
regent
capp
##loch
##itsch
journalists
carex
##riott
patches
jeanne
facilit
halog
muir
fremantle
subtr
chiefly
cornice
anthologies
arrested
investor
bridgeport
financing
okin
somerville
kirby
rudolf
waiting
serialization
incorporating
colours
wetlands
celebrate
establishing
clarinet
tongue
patriot
patriots
shrewsbury
cichlid
extraordinary
jupiter
basilewsky
bamb
feng
lys
nile
pey
tuf
woo
yok
##yang
##nard
##isar
ito
##iances
spun
dez
shue
shiny
##asting
##ucket
centro
partial
incarn
secure
blot
subshrub
##ollah
smash
##velle
geographical
governing
mered
lifeboat
donovan
speak
fieldstone
sunn
ruined
laurie
1783
lacrosse
vikings
vicente
questions
navigable
blanco
deutsch
inhabited
marlborough
dracula
epiphytic
aydın
dictionary
4x
850
90s
bells
benny
eud
fuz
kia
mn
mard
pour
rij
witt
zepp
на
تلم
##kl
##pol
##ɔva
##نج
##64
##°n
##olah
##amous
alk
##ocin
uncredited
##herson
knots
fired
paran
phrase
lars
pointe
underwater
##icks
##spur
152
##insk
##ufka
sumner
mastered
2600
esk
##ushima
goodbye
modernist
##gsu
bhatt
1787
immort
taxi
uncertain
hudders
succeed
categories
builders
wielkie
sleeping
gymnastics
sparks
interpretation
pvt
beaumont
notorious
attributed
registration
resurrect
twilight
fenn
gaut
ns
rana
rapt
sieg
##nual
##pu
##от
##enti
##roda
forth
##uld
##odus
conidae
beers
seeks
cologne
boise
genetic
jobs
blak
button
italia
munster
limerick
palae
mathew
luzon
robust
introducing
freshman
pasadena
resemblance
##actylus
renovation
remainder
reelected
syndicated
shuttle
##иха
aicte
conspiracy
willamette
meredith
huddersfield
bop
fah
gud
ruled
telling
пет
##khan
##zec
##ˈlɛ
##78
##łd
##inisc
##icist
##icap
##ecar
onion
spells
prunus
troll
gris
afro
eli
subter
whel
##teh
##seek
voj
##quez
##ushan
biomed
havilland
croix
sharif
otis
doric
##hoff
payment
##burne
murdered
dhabi
chesterfield
magnus
analog
academics
cactaceae
sylvia
reinfor
michele
trauma
examinations
eruption
survivor
słupsk
convicted
cornelius
byrne
fresno
dismiss
araliaceae
تلمبه
40000
dich
erich
hoc
hath
jow
kord
oahu
pie
##zl
##jit
##eson
##alow
stanton
thuring
framed
whis
##ellan
##qual
desper
coel
subclass
stef
retract
carefully
extral
coastline
columb
cultures
granddaughter
devi
hitler
damon
chaplin
informal
dryandra
hunan
admissions
charlton
separately
quarry
ventura
trustees
1788
accountant
responsibility
prototypes
crowned
slee
eugen
eugenia
##criptions
##vetch
sergei
fidel
leathery
terminus
marxist
garnered
subdivision
ˈnɔv
halogaland
30000
aground
cere
ia
jaz
oles
pk
pias
rae
rham
yuri
##cal
##cars
##fel
##wu
##ᅡᆫ
##61
##гор
##anaceae
##icata
##entin
alison
##aci
##ople
##akov
##igham
trend
levin
knife
aph
hermit
##shima
geography
midwestern
deborah
soy
masj
##zeb
trem
joshi
handful
metalcore
##gaard
tarzan
##backs
lieb
hindust
bonnie
ranunc
charlott
readership
dunes
sieradz
pedag
attempted
measured
grossing
ucla
eaten
humphrey
schwarz
undergone
dian
haf
phe
rasht
##parts
##anza
alec
##owka
209
##othes
spire
spha
neur
arv
orion
leb
worst
afford
repris
##ropics
bloss
monsters
beta
161
harlan
soci
simone
redwood
##ucks
paterson
meridian
waterfall
latitude
showy
documented
33rd
gables
excav
loving
bombers
layout
rigid
tibetan
armoured
skyline
trondheim
mithun
irrigation
izvorul
cet
fert
kesh
mesh
pn
sae
uae
vince
wi
yv
##oit
##hala
##mos
##83
##alk
##asher
##icit
##ecious
##adian
forem
unexp
##optil
schuster
beaches
prud
##antis
##antage
##ifest
scrum
##yletic
amit
##ynch
blackish
##stemon
lois
loire
describing
marketplace
macmillan
trades
samar
ramesh
buttercup
abdel
duluth
lehigh
حسن
##holders
##ستان
lansing
##iflorum
folded
cessna
seychel
cg
gis
jong
kani
lille
nago
uz
zer
##bound
##68
##onidae
##aroo
##andar
##estris
##alling
deport
##antes
file
##ogi
coimb
miner
upgraded
##mini
swind
##iscidae
weg
opat
opens
milford
##henburg
slalom
morse
##yright
burk
martini
copyright
lui
grassy
raid
hemp
chaos
myristic
mistaken
concordia
kemp
petioles
hussain
transactions
dolphins
fay
lute
ville
yos
ˈx
##oint
##omis
##ionidae
##istrict
##adas
##ocera
arro
prizes
boyle
##awks
regia
mani
roma
resolution
crimes
barre
lawyers
mode
reminisc
volga
someone
load
##echow
confusion
seminal
cerat
ellipt
mccall
airports
essendon
##uchow
tribes
waik
bucks
1778
pediatric
marshal
1785
cartoons
podlaska
podlaski
##لاق
absent
russo
brackish
oyster
phylogen
cosmopterigidae
extraliga
gund
lunch
mites
rv
tapes
wants
миха
##rio
##lore
##houn
##72
##ɛl
##ान
##anov
##inel
##oszyce
schles
##odia
cones
dei
trace
claw
##mania
poppy
secular
teens
ende
aging
crack
barcl
##indra
willard
##bride
snyder
strig
imaging
researcher
situation
honored
brooke
astur
cutting
frederik
thorax
andrei
igor
cordoba
aluminium
intelligent
tyrone
mazowiecka
ramsey
fjordane
jiangsu
wanderers
firuzabad
crustace
brendan
raphael
zeppelin
myristicaceae
cyan
xer
yur
yesh
zhu
##kuf
##lau
##hir
##об
anis
##acan
thinking
schist
schiz
sej
##izi
ella
warning
amid
barrington
madeira
215
patel
skip
backstroke
paula
##elands
halls
35th
veins
digest
cerith
jammu
##bonilla
boroughs
requisition
##heimer
verne
ahmadabad
##schule
concerned
dollars
memoirs
turbop
demonst
himalayan
mateo
exploitation
quintet
benedictine
atmosphere
nuevo
cuisine
vulnerable
dau
houghton
lyd
nj
pony
rides
uh
uefa
zir
كلا
##fest
##atz
##athed
##rez
stained
##lein
ashe
commit
suwa
eastman
guan
politicians
barge
##inny
slip
summers
khmer
palear
kew
rhym
##ographies
groove
mixes
miranda
410
1779
1770
immers
##know
cypriot
##ств
